{
  "version": "1.0",
  "truncation": null,
  "padding": null,
  "added_tokens": [
    {
      "id": 0,
      "content": "<pad>",
      "single_word": false,
      "lstrip": false,
      "rstrip": false,
      "normalized": false,
      "special": true
    },
    {
      "id": 1,
      "content": "<unk>",
      "single_word": false,
      "lstrip": false,
      "rstrip": false,
      "normalized": false,
      "special": true
    },
    {
      "id": 2,
      "content": "[CLS]",
      "single_word": false,
      "lstrip": false,
      "rstrip": false,
      "normalized": false,
      "special": true
    },
    {
      "id": 3,
      "content": "[SEP]",
      "single_word": false,
      "lstrip": false,
      "rstrip": false,
      "normalized": false,
      "special": true
    },
    {
      "id": 4,
      "content": "[MASK]",
      "single_word": false,
      "lstrip": false,
      "rstrip": false,
      "normalized": false,
      "special": true
    }
  ],
  "normalizer": null,
  "pre_tokenizer": {
    "type": "Metaspace",
    "replacement": "▁",
    "prepend_scheme": "never",
    "split": true
  },
  "post_processor": {
    "type": "TemplateProcessing",
    "single": [
      {
        "SpecialToken": {
          "id": "[CLS]",
          "type_id": 0
        }
      },
      {
        "Sequence": {
          "id": "A",
          "type_id": 0
        }
      },
      {
        "SpecialToken": {
          "id": "[SEP]",
          "type_id": 0
        }
      }
    ],
    "pair": [
      {
        "SpecialToken": {
          "id": "[CLS]",
          "type_id": 0
        }
      },
      {
        "Sequence": {
          "id": "A",
          "type_id": 0
        }
      },
      {
        "SpecialToken": {
          "id": "[SEP]",
          "type_id": 0
        }
      },
      {
        "Sequence": {
          "id": "B",
          "type_id": 1
        }
      },
      {
        "SpecialToken": {
          "id": "[SEP]",
          "type_id": 1
        }
      }
    ],
    "special_tokens": {
      "[CLS]": {
        "id": "[CLS]",
        "ids": [
          2
        ],
        "tokens": [
          "[CLS]"
        ]
      },
      "[SEP]": {
        "id": "[SEP]",
        "ids": [
          3
        ],
        "tokens": [
          "[SEP]"
        ]
      }
    }
  },
  "decoder": {
    "type": "Metaspace",
    "replacement": "▁",
    "prepend_scheme": "never",
    "split": true
  },
  "model": {
    "type": "Unigram",
    "unk_id": 1,
    "vocab": [
      [
        "<pad>",
        0.0
      ],
      [
        "<unk>",
        0.0
      ],
      [
        "[CLS]",
        0.0
      ],
      [
        "[SEP]",
        0.0
      ],
      [
        "[MASK]",
        0.0
      ],
      [
        "即係",
        0.0
      ],
      [
        "唔係",
        0.0
      ],
      [
        "跟住",
        0.0
      ],
      [
        "但係",
        0.0
      ],
      [
        "之後",
        0.0
      ],
      [
        "一個",
        0.0
      ],
      [
        "同埋",
        0.0
      ],
      [
        "覺得",
        0.0
      ],
      [
        "可以",
        0.0
      ],
      [
        "其實",
        0.0
      ],
      [
        "而家",
        0.0
      ],
      [
        "中間",
        0.0
      ],
      [
        "真係",
        0.0
      ],
      [
        "因為",
        0.0
      ],
      [
        "如果",
        0.0
      ],
      [
        "下面",
        0.0
      ],
      [
        "係咪",
        0.0
      ],
      [
        "自己",
        0.0
      ],
      [
        "咁樣",
        0.0
      ],
      [
        "噉樣",
        0.0
      ],
      [
        "應該",
        0.0
      ],
      [
        "好似",
        0.0
      ],
      [
        "上面",
        0.0
      ],
      [
        "可能",
        0.0
      ],
      [
        "開始",
        0.0
      ],
      [
        "經過",
        0.0
      ],
      [
        "或者",
        0.0
      ],
      [
        "時候",
        0.0
      ],
      [
        "唔好",
        0.0
      ],
      [
        "所以",
        0.0
      ],
      [
        "少少",
        0.0
      ],
      [
        "譬如",
        0.0
      ],
      [
        "已經",
        0.0
      ],
      [
        "落去",
        0.0
      ],
      [
        "然後",
        0.0
      ],
      [
        "點解",
        0.0
      ],
      [
        "沙漠",
        0.0
      ],
      [
        "不過",
        0.0
      ],
      [
        "穿過",
        0.0
      ],
      [
        "問題",
        0.0
      ],
      [
        "兩個",
        0.0
      ],
      [
        "個人",
        0.0
      ],
      [
        "終點",
        0.0
      ],
      [
        "上去",
        0.0
      ],
      [
        "哩個",
        0.0
      ],
      [
        "點樣",
        0.0
      ],
      [
        "有個",
        0.0
      ],
      [
        "唔到",
        0.0
      ],
      [
        "大家",
        0.0
      ],
      [
        "邊個",
        0.0
      ],
      [
        "一定",
        0.0
      ],
      [
        "一路",
        0.0
      ],
      [
        "成日",
        0.0
      ],
      [
        "政府",
        0.0
      ],
      [
        "香港",
        0.0
      ],
      [
        "公司",
        0.0
      ],
      [
        "茅屋",
        0.0
      ],
      [
        "知道",
        0.0
      ],
      [
        "過去",
        0.0
      ],
      [
        "唔使",
        0.0
      ],
      [
        "叫做",
        0.0
      ],
      [
        "頭先",
        0.0
      ],
      [
        "右邊",
        0.0
      ],
      [
        "一直",
        0.0
      ],
      [
        "一樣",
        0.0
      ],
      [
        "方向",
        0.0
      ],
      [
        "第一",
        0.0
      ],
      [
        "鍾意",
        0.0
      ],
      [
        "左邊",
        0.0
      ],
      [
        "繼續",
        0.0
      ],
      [
        "地方",
        0.0
      ],
      [
        "地圖",
        0.0
      ],
      [
        "時間",
        0.0
      ],
      [
        "邊度",
        0.0
      ],
      [
        "唔見",
        0.0
      ],
      [
        "馬戲",
        0.0
      ],
      [
        "兜過",
        0.0
      ],
      [
        "個位",
        0.0
      ],
      [
        "比較",
        0.0
      ],
      [
        "冇乜",
        0.0
      ],
      [
        "點鐘",
        0.0
      ],
      [
        "朋友",
        0.0
      ],
      [
        "交叉",
        0.0
      ],
      [
        "出嚟",
        0.0
      ],
      [
        "返去",
        0.0
      ],
      [
        "開心",
        0.0
      ],
      [
        "都會",
        0.0
      ],
      [
        "需要",
        0.0
      ],
      [
        "泳池",
        0.0
      ],
      [
        "右面",
        0.0
      ],
      [
        "左面",
        0.0
      ],
      [
        "位置",
        0.0
      ],
      [
        "幾多",
        0.0
      ],
      [
        "機場",
        0.0
      ],
      [
        "之間",
        0.0
      ],
      [
        "啱啱",
        0.0
      ],
      [
        "梗係",
        0.0
      ],
      [
        "公園",
        0.0
      ],
      [
        "隔離",
        0.0
      ],
      [
        "屋企",
        0.0
      ],
      [
        "葡萄",
        0.0
      ],
      [
        "淨係",
        0.0
      ],
      [
        "迷宮",
        0.0
      ],
      [
        "車站",
        0.0
      ],
      [
        "以前",
        0.0
      ],
      [
        "係噉",
        0.0
      ],
      [
        "差唔多",
        0.0
      ],
      [
        "諗住",
        0.0
      ],
      [
        "魚排",
        0.0
      ],
      [
        "科技",
        0.0
      ],
      [
        "另外",
        0.0
      ],
      [
        "會見",
        0.0
      ],
      [
        "條線",
        0.0
      ],
      [
        "唔同",
        0.0
      ],
      [
        "起點",
        0.0
      ],
      [
        "希望",
        0.0
      ],
      [
        "其他",
        0.0
      ],
      [
        "滑雪",
        0.0
      ],
      [
        "今日",
        0.0
      ],
      [
        "等等",
        0.0
      ],
      [
        "明白",
        0.0
      ],
      [
        "定係",
        0.0
      ],
      [
        "電話",
        0.0
      ],
      [
        "根本",
        0.0
      ],
      [
        "冇錯",
        0.0
      ],
      [
        "原來",
        0.0
      ],
      [
        "大概",
        0.0
      ],
      [
        "工廠",
        0.0
      ],
      [
        "同學",
        0.0
      ],
      [
        "有時",
        0.0
      ],
      [
        "之前",
        0.0
      ],
      [
        "意思",
        0.0
      ],
      [
        "仲有",
        0.0
      ],
      [
        "感覺",
        0.0
      ],
      [
        "一齊",
        0.0
      ],
      [
        "大樹",
        0.0
      ],
      [
        "本身",
        0.0
      ],
      [
        "方面",
        0.0
      ],
      [
        "扮汗",
        0.0
      ],
      [
        "今次",
        0.0
      ],
      [
        "不如",
        0.0
      ],
      [
        "球場",
        0.0
      ],
      [
        "多謝",
        0.0
      ],
      [
        "社會",
        0.0
      ],
      [
        "幾好",
        0.0
      ],
      [
        "貧大宅",
        0.0
      ],
      [
        "即刻",
        0.0
      ],
      [
        "北方",
        0.0
      ],
      [
        "金字塔",
        0.0
      ],
      [
        "風車",
        0.0
      ],
      [
        "礦場",
        0.0
      ],
      [
        "當然",
        0.0
      ],
      [
        "碼頭",
        0.0
      ],
      [
        "先至",
        0.0
      ],
      [
        "女仔",
        0.0
      ],
      [
        "究竟",
        0.0
      ],
      [
        "總之",
        0.0
      ],
      [
        "情況",
        0.0
      ],
      [
        "完全",
        0.0
      ],
      [
        "瀑布",
        0.0
      ],
      [
        "農莊",
        0.0
      ],
      [
        "墳場",
        0.0
      ],
      [
        "辛苦",
        0.0
      ],
      [
        "出來",
        0.0
      ],
      [
        "樹林",
        0.0
      ],
      [
        "禮堂",
        0.0
      ],
      [
        "你講",
        0.0
      ],
      [
        "燈塔",
        0.0
      ],
      [
        "畫到",
        0.0
      ],
      [
        "首先",
        0.0
      ],
      [
        "纜車",
        0.0
      ],
      [
        "所謂",
        0.0
      ],
      [
        "國旗",
        0.0
      ],
      [
        "講呢",
        0.0
      ],
      [
        "重有",
        0.0
      ],
      [
        "全部",
        0.0
      ],
      [
        "服務",
        0.0
      ],
      [
        "清楚",
        0.0
      ],
      [
        "得到",
        0.0
      ],
      [
        "特別",
        0.0
      ],
      [
        "虛線",
        0.0
      ],
      [
        "就算",
        0.0
      ],
      [
        "出去",
        0.0
      ],
      [
        "唔記得",
        0.0
      ],
      [
        "效果",
        0.0
      ],
      [
        "打橫",
        0.0
      ],
      [
        "文字",
        0.0
      ],
      [
        "以為",
        0.0
      ],
      [
        "通常",
        0.0
      ],
      [
        "相信",
        0.0
      ],
      [
        "杏堂",
        0.0
      ],
      [
        "禮拜",
        0.0
      ],
      [
        "行到",
        0.0
      ],
      [
        "地盤",
        0.0
      ],
      [
        "市場",
        0.0
      ],
      [
        "我講",
        0.0
      ],
      [
        "尚健",
        0.0
      ],
      [
        "入去",
        0.0
      ],
      [
        "出現",
        0.0
      ],
      [
        "直情",
        0.0
      ],
      [
        "條路線",
        0.0
      ],
      [
        "裏邊",
        0.0
      ],
      [
        "讀書",
        0.0
      ],
      [
        "冇問題",
        0.0
      ],
      [
        "右行",
        0.0
      ],
      [
        "地標",
        0.0
      ],
      [
        "男朋友",
        0.0
      ],
      [
        "唔該",
        0.0
      ],
      [
        "更加",
        0.0
      ],
      [
        "水塘",
        0.0
      ],
      [
        "一條",
        0.0
      ],
      [
        "將來",
        0.0
      ],
      [
        "提碑",
        0.0
      ],
      [
        "工作",
        0.0
      ],
      [
        "最後",
        0.0
      ],
      [
        "電腦",
        0.0
      ],
      [
        "能夠",
        0.0
      ],
      [
        "肯定",
        0.0
      ],
      [
        "一次",
        0.0
      ],
      [
        "後尾",
        0.0
      ],
      [
        "重要",
        0.0
      ],
      [
        "信心",
        0.0
      ],
      [
        "我話",
        0.0
      ],
      [
        "成病",
        0.0
      ],
      [
        "英文",
        0.0
      ],
      [
        "男仔",
        0.0
      ],
      [
        "今年",
        0.0
      ],
      [
        "完成",
        0.0
      ],
      [
        "犀利",
        0.0
      ],
      [
        "樂園",
        0.0
      ],
      [
        "任何",
        0.0
      ],
      [
        "返來",
        0.0
      ],
      [
        "記得",
        0.0
      ],
      [
        "憂店",
        0.0
      ],
      [
        "緊要",
        0.0
      ],
      [
        "細個",
        0.0
      ],
      [
        "國家",
        0.0
      ],
      [
        "第二個",
        0.0
      ],
      [
        "先生",
        0.0
      ],
      [
        "左上",
        0.0
      ],
      [
        "經濟",
        0.0
      ],
      [
        "幾時",
        0.0
      ],
      [
        "點啊",
        0.0
      ],
      [
        "直接",
        0.0
      ],
      [
        "叢林",
        0.0
      ],
      [
        "我會",
        0.0
      ],
      [
        "一係",
        0.0
      ],
      [
        "突然",
        0.0
      ],
      [
        "基本上",
        0.0
      ],
      [
        "雖然",
        0.0
      ],
      [
        "說話",
        0.0
      ],
      [
        "大陸",
        0.0
      ],
      [
        "打電話",
        0.0
      ],
      [
        "成個",
        0.0
      ],
      [
        "直線",
        0.0
      ],
      [
        "上行",
        0.0
      ],
      [
        "哩樣",
        0.0
      ],
      [
        "自由",
        0.0
      ],
      [
        "右上",
        0.0
      ],
      [
        "世界",
        0.0
      ],
      [
        "翻版",
        0.0
      ],
      [
        "繞過",
        0.0
      ],
      [
        "貨倉",
        0.0
      ],
      [
        "理由",
        0.0
      ],
      [
        "落到",
        0.0
      ],
      [
        "發覺",
        0.0
      ],
      [
        "返工",
        0.0
      ],
      [
        "東方",
        0.0
      ],
      [
        "影響",
        0.0
      ],
      [
        "講到",
        0.0
      ],
      [
        "法律",
        0.0
      ],
      [
        "一種",
        0.0
      ],
      [
        "未必",
        0.0
      ],
      [
        "旅行",
        0.0
      ],
      [
        "要求",
        0.0
      ],
      [
        "關係",
        0.0
      ],
      [
        "學生",
        0.0
      ],
      [
        "考慮",
        0.0
      ],
      [
        "會話",
        0.0
      ],
      [
        "男人",
        0.0
      ],
      [
        "電視",
        0.0
      ],
      [
        "學校",
        0.0
      ],
      [
        "唔夠",
        0.0
      ],
      [
        "轉彎",
        0.0
      ],
      [
        "其中",
        0.0
      ],
      [
        "早晨",
        0.0
      ],
      [
        "水平",
        0.0
      ],
      [
        "生活",
        0.0
      ],
      [
        "最好",
        0.0
      ],
      [
        "西方",
        0.0
      ],
      [
        "好過",
        0.0
      ],
      [
        "代表",
        0.0
      ],
      [
        "公共",
        0.0
      ],
      [
        "山路",
        0.0
      ],
      [
        "方法",
        0.0
      ],
      [
        "發展",
        0.0
      ],
      [
        "簡單",
        0.0
      ],
      [
        "圖案",
        0.0
      ],
      [
        "好睇",
        0.0
      ],
      [
        "我見",
        0.0
      ],
      [
        "意見",
        0.0
      ],
      [
        "接受",
        0.0
      ],
      [
        "最近",
        0.0
      ],
      [
        "貧大",
        0.0
      ],
      [
        "同一",
        0.0
      ],
      [
        "辦法",
        0.0
      ],
      [
        "拜拜",
        0.0
      ],
      [
        "圖片",
        0.0
      ],
      [
        "第二",
        0.0
      ],
      [
        "報紙",
        0.0
      ],
      [
        "分鐘",
        0.0
      ],
      [
        "容易",
        0.0
      ],
      [
        "打開",
        0.0
      ],
      [
        "外國",
        0.0
      ],
      [
        "直行",
        0.0
      ],
      [
        "起碼",
        0.0
      ],
      [
        "平時",
        0.0
      ],
      [
        "入面",
        0.0
      ],
      [
        "等陣",
        0.0
      ],
      [
        "反而",
        0.0
      ],
      [
        "有陣",
        0.0
      ],
      [
        "慢慢",
        0.0
      ],
      [
        "主要",
        0.0
      ],
      [
        "人工",
        0.0
      ],
      [
        "節目",
        0.0
      ],
      [
        "直落",
        0.0
      ],
      [
        "點知",
        0.0
      ],
      [
        "三個",
        0.0
      ],
      [
        "點呀",
        0.0
      ],
      [
        "同意",
        0.0
      ],
      [
        "行過",
        0.0
      ],
      [
        "所有",
        0.0
      ],
      [
        "財政",
        0.0
      ],
      [
        "女人",
        0.0
      ],
      [
        "個個",
        0.0
      ],
      [
        "普通",
        0.0
      ],
      [
        "爸爸",
        0.0
      ],
      [
        "例如",
        0.0
      ],
      [
        "直上",
        0.0
      ],
      [
        "直程",
        0.0
      ],
      [
        "畫個",
        0.0
      ],
      [
        "水平線",
        0.0
      ],
      [
        "環境",
        0.0
      ],
      [
        "左右",
        0.0
      ],
      [
        "食飯",
        0.0
      ],
      [
        "一半",
        0.0
      ],
      [
        "概念",
        0.0
      ],
      [
        "距離",
        0.0
      ],
      [
        "左行",
        0.0
      ],
      [
        "個韻",
        0.0
      ],
      [
        "港人",
        0.0
      ],
      [
        "阿媽",
        0.0
      ],
      [
        "考試",
        0.0
      ],
      [
        "人權",
        0.0
      ],
      [
        "包括",
        0.0
      ],
      [
        "小姐",
        0.0
      ],
      [
        "原本",
        0.0
      ],
      [
        "試過",
        0.0
      ],
      [
        "始終",
        0.0
      ],
      [
        "對於",
        0.0
      ],
      [
        "下行",
        0.0
      ],
      [
        "放棄",
        0.0
      ],
      [
        "我想",
        0.0
      ],
      [
        "講話",
        0.0
      ],
      [
        "公務員",
        0.0
      ],
      [
        "幾個",
        0.0
      ],
      [
        "我個",
        0.0
      ],
      [
        "得閒",
        0.0
      ],
      [
        "會堂",
        0.0
      ],
      [
        "分別",
        0.0
      ],
      [
        "大個",
        0.0
      ],
      [
        "尊重",
        0.0
      ],
      [
        "當時",
        0.0
      ],
      [
        "之外",
        0.0
      ],
      [
        "餐室",
        0.0
      ],
      [
        "大學",
        0.0
      ],
      [
        "一份",
        0.0
      ],
      [
        "路線",
        0.0
      ],
      [
        "黐線",
        0.0
      ],
      [
        "行為",
        0.0
      ],
      [
        "忍依",
        0.0
      ],
      [
        "介紹",
        0.0
      ],
      [
        "投資",
        0.0
      ],
      [
        "興趣",
        0.0
      ],
      [
        "廣告",
        0.0
      ],
      [
        "日本",
        0.0
      ],
      [
        "講下",
        0.0
      ],
      [
        "唔緊要",
        0.0
      ],
      [
        "我知",
        0.0
      ],
      [
        "甚至",
        0.0
      ],
      [
        "一年",
        0.0
      ],
      [
        "右手",
        0.0
      ],
      [
        "表達",
        0.0
      ],
      [
        "有錢",
        0.0
      ],
      [
        "秩序",
        0.0
      ],
      [
        "能力",
        0.0
      ],
      [
        "只不過",
        0.0
      ],
      [
        "生意",
        0.0
      ],
      [
        "機會",
        0.0
      ],
      [
        "永遠",
        0.0
      ],
      [
        "字典",
        0.0
      ],
      [
        "上方",
        0.0
      ],
      [
        "飛機",
        0.0
      ],
      [
        "講過",
        0.0
      ],
      [
        "講得",
        0.0
      ],
      [
        "接近",
        0.0
      ],
      [
        "好玩",
        0.0
      ],
      [
        "陣時",
        0.0
      ],
      [
        "感受",
        0.0
      ],
      [
        "無論",
        0.0
      ],
      [
        "數碼",
        0.0
      ],
      [
        "面對",
        0.0
      ],
      [
        "出面",
        0.0
      ],
      [
        "我要",
        0.0
      ],
      [
        "來講",
        0.0
      ],
      [
        "股票",
        0.0
      ],
      [
        "制度",
        0.0
      ],
      [
        "圓形",
        0.0
      ],
      [
        "小學",
        0.0
      ],
      [
        "知點",
        0.0
      ],
      [
        "立法",
        0.0
      ],
      [
        "講真",
        0.0
      ],
      [
        "令到",
        0.0
      ],
      [
        "一陣",
        0.0
      ],
      [
        "法院",
        0.0
      ],
      [
        "開頭",
        0.0
      ],
      [
        "一間",
        0.0
      ],
      [
        "城市",
        0.0
      ],
      [
        "原因",
        0.0
      ],
      [
        "判決",
        0.0
      ],
      [
        "發生",
        0.0
      ],
      [
        "女朋友",
        0.0
      ],
      [
        "中文",
        0.0
      ],
      [
        "去邊",
        0.0
      ],
      [
        "最多",
        0.0
      ],
      [
        "大佬",
        0.0
      ],
      [
        "返學",
        0.0
      ],
      [
        "問下",
        0.0
      ],
      [
        "厘米",
        0.0
      ],
      [
        "行行",
        0.0
      ],
      [
        "下方",
        0.0
      ],
      [
        "形容",
        0.0
      ],
      [
        "法官",
        0.0
      ],
      [
        "包住",
        0.0
      ],
      [
        "搞笑",
        0.0
      ],
      [
        "左手",
        0.0
      ],
      [
        "國際",
        0.0
      ],
      [
        "成績",
        0.0
      ],
      [
        "右手面",
        0.0
      ],
      [
        "經歷",
        0.0
      ],
      [
        "非常",
        0.0
      ],
      [
        "美國",
        0.0
      ],
      [
        "返到",
        0.0
      ],
      [
        "彭銅",
        0.0
      ],
      [
        "成為",
        0.0
      ],
      [
        "關於",
        0.0
      ],
      [
        "平衡",
        0.0
      ],
      [
        "周圍",
        0.0
      ],
      [
        "點講",
        0.0
      ],
      [
        "好難",
        0.0
      ],
      [
        "中國",
        0.0
      ],
      [
        "絕對",
        0.0
      ],
      [
        "明明",
        0.0
      ],
      [
        "今晚",
        0.0
      ],
      [
        "郵票",
        0.0
      ],
      [
        "一日",
        0.0
      ],
      [
        "上次",
        0.0
      ],
      [
        "透過",
        0.0
      ],
      [
        "之下",
        0.0
      ],
      [
        "一下",
        0.0
      ],
      [
        "壓力",
        0.0
      ],
      [
        "過程",
        0.0
      ],
      [
        "結果",
        0.0
      ],
      [
        "見過",
        0.0
      ],
      [
        "同事",
        0.0
      ],
      [
        "橢圓",
        0.0
      ],
      [
        "未來",
        0.0
      ],
      [
        "教書",
        0.0
      ],
      [
        "景點",
        0.0
      ],
      [
        "個樣",
        0.0
      ],
      [
        "好奇",
        0.0
      ],
      [
        "小心",
        0.0
      ],
      [
        "正常",
        0.0
      ],
      [
        "法庭",
        0.0
      ],
      [
        "利益",
        0.0
      ],
      [
        "頹餐",
        0.0
      ],
      [
        "舒服",
        0.0
      ],
      [
        "互聯網",
        0.0
      ],
      [
        "起身",
        0.0
      ],
      [
        "改革",
        0.0
      ],
      [
        "公仔",
        0.0
      ],
      [
        "作為",
        0.0
      ],
      [
        "認為",
        0.0
      ],
      [
        "第日",
        0.0
      ],
      [
        "掛住",
        0.0
      ],
      [
        "留意",
        0.0
      ],
      [
        "遲啲",
        0.0
      ],
      [
        "努力",
        0.0
      ],
      [
        "等如",
        0.0
      ],
      [
        "開支",
        0.0
      ],
      [
        "私營化",
        0.0
      ],
      [
        "北行",
        0.0
      ],
      [
        "手邊",
        0.0
      ],
      [
        "類似",
        0.0
      ],
      [
        "公約",
        0.0
      ],
      [
        "停低",
        0.0
      ],
      [
        "無聊",
        0.0
      ],
      [
        "左手面",
        0.0
      ],
      [
        "幾年",
        0.0
      ],
      [
        "正話",
        0.0
      ],
      [
        "兩年",
        0.0
      ],
      [
        "支持",
        0.0
      ],
      [
        "方便",
        0.0
      ],
      [
        "鐘頭",
        0.0
      ],
      [
        "方式",
        0.0
      ],
      [
        "受害",
        0.0
      ],
      [
        "沿住",
        0.0
      ],
      [
        "上市",
        0.0
      ],
      [
        "日子",
        0.0
      ],
      [
        "附近",
        0.0
      ],
      [
        "決定",
        0.0
      ],
      [
        "唔通",
        0.0
      ],
      [
        "選擇",
        0.0
      ],
      [
        "好彩",
        0.0
      ],
      [
        "頭髮",
        0.0
      ],
      [
        "夜晚",
        0.0
      ],
      [
        "奶茶",
        0.0
      ],
      [
        "真正",
        0.0
      ],
      [
        "手指",
        0.0
      ],
      [
        "研究",
        0.0
      ],
      [
        "盡量",
        0.0
      ],
      [
        "會考",
        0.0
      ],
      [
        "價值",
        0.0
      ],
      [
        "緊張",
        0.0
      ],
      [
        "在乎",
        0.0
      ],
      [
        "限制",
        0.0
      ],
      [
        "經驗",
        0.0
      ],
      [
        "後來",
        0.0
      ],
      [
        "有條",
        0.0
      ],
      [
        "四個",
        0.0
      ],
      [
        "講呀",
        0.0
      ],
      [
        "點呢",
        0.0
      ],
      [
        "同人",
        0.0
      ],
      [
        "噉樣樣",
        0.0
      ],
      [
        "得意",
        0.0
      ],
      [
        "態度",
        0.0
      ],
      [
        "曾經",
        0.0
      ],
      [
        "網絡",
        0.0
      ],
      [
        "條路",
        0.0
      ],
      [
        "澳洲",
        0.0
      ],
      [
        "抑或",
        0.0
      ],
      [
        "點算",
        0.0
      ],
      [
        "皮池",
        0.0
      ],
      [
        "到時",
        0.0
      ],
      [
        "聽講",
        0.0
      ],
      [
        "講啦",
        0.0
      ],
      [
        "一張",
        0.0
      ],
      [
        "刑事",
        0.0
      ],
      [
        "暑假",
        0.0
      ],
      [
        "聽日",
        0.0
      ],
      [
        "一般",
        0.0
      ],
      [
        "八月",
        0.0
      ],
      [
        "尤其",
        0.0
      ],
      [
        "麻煩",
        0.0
      ],
      [
        "下個",
        0.0
      ],
      [
        "南行",
        0.0
      ],
      [
        "女性",
        0.0
      ],
      [
        "一段",
        0.0
      ],
      [
        "程度",
        0.0
      ],
      [
        "發現",
        0.0
      ],
      [
        "大部份",
        0.0
      ],
      [
        "重係",
        0.0
      ],
      [
        "外圍",
        0.0
      ],
      [
        "而且",
        0.0
      ],
      [
        "睇法",
        0.0
      ],
      [
        "事實",
        0.0
      ],
      [
        "年紀",
        0.0
      ],
      [
        "要點",
        0.0
      ],
      [
        "左畫",
        0.0
      ],
      [
        "左下角",
        0.0
      ],
      [
        "講返",
        0.0
      ],
      [
        "畫條",
        0.0
      ],
      [
        "電子",
        0.0
      ],
      [
        "於是",
        0.0
      ],
      [
        "本來",
        0.0
      ],
      [
        "冇事",
        0.0
      ],
      [
        "功課",
        0.0
      ],
      [
        "生日",
        0.0
      ],
      [
        "舊年",
        0.0
      ],
      [
        "醫生",
        0.0
      ],
      [
        "兩間",
        0.0
      ],
      [
        "白紙",
        0.0
      ],
      [
        "空白",
        0.0
      ],
      [
        "直到",
        0.0
      ],
      [
        "入邊",
        0.0
      ],
      [
        "負責",
        0.0
      ],
      [
        "冤墓",
        0.0
      ],
      [
        "形狀",
        0.0
      ],
      [
        "東行",
        0.0
      ],
      [
        "處理",
        0.0
      ],
      [
        "改變",
        0.0
      ],
      [
        "底下",
        0.0
      ],
      [
        "打個",
        0.0
      ],
      [
        "私人",
        0.0
      ],
      [
        "兩個韻",
        0.0
      ],
      [
        "行去",
        0.0
      ],
      [
        "維持",
        0.0
      ],
      [
        "聽眾",
        0.0
      ],
      [
        "機構",
        0.0
      ],
      [
        "資產",
        0.0
      ],
      [
        "我想問",
        0.0
      ],
      [
        "預算案",
        0.0
      ],
      [
        "分開",
        0.0
      ],
      [
        "幾耐",
        0.0
      ],
      [
        "受山",
        0.0
      ],
      [
        "終於",
        0.0
      ],
      [
        "長方形",
        0.0
      ],
      [
        "兜返",
        0.0
      ],
      [
        "大約",
        0.0
      ],
      [
        "白色",
        0.0
      ],
      [
        "準備",
        0.0
      ],
      [
        "新聞",
        0.0
      ],
      [
        "離開",
        0.0
      ],
      [
        "九點",
        0.0
      ],
      [
        "煙海",
        0.0
      ],
      [
        "擔心",
        0.0
      ],
      [
        "仍然",
        0.0
      ],
      [
        "解釋",
        0.0
      ],
      [
        "競爭",
        0.0
      ],
      [
        "北面",
        0.0
      ],
      [
        "對唔住",
        0.0
      ],
      [
        "暫時",
        0.0
      ],
      [
        "例子",
        0.0
      ],
      [
        "講乜",
        0.0
      ],
      [
        "同個",
        0.0
      ],
      [
        "控制",
        0.0
      ],
      [
        "仲要",
        0.0
      ],
      [
        "以後",
        0.0
      ],
      [
        "結婚",
        0.0
      ],
      [
        "聖經",
        0.0
      ],
      [
        "盈利",
        0.0
      ],
      [
        "地下",
        0.0
      ],
      [
        "七月",
        0.0
      ],
      [
        "年代",
        0.0
      ],
      [
        "精神",
        0.0
      ],
      [
        "哩度",
        0.0
      ],
      [
        "身邊",
        0.0
      ],
      [
        "整個",
        0.0
      ],
      [
        "圖形",
        0.0
      ],
      [
        "手面",
        0.0
      ],
      [
        "咖啡",
        0.0
      ],
      [
        "做咩",
        0.0
      ],
      [
        "我同",
        0.0
      ],
      [
        "一方面",
        0.0
      ],
      [
        "值得",
        0.0
      ],
      [
        "實在",
        0.0
      ],
      [
        "唔肯",
        0.0
      ],
      [
        "地產",
        0.0
      ],
      [
        "即話",
        0.0
      ],
      [
        "補習",
        0.0
      ],
      [
        "三年",
        0.0
      ],
      [
        "溝通",
        0.0
      ],
      [
        "張紙",
        0.0
      ],
      [
        "銀行",
        0.0
      ],
      [
        "電視機",
        0.0
      ],
      [
        "右下角",
        0.0
      ],
      [
        "地鐵",
        0.0
      ],
      [
        "好話",
        0.0
      ],
      [
        "形式",
        0.0
      ],
      [
        "先算",
        0.0
      ],
      [
        "畫畫",
        0.0
      ],
      [
        "保障",
        0.0
      ],
      [
        "只要",
        0.0
      ],
      [
        "價錢",
        0.0
      ],
      [
        "你點",
        0.0
      ],
      [
        "失業",
        0.0
      ],
      [
        "變成",
        0.0
      ],
      [
        "想講",
        0.0
      ],
      [
        "預備",
        0.0
      ],
      [
        "正下方",
        0.0
      ],
      [
        "到底",
        0.0
      ],
      [
        "媽媽",
        0.0
      ],
      [
        "放假",
        0.0
      ],
      [
        "禮物",
        0.0
      ],
      [
        "一個韻",
        0.0
      ],
      [
        "性格",
        0.0
      ],
      [
        "俾人",
        0.0
      ],
      [
        "右手邊",
        0.0
      ],
      [
        "旁邊",
        0.0
      ],
      [
        "解決",
        0.0
      ],
      [
        "右下",
        0.0
      ],
      [
        "懷疑",
        0.0
      ],
      [
        "分手",
        0.0
      ],
      [
        "試下",
        0.0
      ],
      [
        "象徵",
        0.0
      ],
      [
        "擦膠",
        0.0
      ],
      [
        "回歸",
        0.0
      ],
      [
        "幾大",
        0.0
      ],
      [
        "反應",
        0.0
      ],
      [
        "是但",
        0.0
      ],
      [
        "畢業",
        0.0
      ],
      [
        "有人",
        0.0
      ],
      [
        "埋個",
        0.0
      ],
      [
        "英國",
        0.0
      ],
      [
        "南方",
        0.0
      ],
      [
        "適合",
        0.0
      ],
      [
        "男性",
        0.0
      ],
      [
        "做過",
        0.0
      ],
      [
        "原則",
        0.0
      ],
      [
        "自然",
        0.0
      ],
      [
        "鑑林",
        0.0
      ],
      [
        "要好",
        0.0
      ],
      [
        "記住",
        0.0
      ],
      [
        "市民",
        0.0
      ],
      [
        "提供",
        0.0
      ],
      [
        "相當",
        0.0
      ],
      [
        "得罪",
        0.0
      ],
      [
        "靚女",
        0.0
      ],
      [
        "感情",
        0.0
      ],
      [
        "直頭",
        0.0
      ],
      [
        "鐘意",
        0.0
      ],
      [
        "三角形",
        0.0
      ],
      [
        "返上",
        0.0
      ],
      [
        "成功",
        0.0
      ],
      [
        "多數",
        0.0
      ],
      [
        "我估",
        0.0
      ],
      [
        "高度",
        0.0
      ],
      [
        "知有",
        0.0
      ],
      [
        "邊行",
        0.0
      ],
      [
        "受到",
        0.0
      ],
      [
        "資料",
        0.0
      ],
      [
        "個害",
        0.0
      ],
      [
        "複雜",
        0.0
      ],
      [
        "好慘",
        0.0
      ],
      [
        "四十五度",
        0.0
      ],
      [
        "好大",
        0.0
      ],
      [
        "三點",
        0.0
      ],
      [
        "民主黨",
        0.0
      ],
      [
        "靚仔",
        0.0
      ],
      [
        "唔好意思",
        0.0
      ],
      [
        "我畫",
        0.0
      ],
      [
        "打斜",
        0.0
      ],
      [
        "理論",
        0.0
      ],
      [
        "再落",
        0.0
      ],
      [
        "公眾",
        0.0
      ],
      [
        "基本法",
        0.0
      ],
      [
        "後面",
        0.0
      ],
      [
        "尊嚴",
        0.0
      ],
      [
        "收到",
        0.0
      ],
      [
        "有機",
        0.0
      ],
      [
        "下邊",
        0.0
      ],
      [
        "權利",
        0.0
      ],
      [
        "將個",
        0.0
      ],
      [
        "純粹",
        0.0
      ],
      [
        "平排",
        0.0
      ],
      [
        "計劃",
        0.0
      ],
      [
        "瞭解",
        0.0
      ],
      [
        "落落",
        0.0
      ],
      [
        "太過",
        0.0
      ],
      [
        "打直",
        0.0
      ],
      [
        "必須",
        0.0
      ],
      [
        "阿哥",
        0.0
      ],
      [
        "波浪",
        0.0
      ],
      [
        "言論",
        0.0
      ],
      [
        "咁上下",
        0.0
      ],
      [
        "後生",
        0.0
      ],
      [
        "左下",
        0.0
      ],
      [
        "圍住",
        0.0
      ],
      [
        "奇怪",
        0.0
      ],
      [
        "公平",
        0.0
      ],
      [
        "空間",
        0.0
      ],
      [
        "一晚",
        0.0
      ],
      [
        "證明",
        0.0
      ],
      [
        "垂直",
        0.0
      ],
      [
        "轉個",
        0.0
      ],
      [
        "資訊",
        0.0
      ],
      [
        "人士",
        0.0
      ],
      [
        "創作",
        0.0
      ],
      [
        "無端端",
        0.0
      ],
      [
        "雀仔",
        0.0
      ],
      [
        "政黨",
        0.0
      ],
      [
        "吸引",
        0.0
      ],
      [
        "一點",
        0.0
      ],
      [
        "申請",
        0.0
      ],
      [
        "朝頭早",
        0.0
      ],
      [
        "講個",
        0.0
      ],
      [
        "成張",
        0.0
      ],
      [
        "環保",
        0.0
      ],
      [
        "下下",
        0.0
      ],
      [
        "基本",
        0.0
      ],
      [
        "語言",
        0.0
      ],
      [
        "失敗",
        0.0
      ],
      [
        "即個",
        0.0
      ],
      [
        "幾喇",
        0.0
      ],
      [
        "酒店",
        0.0
      ],
      [
        "越來",
        0.0
      ],
      [
        "上邊",
        0.0
      ],
      [
        "城堡",
        0.0
      ],
      [
        "不嬲",
        0.0
      ],
      [
        "信佳",
        0.0
      ],
      [
        "問我",
        0.0
      ],
      [
        "整體",
        0.0
      ],
      [
        "對方",
        0.0
      ],
      [
        "冇所謂",
        0.0
      ],
      [
        "搞錯",
        0.0
      ],
      [
        "安排",
        0.0
      ],
      [
        "毫子",
        0.0
      ],
      [
        "似乎",
        0.0
      ],
      [
        "教育",
        0.0
      ],
      [
        "合格",
        0.0
      ],
      [
        "阿婆",
        0.0
      ],
      [
        "上角",
        0.0
      ],
      [
        "不斷",
        0.0
      ],
      [
        "依家",
        0.0
      ],
      [
        "老實",
        0.0
      ],
      [
        "存在",
        0.0
      ],
      [
        "寧願",
        0.0
      ],
      [
        "一次過",
        0.0
      ],
      [
        "多次",
        0.0
      ],
      [
        "左手邊",
        0.0
      ],
      [
        "法例",
        0.0
      ],
      [
        "家姐",
        0.0
      ],
      [
        "右下方",
        0.0
      ],
      [
        "上年",
        0.0
      ],
      [
        "乜鬼",
        0.0
      ],
      [
        "質素",
        0.0
      ],
      [
        "點會",
        0.0
      ],
      [
        "竟然",
        0.0
      ],
      [
        "車主",
        0.0
      ],
      [
        "過個",
        0.0
      ],
      [
        "時話",
        0.0
      ],
      [
        "一百蚊",
        0.0
      ],
      [
        "冷氣",
        0.0
      ],
      [
        "多個",
        0.0
      ],
      [
        "重新",
        0.0
      ],
      [
        "明顯",
        0.0
      ],
      [
        "答案",
        0.0
      ],
      [
        "艾爾頓",
        0.0
      ],
      [
        "恐怖",
        0.0
      ],
      [
        "電影",
        0.0
      ],
      [
        "音響",
        0.0
      ],
      [
        "坦白",
        0.0
      ],
      [
        "醫療",
        0.0
      ],
      [
        "排隊",
        0.0
      ],
      [
        "福利",
        0.0
      ],
      [
        "亞視",
        0.0
      ],
      [
        "地點",
        0.0
      ],
      [
        "之類",
        0.0
      ],
      [
        "音樂",
        0.0
      ],
      [
        "冇用",
        0.0
      ],
      [
        "角色",
        0.0
      ],
      [
        "除非",
        0.0
      ],
      [
        "個意",
        0.0
      ],
      [
        "贊成",
        0.0
      ],
      [
        "終審",
        0.0
      ],
      [
        "講番",
        0.0
      ],
      [
        "膠袋",
        0.0
      ],
      [
        "好處",
        0.0
      ],
      [
        "落返",
        0.0
      ],
      [
        "有趣",
        0.0
      ],
      [
        "諗法",
        0.0
      ],
      [
        "就畫",
        0.0
      ],
      [
        "提出",
        0.0
      ],
      [
        "印椰樹",
        0.0
      ],
      [
        "多少",
        0.0
      ],
      [
        "邊緣",
        0.0
      ],
      [
        "大隻",
        0.0
      ],
      [
        "文化",
        0.0
      ],
      [
        "五點",
        0.0
      ],
      [
        "心理",
        0.0
      ],
      [
        "行業",
        0.0
      ],
      [
        "從來",
        0.0
      ],
      [
        "架構",
        0.0
      ],
      [
        "離婚",
        0.0
      ],
      [
        "講講",
        0.0
      ],
      [
        "下角",
        0.0
      ],
      [
        "郭富城",
        0.0
      ],
      [
        "再畫",
        0.0
      ],
      [
        "費事",
        0.0
      ],
      [
        "沾污",
        0.0
      ],
      [
        "牌子",
        0.0
      ],
      [
        "錄音",
        0.0
      ],
      [
        "媽咪",
        0.0
      ],
      [
        "女皇",
        0.0
      ],
      [
        "回應",
        0.0
      ],
      [
        "容許",
        0.0
      ],
      [
        "經常",
        0.0
      ],
      [
        "根據",
        0.0
      ],
      [
        "一座",
        0.0
      ],
      [
        "角度",
        0.0
      ],
      [
        "聖誕",
        0.0
      ],
      [
        "困難",
        0.0
      ],
      [
        "初初",
        0.0
      ],
      [
        "舖頭",
        0.0
      ],
      [
        "引起",
        0.0
      ],
      [
        "幾咁",
        0.0
      ],
      [
        "事實上",
        0.0
      ],
      [
        "一本",
        0.0
      ],
      [
        "剛才",
        0.0
      ],
      [
        "效率",
        0.0
      ],
      [
        "拍拖",
        0.0
      ],
      [
        "搞掂",
        0.0
      ],
      [
        "教授",
        0.0
      ],
      [
        "屋企人",
        0.0
      ],
      [
        "養魚",
        0.0
      ],
      [
        "等於",
        0.0
      ],
      [
        "特登",
        0.0
      ],
      [
        "好貴",
        0.0
      ],
      [
        "認識",
        0.0
      ],
      [
        "重複",
        0.0
      ],
      [
        "右畫",
        0.0
      ],
      [
        "有關",
        0.0
      ],
      [
        "醫院",
        0.0
      ],
      [
        "辭典",
        0.0
      ],
      [
        "每個",
        0.0
      ],
      [
        "要講",
        0.0
      ],
      [
        "政治",
        0.0
      ],
      [
        "中醫",
        0.0
      ],
      [
        "認真",
        0.0
      ],
      [
        "一棵",
        0.0
      ],
      [
        "秘書",
        0.0
      ],
      [
        "黑色",
        0.0
      ],
      [
        "照顧",
        0.0
      ],
      [
        "琴日",
        0.0
      ],
      [
        "單仲佳",
        0.0
      ],
      [
        "互相",
        0.0
      ],
      [
        "咁滯",
        0.0
      ],
      [
        "傾偈",
        0.0
      ],
      [
        "增加",
        0.0
      ],
      [
        "今個",
        0.0
      ],
      [
        "目的",
        0.0
      ],
      [
        "一部份",
        0.0
      ],
      [
        "主題",
        0.0
      ],
      [
        "面前",
        0.0
      ],
      [
        "主角",
        0.0
      ],
      [
        "個萍",
        0.0
      ],
      [
        "好少",
        0.0
      ],
      [
        "中心",
        0.0
      ],
      [
        "太太",
        0.0
      ],
      [
        "身體",
        0.0
      ],
      [
        "傷害",
        0.0
      ],
      [
        "日後",
        0.0
      ],
      [
        "監管",
        0.0
      ],
      [
        "收埋",
        0.0
      ],
      [
        "講多次",
        0.0
      ],
      [
        "一件",
        0.0
      ],
      [
        "幾點",
        0.0
      ],
      [
        "兩條",
        0.0
      ],
      [
        "參考",
        0.0
      ],
      [
        "出聲",
        0.0
      ],
      [
        "先得",
        0.0
      ],
      [
        "部門",
        0.0
      ],
      [
        "損失",
        0.0
      ],
      [
        "好煩",
        0.0
      ],
      [
        "嘗試",
        0.0
      ],
      [
        "畫一個",
        0.0
      ],
      [
        "數字",
        0.0
      ],
      [
        "好笑",
        0.0
      ],
      [
        "唔錯",
        0.0
      ],
      [
        "十年",
        0.0
      ],
      [
        "為止",
        0.0
      ],
      [
        "幾靚",
        0.0
      ],
      [
        "你畫",
        0.0
      ],
      [
        "之中",
        0.0
      ],
      [
        "台灣",
        0.0
      ],
      [
        "會會",
        0.0
      ],
      [
        "我識",
        0.0
      ],
      [
        "食到",
        0.0
      ],
      [
        "即要",
        0.0
      ],
      [
        "就會",
        0.0
      ],
      [
        "速度",
        0.0
      ],
      [
        "骨折",
        0.0
      ],
      [
        "細路仔",
        0.0
      ],
      [
        "自信",
        0.0
      ],
      [
        "返轉頭",
        0.0
      ],
      [
        "金融",
        0.0
      ],
      [
        "一套",
        0.0
      ],
      [
        "尷尬",
        0.0
      ],
      [
        "投訴",
        0.0
      ],
      [
        "生產",
        0.0
      ],
      [
        "一刻",
        0.0
      ],
      [
        "黎明",
        0.0
      ],
      [
        "最右",
        0.0
      ],
      [
        "溫暖",
        0.0
      ],
      [
        "破壞",
        0.0
      ],
      [
        "既然",
        0.0
      ],
      [
        "好悶",
        0.0
      ],
      [
        "最底",
        0.0
      ],
      [
        "正面",
        0.0
      ],
      [
        "開燈",
        0.0
      ],
      [
        "好聽",
        0.0
      ],
      [
        "國內",
        0.0
      ],
      [
        "早餐",
        0.0
      ],
      [
        "內容",
        0.0
      ],
      [
        "十二點",
        0.0
      ],
      [
        "報告",
        0.0
      ],
      [
        "去過",
        0.0
      ],
      [
        "相對",
        0.0
      ],
      [
        "電芯",
        0.0
      ],
      [
        "澳門",
        0.0
      ],
      [
        "提到",
        0.0
      ],
      [
        "成熟",
        0.0
      ],
      [
        "水草",
        0.0
      ],
      [
        "詳細",
        0.0
      ],
      [
        "個頭",
        0.0
      ],
      [
        "西行",
        0.0
      ],
      [
        "高過",
        0.0
      ],
      [
        "兩樣",
        0.0
      ],
      [
        "私家",
        0.0
      ],
      [
        "中學",
        0.0
      ],
      [
        "唔多",
        0.0
      ],
      [
        "橫線",
        0.0
      ],
      [
        "貼住",
        0.0
      ],
      [
        "合理",
        0.0
      ],
      [
        "增長",
        0.0
      ],
      [
        "股份",
        0.0
      ],
      [
        "補充",
        0.0
      ],
      [
        "琴晚",
        0.0
      ],
      [
        "時效",
        0.0
      ],
      [
        "西面",
        0.0
      ],
      [
        "門口",
        0.0
      ],
      [
        "相處",
        0.0
      ],
      [
        "誇張",
        0.0
      ],
      [
        "遇到",
        0.0
      ],
      [
        "商業",
        0.0
      ],
      [
        "多過",
        0.0
      ],
      [
        "一部",
        0.0
      ],
      [
        "問吓",
        0.0
      ],
      [
        "珍惜",
        0.0
      ],
      [
        "睇住",
        0.0
      ],
      [
        "即將",
        0.0
      ],
      [
        "製造",
        0.0
      ],
      [
        "聽過",
        0.0
      ],
      [
        "好食",
        0.0
      ],
      [
        "直角",
        0.0
      ],
      [
        "案件",
        0.0
      ],
      [
        "之內",
        0.0
      ],
      [
        "十分",
        0.0
      ],
      [
        "邊有",
        0.0
      ],
      [
        "居民",
        0.0
      ],
      [
        "乾淨",
        0.0
      ],
      [
        "曲線",
        0.0
      ],
      [
        "財務",
        0.0
      ],
      [
        "對面",
        0.0
      ],
      [
        "核突",
        0.0
      ],
      [
        "嘉賓",
        0.0
      ],
      [
        "呢種",
        0.0
      ],
      [
        "形象",
        0.0
      ],
      [
        "兩日",
        0.0
      ],
      [
        "校長",
        0.0
      ],
      [
        "顯示",
        0.0
      ],
      [
        "東面",
        0.0
      ],
      [
        "再行",
        0.0
      ],
      [
        "足夠",
        0.0
      ],
      [
        "反對",
        0.0
      ],
      [
        "接觸",
        0.0
      ],
      [
        "邊間",
        0.0
      ],
      [
        "一號",
        0.0
      ],
      [
        "意義",
        0.0
      ],
      [
        "必要",
        0.0
      ],
      [
        "通知",
        0.0
      ],
      [
        "鼓勵",
        0.0
      ],
      [
        "翻譯",
        0.0
      ],
      [
        "做法",
        0.0
      ],
      [
        "聯絡",
        0.0
      ],
      [
        "嚴重",
        0.0
      ],
      [
        "九月",
        0.0
      ],
      [
        "穩定",
        0.0
      ],
      [
        "正版",
        0.0
      ],
      [
        "冬天",
        0.0
      ],
      [
        "比例",
        0.0
      ],
      [
        "創新",
        0.0
      ],
      [
        "唱片",
        0.0
      ],
      [
        "老細",
        0.0
      ],
      [
        "唯一",
        0.0
      ],
      [
        "幾日",
        0.0
      ],
      [
        "講開",
        0.0
      ],
      [
        "罪行",
        0.0
      ],
      [
        "粗口",
        0.0
      ],
      [
        "成年",
        0.0
      ],
      [
        "哲學",
        0.0
      ],
      [
        "自從",
        0.0
      ],
      [
        "當我",
        0.0
      ],
      [
        "五個",
        0.0
      ],
      [
        "電訊",
        0.0
      ],
      [
        "妄想",
        0.0
      ],
      [
        "聽到",
        0.0
      ],
      [
        "人話",
        0.0
      ],
      [
        "幫到",
        0.0
      ],
      [
        "愛情",
        0.0
      ],
      [
        "婚姻",
        0.0
      ],
      [
        "工業",
        0.0
      ],
      [
        "定義",
        0.0
      ],
      [
        "半年",
        0.0
      ],
      [
        "當你",
        0.0
      ],
      [
        "規則",
        0.0
      ],
      [
        "一句",
        0.0
      ],
      [
        "好多人",
        0.0
      ],
      [
        "巴士",
        0.0
      ],
      [
        "工人",
        0.0
      ],
      [
        "司長",
        0.0
      ],
      [
        "業主",
        0.0
      ],
      [
        "評價",
        0.0
      ],
      [
        "長遠",
        0.0
      ],
      [
        "現象",
        0.0
      ],
      [
        "講法",
        0.0
      ],
      [
        "好快",
        0.0
      ],
      [
        "第時",
        0.0
      ],
      [
        "股價",
        0.0
      ],
      [
        "保險",
        0.0
      ],
      [
        "出版",
        0.0
      ],
      [
        "燕梳",
        0.0
      ],
      [
        "細妹",
        0.0
      ],
      [
        "轉右",
        0.0
      ],
      [
        "忽然",
        0.0
      ],
      [
        "欣賞",
        0.0
      ],
      [
        "轉頭",
        0.0
      ],
      [
        "實際上",
        0.0
      ],
      [
        "擦紙膠",
        0.0
      ],
      [
        "普通話",
        0.0
      ],
      [
        "事業",
        0.0
      ],
      [
        "好近",
        0.0
      ],
      [
        "本地",
        0.0
      ],
      [
        "禮拜三",
        0.0
      ],
      [
        "樓下",
        0.0
      ],
      [
        "活動",
        0.0
      ],
      [
        "正上方",
        0.0
      ],
      [
        "戲院",
        0.0
      ],
      [
        "屬於",
        0.0
      ],
      [
        "初頭",
        0.0
      ],
      [
        "我問",
        0.0
      ],
      [
        "普遍",
        0.0
      ],
      [
        "第二個韻",
        0.0
      ],
      [
        "家人",
        0.0
      ],
      [
        "就講",
        0.0
      ],
      [
        "千祈",
        0.0
      ],
      [
        "兩點",
        0.0
      ],
      [
        "健康",
        0.0
      ],
      [
        "牛肉",
        0.0
      ],
      [
        "晏晝",
        0.0
      ],
      [
        "禮拜六",
        0.0
      ],
      [
        "好遠",
        0.0
      ],
      [
        "遊戲",
        0.0
      ],
      [
        "創意",
        0.0
      ],
      [
        "心胸",
        0.0
      ],
      [
        "重心",
        0.0
      ],
      [
        "表現",
        0.0
      ],
      [
        "反映",
        0.0
      ],
      [
        "考到",
        0.0
      ],
      [
        "數學",
        0.0
      ],
      [
        "好味",
        0.0
      ],
      [
        "依然",
        0.0
      ],
      [
        "會有",
        0.0
      ],
      [
        "規定",
        0.0
      ],
      [
        "貨櫃",
        0.0
      ],
      [
        "下畫",
        0.0
      ],
      [
        "硬係",
        0.0
      ],
      [
        "特殊",
        0.0
      ],
      [
        "狹窄",
        0.0
      ],
      [
        "隨時",
        0.0
      ],
      [
        "同樣",
        0.0
      ],
      [
        "唔知幾",
        0.0
      ],
      [
        "現實",
        0.0
      ],
      [
        "人生",
        0.0
      ],
      [
        "民主",
        0.0
      ],
      [
        "網球",
        0.0
      ],
      [
        "年齡",
        0.0
      ],
      [
        "五月",
        0.0
      ],
      [
        "哈哈",
        0.0
      ],
      [
        "一邊",
        0.0
      ],
      [
        "專業",
        0.0
      ],
      [
        "指示",
        0.0
      ],
      [
        "邊位",
        0.0
      ],
      [
        "梳打",
        0.0
      ],
      [
        "老公",
        0.0
      ],
      [
        "期間",
        0.0
      ],
      [
        "唯有",
        0.0
      ],
      [
        "兔仔",
        0.0
      ],
      [
        "民建聯",
        0.0
      ],
      [
        "兩位",
        0.0
      ],
      [
        "合法",
        0.0
      ],
      [
        "你識",
        0.0
      ],
      [
        "紅籌",
        0.0
      ],
      [
        "生物",
        0.0
      ],
      [
        "好靚",
        0.0
      ],
      [
        "行返",
        0.0
      ],
      [
        "傾計",
        0.0
      ],
      [
        "火星",
        0.0
      ],
      [
        "好人",
        0.0
      ],
      [
        "使錢",
        0.0
      ],
      [
        "行路",
        0.0
      ],
      [
        "傳媒",
        0.0
      ],
      [
        "山個",
        0.0
      ],
      [
        "兜個",
        0.0
      ],
      [
        "個案",
        0.0
      ],
      [
        "耶穌",
        0.0
      ],
      [
        "飛碟",
        0.0
      ],
      [
        "上堂",
        0.0
      ],
      [
        "幫襯",
        0.0
      ],
      [
        "內心",
        0.0
      ],
      [
        "我明",
        0.0
      ],
      [
        "判斷",
        0.0
      ],
      [
        "無謂",
        0.0
      ],
      [
        "可憐",
        0.0
      ],
      [
        "保護",
        0.0
      ],
      [
        "同時",
        0.0
      ],
      [
        "得滯",
        0.0
      ],
      [
        "加返",
        0.0
      ],
      [
        "有份",
        0.0
      ],
      [
        "心態",
        0.0
      ],
      [
        "地球",
        0.0
      ],
      [
        "九十度",
        0.0
      ],
      [
        "安全",
        0.0
      ],
      [
        "開會",
        0.0
      ],
      [
        "界定",
        0.0
      ],
      [
        "實際",
        0.0
      ],
      [
        "關注",
        0.0
      ],
      [
        "別人",
        0.0
      ],
      [
        "姊妹",
        0.0
      ],
      [
        "責任",
        0.0
      ],
      [
        "天堂",
        0.0
      ],
      [
        "特色",
        0.0
      ],
      [
        "發達",
        0.0
      ],
      [
        "以往",
        0.0
      ],
      [
        "太陽",
        0.0
      ],
      [
        "運動",
        0.0
      ],
      [
        "年青",
        0.0
      ],
      [
        "十一點",
        0.0
      ],
      [
        "仙人掌",
        0.0
      ],
      [
        "幫助",
        0.0
      ],
      [
        "一模一樣",
        0.0
      ],
      [
        "完整",
        0.0
      ],
      [
        "清晰",
        0.0
      ],
      [
        "出邊",
        0.0
      ],
      [
        "藝術",
        0.0
      ],
      [
        "你明",
        0.0
      ],
      [
        "定下",
        0.0
      ],
      [
        "全名",
        0.0
      ],
      [
        "圖標",
        0.0
      ],
      [
        "呢邊",
        0.0
      ],
      [
        "出席",
        0.0
      ],
      [
        "背後",
        0.0
      ],
      [
        "侮辱",
        0.0
      ],
      [
        "監察",
        0.0
      ],
      [
        "由個",
        0.0
      ],
      [
        "擁有",
        0.0
      ],
      [
        "識講",
        0.0
      ],
      [
        "有位",
        0.0
      ],
      [
        "哩件",
        0.0
      ],
      [
        "要畫",
        0.0
      ],
      [
        "中國人",
        0.0
      ],
      [
        "單位",
        0.0
      ],
      [
        "返番",
        0.0
      ],
      [
        "旅遊",
        0.0
      ],
      [
        "連埋",
        0.0
      ],
      [
        "譯本",
        0.0
      ],
      [
        "針對",
        0.0
      ],
      [
        "一人",
        0.0
      ],
      [
        "階段",
        0.0
      ],
      [
        "講完",
        0.0
      ],
      [
        "收音機",
        0.0
      ],
      [
        "分析",
        0.0
      ],
      [
        "幾乎",
        0.0
      ],
      [
        "祝福",
        0.0
      ],
      [
        "效堡",
        0.0
      ],
      [
        "好平",
        0.0
      ],
      [
        "出街",
        0.0
      ],
      [
        "關心",
        0.0
      ],
      [
        "雜誌",
        0.0
      ],
      [
        "家長",
        0.0
      ],
      [
        "前面",
        0.0
      ],
      [
        "一去",
        0.0
      ],
      [
        "我返",
        0.0
      ],
      [
        "阿妹",
        0.0
      ],
      [
        "唱歌",
        0.0
      ],
      [
        "一聲",
        0.0
      ],
      [
        "近排",
        0.0
      ],
      [
        "幾難",
        0.0
      ],
      [
        "一條線",
        0.0
      ],
      [
        "移民",
        0.0
      ],
      [
        "風氣",
        0.0
      ],
      [
        "我讀",
        0.0
      ],
      [
        "好耐",
        0.0
      ],
      [
        "買過",
        0.0
      ],
      [
        "升到",
        0.0
      ],
      [
        "支出",
        0.0
      ],
      [
        "愛來",
        0.0
      ],
      [
        "講緊",
        0.0
      ],
      [
        "睇好",
        0.0
      ],
      [
        "得講",
        0.0
      ],
      [
        "寫住",
        0.0
      ],
      [
        "十一",
        0.0
      ],
      [
        "講埋",
        0.0
      ],
      [
        "即講",
        0.0
      ],
      [
        "承認",
        0.0
      ],
      [
        "如何",
        0.0
      ],
      [
        "兩次",
        0.0
      ],
      [
        "半個",
        0.0
      ],
      [
        "陣間",
        0.0
      ],
      [
        "消息",
        0.0
      ],
      [
        "道理",
        0.0
      ],
      [
        "政權",
        0.0
      ],
      [
        "半圓",
        0.0
      ],
      [
        "講喇",
        0.0
      ],
      [
        "預算",
        0.0
      ],
      [
        "爭取",
        0.0
      ],
      [
        "阿張",
        0.0
      ],
      [
        "想問",
        0.0
      ],
      [
        "原諒",
        0.0
      ],
      [
        "好細",
        0.0
      ],
      [
        "蚊度",
        0.0
      ],
      [
        "阿爸",
        0.0
      ],
      [
        "返個",
        0.0
      ],
      [
        "忘記",
        0.0
      ],
      [
        "份工",
        0.0
      ],
      [
        "舉例",
        0.0
      ],
      [
        "下次",
        0.0
      ],
      [
        "星期六",
        0.0
      ],
      [
        "利用",
        0.0
      ],
      [
        "歐洲",
        0.0
      ],
      [
        "得多",
        0.0
      ],
      [
        "當中",
        0.0
      ],
      [
        "一班",
        0.0
      ],
      [
        "認同",
        0.0
      ],
      [
        "親戚",
        0.0
      ],
      [
        "情緒",
        0.0
      ],
      [
        "李生",
        0.0
      ],
      [
        "慶祝",
        0.0
      ],
      [
        "應用",
        0.0
      ],
      [
        "口罩",
        0.0
      ],
      [
        "即會",
        0.0
      ],
      [
        "勇氣",
        0.0
      ],
      [
        "好景",
        0.0
      ],
      [
        "業務",
        0.0
      ],
      [
        "歡迎",
        0.0
      ],
      [
        "南面",
        0.0
      ],
      [
        "畫條線",
        0.0
      ],
      [
        "餐廳",
        0.0
      ],
      [
        "大鑊",
        0.0
      ],
      [
        "憲法",
        0.0
      ],
      [
        "下落",
        0.0
      ],
      [
        "直至",
        0.0
      ],
      [
        "畫一條",
        0.0
      ],
      [
        "的確",
        0.0
      ],
      [
        "俾個",
        0.0
      ],
      [
        "使用",
        0.0
      ],
      [
        "範圍",
        0.0
      ],
      [
        "快樂",
        0.0
      ],
      [
        "顛覆",
        0.0
      ],
      [
        "今朝",
        0.0
      ],
      [
        "會點",
        0.0
      ],
      [
        "十幾年",
        0.0
      ],
      [
        "導遊",
        0.0
      ],
      [
        "公民",
        0.0
      ],
      [
        "點寫",
        0.0
      ],
      [
        "面有",
        0.0
      ],
      [
        "幾衰",
        0.0
      ],
      [
        "大吉利是",
        0.0
      ],
      [
        "丈夫",
        0.0
      ],
      [
        "受傷",
        0.0
      ],
      [
        "畫返",
        0.0
      ],
      [
        "新年",
        0.0
      ],
      [
        "煽動",
        0.0
      ],
      [
        "宜家",
        0.0
      ],
      [
        "測驗",
        0.0
      ],
      [
        "負擔",
        0.0
      ],
      [
        "污糟",
        0.0
      ],
      [
        "艷舞",
        0.0
      ],
      [
        "相差",
        0.0
      ],
      [
        "引導",
        0.0
      ],
      [
        "最初",
        0.0
      ],
      [
        "幾正",
        0.0
      ],
      [
        "光碟",
        0.0
      ],
      [
        "個底",
        0.0
      ],
      [
        "老奉",
        0.0
      ],
      [
        "學期",
        0.0
      ],
      [
        "再過",
        0.0
      ],
      [
        "討論",
        0.0
      ],
      [
        "之一",
        0.0
      ],
      [
        "電視台",
        0.0
      ],
      [
        "區旗",
        0.0
      ],
      [
        "大過",
        0.0
      ],
      [
        "舊時",
        0.0
      ],
      [
        "以來",
        0.0
      ],
      [
        "觀眾",
        0.0
      ],
      [
        "得人驚",
        0.0
      ],
      [
        "題目",
        0.0
      ],
      [
        "倫敦",
        0.0
      ],
      [
        "即點",
        0.0
      ],
      [
        "一早",
        0.0
      ],
      [
        "比起",
        0.0
      ],
      [
        "舉個",
        0.0
      ],
      [
        "犯法",
        0.0
      ],
      [
        "條例",
        0.0
      ],
      [
        "流行",
        0.0
      ],
      [
        "行動",
        0.0
      ],
      [
        "體質",
        0.0
      ],
      [
        "通訊",
        0.0
      ],
      [
        "學習",
        0.0
      ],
      [
        "張相",
        0.0
      ],
      [
        "後果",
        0.0
      ],
      [
        "我得",
        0.0
      ],
      [
        "行政",
        0.0
      ],
      [
        "鄉下",
        0.0
      ],
      [
        "福祉",
        0.0
      ],
      [
        "講即",
        0.0
      ],
      [
        "十二",
        0.0
      ],
      [
        "一百萬",
        0.0
      ],
      [
        "一步",
        0.0
      ],
      [
        "寵物",
        0.0
      ],
      [
        "側面",
        0.0
      ],
      [
        "追求",
        0.0
      ],
      [
        "池個",
        0.0
      ],
      [
        "總有",
        0.0
      ],
      [
        "嘩好",
        0.0
      ],
      [
        "演員",
        0.0
      ],
      [
        "目標",
        0.0
      ],
      [
        "假設",
        0.0
      ],
      [
        "一科",
        0.0
      ],
      [
        "每年",
        0.0
      ],
      [
        "唔在乎",
        0.0
      ],
      [
        "運作",
        0.0
      ],
      [
        "圖畫",
        0.0
      ],
      [
        "仔女",
        0.0
      ],
      [
        "轉左",
        0.0
      ],
      [
        "幫人",
        0.0
      ],
      [
        "大力",
        0.0
      ],
      [
        "所講",
        0.0
      ],
      [
        "有事",
        0.0
      ],
      [
        "頭兆",
        0.0
      ],
      [
        "南方行",
        0.0
      ],
      [
        "單止",
        0.0
      ],
      [
        "不停",
        0.0
      ],
      [
        "專利",
        0.0
      ],
      [
        "剪碎",
        0.0
      ],
      [
        "講一次",
        0.0
      ],
      [
        "退休",
        0.0
      ],
      [
        "正中",
        0.0
      ],
      [
        "成本",
        0.0
      ],
      [
        "點都",
        0.0
      ],
      [
        "馬蹄",
        0.0
      ],
      [
        "劇情",
        0.0
      ],
      [
        "無字頭",
        0.0
      ],
      [
        "大廈",
        0.0
      ],
      [
        "遊客",
        0.0
      ],
      [
        "藍籌",
        0.0
      ],
      [
        "個銅",
        0.0
      ],
      [
        "擔憂",
        0.0
      ],
      [
        "危機",
        0.0
      ],
      [
        "消費",
        0.0
      ],
      [
        "東南面",
        0.0
      ],
      [
        "因素",
        0.0
      ],
      [
        "三分",
        0.0
      ],
      [
        "二號",
        0.0
      ],
      [
        "製作",
        0.0
      ],
      [
        "偏右",
        0.0
      ],
      [
        "觀點",
        0.0
      ],
      [
        "進步",
        0.0
      ],
      [
        "大大",
        0.0
      ],
      [
        "確實",
        0.0
      ],
      [
        "判詞",
        0.0
      ],
      [
        "六點",
        0.0
      ],
      [
        "不同",
        0.0
      ],
      [
        "俾錢",
        0.0
      ],
      [
        "一百",
        0.0
      ],
      [
        "諗起",
        0.0
      ],
      [
        "阿叔",
        0.0
      ],
      [
        "和平",
        0.0
      ],
      [
        "大圈",
        0.0
      ],
      [
        "人手",
        0.0
      ],
      [
        "矛盾",
        0.0
      ],
      [
        "個名",
        0.0
      ],
      [
        "過我",
        0.0
      ],
      [
        "願意",
        0.0
      ],
      [
        "傾向",
        0.0
      ],
      [
        "實質",
        0.0
      ],
      [
        "條件",
        0.0
      ],
      [
        "心情",
        0.0
      ],
      [
        "我夠",
        0.0
      ],
      [
        "認得",
        0.0
      ],
      [
        "包致",
        0.0
      ],
      [
        "彭銅山個",
        0.0
      ],
      [
        "識得",
        0.0
      ],
      [
        "星期三",
        0.0
      ],
      [
        "提高",
        0.0
      ],
      [
        "一百八十度",
        0.0
      ],
      [
        "第二日",
        0.0
      ],
      [
        "就快",
        0.0
      ],
      [
        "情形",
        0.0
      ],
      [
        "故事",
        0.0
      ],
      [
        "賺錢",
        0.0
      ],
      [
        "今時今日",
        0.0
      ],
      [
        "參加",
        0.0
      ],
      [
        "處境",
        0.0
      ],
      [
        "人知",
        0.0
      ],
      [
        "好心",
        0.0
      ],
      [
        "個效",
        0.0
      ],
      [
        "失去",
        0.0
      ],
      [
        "學系",
        0.0
      ],
      [
        "主人",
        0.0
      ],
      [
        "遊戲機",
        0.0
      ],
      [
        "最高",
        0.0
      ],
      [
        "衝動",
        0.0
      ],
      [
        "轉返",
        0.0
      ],
      [
        "建議",
        0.0
      ],
      [
        "考官",
        0.0
      ],
      [
        "先好",
        0.0
      ],
      [
        "屯門",
        0.0
      ],
      [
        "項農",
        0.0
      ],
      [
        "多種",
        0.0
      ],
      [
        "親人",
        0.0
      ],
      [
        "依字",
        0.0
      ],
      [
        "架車",
        0.0
      ],
      [
        "勤力",
        0.0
      ],
      [
        "成班",
        0.0
      ],
      [
        "同善",
        0.0
      ],
      [
        "生命",
        0.0
      ],
      [
        "過份",
        0.0
      ],
      [
        "四點",
        0.0
      ],
      [
        "上畫",
        0.0
      ],
      [
        "一切",
        0.0
      ],
      [
        "細路",
        0.0
      ],
      [
        "少人",
        0.0
      ],
      [
        "分享",
        0.0
      ],
      [
        "火車",
        0.0
      ],
      [
        "細佬",
        0.0
      ],
      [
        "放低",
        0.0
      ],
      [
        "過呢",
        0.0
      ],
      [
        "刺激",
        0.0
      ],
      [
        "加上",
        0.0
      ],
      [
        "期望",
        0.0
      ],
      [
        "底部",
        0.0
      ],
      [
        "維護",
        0.0
      ],
      [
        "啤梨",
        0.0
      ],
      [
        "三份",
        0.0
      ],
      [
        "加個",
        0.0
      ],
      [
        "合約",
        0.0
      ],
      [
        "廣東話",
        0.0
      ],
      [
        "老師",
        0.0
      ],
      [
        "當日",
        0.0
      ],
      [
        "難講",
        0.0
      ],
      [
        "豬仔",
        0.0
      ],
      [
        "養過",
        0.0
      ],
      [
        "何秀蘭",
        0.0
      ],
      [
        "至得",
        0.0
      ],
      [
        "一萬",
        0.0
      ],
      [
        "阿艾爾頓",
        0.0
      ],
      [
        "金錢",
        0.0
      ],
      [
        "工場",
        0.0
      ],
      [
        "包埋",
        0.0
      ],
      [
        "熱潮",
        0.0
      ],
      [
        "每人",
        0.0
      ],
      [
        "盈科",
        0.0
      ],
      [
        "一個鐘",
        0.0
      ],
      [
        "早起",
        0.0
      ],
      [
        "牙醫",
        0.0
      ],
      [
        "沙田",
        0.0
      ],
      [
        "點唧",
        0.0
      ],
      [
        "出庭",
        0.0
      ],
      [
        "頭痛",
        0.0
      ],
      [
        "冇計",
        0.0
      ],
      [
        "講就",
        0.0
      ],
      [
        "停車場",
        0.0
      ],
      [
        "先講",
        0.0
      ],
      [
        "阿公",
        0.0
      ],
      [
        "次序",
        0.0
      ],
      [
        "準時",
        0.0
      ],
      [
        "十五",
        0.0
      ],
      [
        "花園",
        0.0
      ],
      [
        "專科",
        0.0
      ],
      [
        "放榜",
        0.0
      ],
      [
        "計數",
        0.0
      ],
      [
        "三十蚊",
        0.0
      ],
      [
        "彎線",
        0.0
      ],
      [
        "正方形",
        0.0
      ],
      [
        "準確",
        0.0
      ],
      [
        "好知",
        0.0
      ],
      [
        "兩三",
        0.0
      ],
      [
        "會同",
        0.0
      ],
      [
        "知識",
        0.0
      ],
      [
        "套戲",
        0.0
      ],
      [
        "缺點",
        0.0
      ],
      [
        "叛亂",
        0.0
      ],
      [
        "蝕本",
        0.0
      ],
      [
        "一來",
        0.0
      ],
      [
        "描述",
        0.0
      ],
      [
        "咁鬼",
        0.0
      ],
      [
        "適應",
        0.0
      ],
      [
        "思想",
        0.0
      ],
      [
        "跟團",
        0.0
      ],
      [
        "收購",
        0.0
      ],
      [
        "指引",
        0.0
      ],
      [
        "達到",
        0.0
      ],
      [
        "真情",
        0.0
      ],
      [
        "成世",
        0.0
      ],
      [
        "上個",
        0.0
      ],
      [
        "不足",
        0.0
      ],
      [
        "要將",
        0.0
      ],
      [
        "超過",
        0.0
      ],
      [
        "同韻",
        0.0
      ],
      [
        "笑話",
        0.0
      ],
      [
        "牌費",
        0.0
      ],
      [
        "濫字",
        0.0
      ],
      [
        "喪失",
        0.0
      ],
      [
        "畫多",
        0.0
      ],
      [
        "成條",
        0.0
      ],
      [
        "娛樂",
        0.0
      ],
      [
        "湖底",
        0.0
      ],
      [
        "部份",
        0.0
      ],
      [
        "一類",
        0.0
      ],
      [
        "壟斷",
        0.0
      ],
      [
        "講者",
        0.0
      ],
      [
        "點睇",
        0.0
      ],
      [
        "即同",
        0.0
      ],
      [
        "講一",
        0.0
      ],
      [
        "心理學",
        0.0
      ],
      [
        "好長",
        0.0
      ],
      [
        "產生",
        0.0
      ],
      [
        "出入",
        0.0
      ],
      [
        "理想",
        0.0
      ],
      [
        "起上嚟",
        0.0
      ],
      [
        "調轉",
        0.0
      ],
      [
        "未曾",
        0.0
      ],
      [
        "問一問",
        0.0
      ],
      [
        "哩種",
        0.0
      ],
      [
        "系統",
        0.0
      ],
      [
        "東南",
        0.0
      ],
      [
        "數量",
        0.0
      ],
      [
        "買賣",
        0.0
      ],
      [
        "主席",
        0.0
      ],
      [
        "索償",
        0.0
      ],
      [
        "將條線",
        0.0
      ],
      [
        "第二朝",
        0.0
      ],
      [
        "議員",
        0.0
      ],
      [
        "一般人",
        0.0
      ],
      [
        "假如",
        0.0
      ],
      [
        "總共",
        0.0
      ],
      [
        "集體",
        0.0
      ],
      [
        "幾有",
        0.0
      ],
      [
        "阿琪",
        0.0
      ],
      [
        "過你",
        0.0
      ],
      [
        "你間",
        0.0
      ],
      [
        "上下",
        0.0
      ],
      [
        "時代",
        0.0
      ],
      [
        "示威",
        0.0
      ],
      [
        "司法",
        0.0
      ],
      [
        "四位",
        0.0
      ],
      [
        "分分鐘",
        0.0
      ],
      [
        "你記",
        0.0
      ],
      [
        "壯士",
        0.0
      ],
      [
        "提議",
        0.0
      ],
      [
        "收工",
        0.0
      ],
      [
        "歲數",
        0.0
      ],
      [
        "見面",
        0.0
      ],
      [
        "傾到",
        0.0
      ],
      [
        "幸福",
        0.0
      ],
      [
        "梳化",
        0.0
      ],
      [
        "埋晒",
        0.0
      ],
      [
        "想像",
        0.0
      ],
      [
        "耳仔",
        0.0
      ],
      [
        "自覺",
        0.0
      ],
      [
        "好肥",
        0.0
      ],
      [
        "座山",
        0.0
      ],
      [
        "請飲",
        0.0
      ],
      [
        "中大",
        0.0
      ],
      [
        "堅持",
        0.0
      ],
      [
        "外面",
        0.0
      ],
      [
        "大眾",
        0.0
      ],
      [
        "日頭",
        0.0
      ],
      [
        "費用",
        0.0
      ],
      [
        "少數",
        0.0
      ],
      [
        "人家",
        0.0
      ],
      [
        "曼聯",
        0.0
      ],
      [
        "成人",
        0.0
      ],
      [
        "變態",
        0.0
      ],
      [
        "推薦",
        0.0
      ],
      [
        "正式",
        0.0
      ],
      [
        "民族",
        0.0
      ],
      [
        "做人",
        0.0
      ],
      [
        "一笑置之",
        0.0
      ],
      [
        "十點",
        0.0
      ],
      [
        "夠膽",
        0.0
      ],
      [
        "道歉",
        0.0
      ],
      [
        "話題",
        0.0
      ],
      [
        "先喇",
        0.0
      ],
      [
        "危險",
        0.0
      ],
      [
        "心靈",
        0.0
      ],
      [
        "職員",
        0.0
      ],
      [
        "發表",
        0.0
      ],
      [
        "幾驚",
        0.0
      ],
      [
        "暴力",
        0.0
      ],
      [
        "尾指",
        0.0
      ],
      [
        "我點",
        0.0
      ],
      [
        "星期",
        0.0
      ],
      [
        "騷擾",
        0.0
      ],
      [
        "高興",
        0.0
      ],
      [
        "遲到",
        0.0
      ],
      [
        "一世",
        0.0
      ],
      [
        "左下方",
        0.0
      ],
      [
        "廁所",
        0.0
      ],
      [
        "裁員",
        0.0
      ],
      [
        "因應",
        0.0
      ],
      [
        "有間",
        0.0
      ],
      [
        "牛油",
        0.0
      ],
      [
        "上網",
        0.0
      ],
      [
        "兩份",
        0.0
      ],
      [
        "就將",
        0.0
      ],
      [
        "沖涼",
        0.0
      ],
      [
        "發夢",
        0.0
      ],
      [
        "任性",
        0.0
      ],
      [
        "睇嚟",
        0.0
      ],
      [
        "意識",
        0.0
      ],
      [
        "事件",
        0.0
      ],
      [
        "管理",
        0.0
      ],
      [
        "習慣",
        0.0
      ],
      [
        "關慧明",
        0.0
      ],
      [
        "點做",
        0.0
      ],
      [
        "年度",
        0.0
      ],
      [
        "我先",
        0.0
      ],
      [
        "個步",
        0.0
      ],
      [
        "印象",
        0.0
      ],
      [
        "小朋友",
        0.0
      ],
      [
        "八個",
        0.0
      ],
      [
        "冇心機",
        0.0
      ],
      [
        "廚房",
        0.0
      ],
      [
        "將會",
        0.0
      ],
      [
        "執笠",
        0.0
      ],
      [
        "阿木",
        0.0
      ],
      [
        "對落",
        0.0
      ],
      [
        "十幾",
        0.0
      ],
      [
        "人情",
        0.0
      ],
      [
        "成就",
        0.0
      ],
      [
        "幾次",
        0.0
      ],
      [
        "三角",
        0.0
      ],
      [
        "將我",
        0.0
      ],
      [
        "圓柱體",
        0.0
      ],
      [
        "有用",
        0.0
      ],
      [
        "呢排",
        0.0
      ],
      [
        "名牌",
        0.0
      ],
      [
        "六個",
        0.0
      ],
      [
        "強調",
        0.0
      ],
      [
        "問人",
        0.0
      ],
      [
        "孔融",
        0.0
      ],
      [
        "靈體",
        0.0
      ],
      [
        "講我",
        0.0
      ],
      [
        "法國",
        0.0
      ],
      [
        "日日",
        0.0
      ],
      [
        "最尾",
        0.0
      ],
      [
        "加加",
        0.0
      ],
      [
        "兩三個",
        0.0
      ],
      [
        "條橋",
        0.0
      ],
      [
        "成長",
        0.0
      ],
      [
        "斜線",
        0.0
      ],
      [
        "基督徒",
        0.0
      ],
      [
        "下去",
        0.0
      ],
      [
        "單車",
        0.0
      ],
      [
        "有些",
        0.0
      ],
      [
        "返右",
        0.0
      ],
      [
        "太平",
        0.0
      ],
      [
        "有權",
        0.0
      ],
      [
        "雙糧",
        0.0
      ],
      [
        "計埋",
        0.0
      ],
      [
        "硬件",
        0.0
      ],
      [
        "幾千蚊",
        0.0
      ],
      [
        "手提電話",
        0.0
      ],
      [
        "估計",
        0.0
      ],
      [
        "金字",
        0.0
      ],
      [
        "企業",
        0.0
      ],
      [
        "求其",
        0.0
      ],
      [
        "聽見",
        0.0
      ],
      [
        "非法",
        0.0
      ],
      [
        "盜版",
        0.0
      ],
      [
        "競爭力",
        0.0
      ],
      [
        "彭個",
        0.0
      ],
      [
        "再講",
        0.0
      ],
      [
        "講都",
        0.0
      ],
      [
        "有哩",
        0.0
      ],
      [
        "街坊",
        0.0
      ],
      [
        "影得",
        0.0
      ],
      [
        "夢想",
        0.0
      ],
      [
        "四十五萬",
        0.0
      ],
      [
        "體制",
        0.0
      ],
      [
        "買個",
        0.0
      ],
      [
        "訪問",
        0.0
      ],
      [
        "下一個",
        0.0
      ],
      [
        "左上方",
        0.0
      ],
      [
        "畫面",
        0.0
      ],
      [
        "皮字",
        0.0
      ],
      [
        "過來",
        0.0
      ],
      [
        "畫完",
        0.0
      ],
      [
        "氣氛",
        0.0
      ],
      [
        "美金",
        0.0
      ],
      [
        "一片",
        0.0
      ],
      [
        "真實",
        0.0
      ],
      [
        "幾樣",
        0.0
      ],
      [
        "未去",
        0.0
      ],
      [
        "是否",
        0.0
      ],
      [
        "谷底",
        0.0
      ],
      [
        "波動",
        0.0
      ],
      [
        "年頭",
        0.0
      ],
      [
        "快趣",
        0.0
      ],
      [
        "兩部",
        0.0
      ],
      [
        "定點",
        0.0
      ],
      [
        "細聲",
        0.0
      ],
      [
        "傷殘",
        0.0
      ],
      [
        "用途",
        0.0
      ],
      [
        "主義",
        0.0
      ],
      [
        "先會",
        0.0
      ],
      [
        "一度",
        0.0
      ],
      [
        "一班人",
        0.0
      ],
      [
        "光纖",
        0.0
      ],
      [
        "出奇",
        0.0
      ],
      [
        "支旗",
        0.0
      ],
      [
        "即時",
        0.0
      ],
      [
        "不安",
        0.0
      ],
      [
        "總言",
        0.0
      ],
      [
        "一國兩制",
        0.0
      ],
      [
        "明知",
        0.0
      ],
      [
        "默書",
        0.0
      ],
      [
        "影相",
        0.0
      ],
      [
        "滿意",
        0.0
      ],
      [
        "買車",
        0.0
      ],
      [
        "橫掂",
        0.0
      ],
      [
        "令人",
        0.0
      ],
      [
        "垃圾",
        0.0
      ],
      [
        "黑膠",
        0.0
      ],
      [
        "偏西",
        0.0
      ],
      [
        "禁止",
        0.0
      ],
      [
        "調番轉",
        0.0
      ],
      [
        "一位",
        0.0
      ],
      [
        "幾慘",
        0.0
      ],
      [
        "落行",
        0.0
      ],
      [
        "個堡",
        0.0
      ],
      [
        "牛柳",
        0.0
      ],
      [
        "記者",
        0.0
      ],
      [
        "請教",
        0.0
      ],
      [
        "鬼馬",
        0.0
      ],
      [
        "剩返",
        0.0
      ],
      [
        "左至",
        0.0
      ],
      [
        "四幅",
        0.0
      ],
      [
        "過頭",
        0.0
      ],
      [
        "人員",
        0.0
      ],
      [
        "講錯",
        0.0
      ],
      [
        "第三個",
        0.0
      ],
      [
        "跳樓",
        0.0
      ],
      [
        "到達",
        0.0
      ],
      [
        "不變",
        0.0
      ],
      [
        "條文",
        0.0
      ],
      [
        "進聯",
        0.0
      ],
      [
        "喜劇",
        0.0
      ],
      [
        "讀過",
        0.0
      ],
      [
        "傷心",
        0.0
      ],
      [
        "些少",
        0.0
      ],
      [
        "過人",
        0.0
      ],
      [
        "大多數",
        0.0
      ],
      [
        "事情",
        0.0
      ],
      [
        "老婆",
        0.0
      ],
      [
        "你估",
        0.0
      ],
      [
        "歷史",
        0.0
      ],
      [
        "好易",
        0.0
      ],
      [
        "具體",
        0.0
      ],
      [
        "首日封",
        0.0
      ],
      [
        "廿三",
        0.0
      ],
      [
        "逐個",
        0.0
      ],
      [
        "電台",
        0.0
      ],
      [
        "交易",
        0.0
      ],
      [
        "開學",
        0.0
      ],
      [
        "投票",
        0.0
      ],
      [
        "哩份",
        0.0
      ],
      [
        "再轉",
        0.0
      ],
      [
        "嚇死",
        0.0
      ],
      [
        "離譜",
        0.0
      ],
      [
        "上升",
        0.0
      ],
      [
        "用個",
        0.0
      ],
      [
        "推動",
        0.0
      ],
      [
        "患難",
        0.0
      ],
      [
        "肌肉",
        0.0
      ],
      [
        "先有",
        0.0
      ],
      [
        "俾多",
        0.0
      ],
      [
        "友誼",
        0.0
      ],
      [
        "學院",
        0.0
      ],
      [
        "夏天",
        0.0
      ],
      [
        "運毒",
        0.0
      ],
      [
        "無奈",
        0.0
      ],
      [
        "過好",
        0.0
      ],
      [
        "坐監",
        0.0
      ],
      [
        "建築物",
        0.0
      ],
      [
        "蝕底",
        0.0
      ],
      [
        "刑法",
        0.0
      ],
      [
        "正正",
        0.0
      ],
      [
        "重疊",
        0.0
      ],
      [
        "走到",
        0.0
      ],
      [
        "政局",
        0.0
      ],
      [
        "即使",
        0.0
      ],
      [
        "有成",
        0.0
      ],
      [
        "立方體",
        0.0
      ],
      [
        "官司",
        0.0
      ],
      [
        "幾抵",
        0.0
      ],
      [
        "一排",
        0.0
      ],
      [
        "講好",
        0.0
      ],
      [
        "再右",
        0.0
      ],
      [
        "衝突",
        0.0
      ],
      [
        "東南方",
        0.0
      ],
      [
        "知名",
        0.0
      ],
      [
        "難得",
        0.0
      ],
      [
        "十二月",
        0.0
      ],
      [
        "組成",
        0.0
      ],
      [
        "事關",
        0.0
      ],
      [
        "股市",
        0.0
      ],
      [
        "烏蠅",
        0.0
      ],
      [
        "睇見",
        0.0
      ],
      [
        "成點",
        0.0
      ],
      [
        "薯仔",
        0.0
      ],
      [
        "盡頭",
        0.0
      ],
      [
        "塊面",
        0.0
      ],
      [
        "大學生",
        0.0
      ],
      [
        "有哩個",
        0.0
      ],
      [
        "現有",
        0.0
      ],
      [
        "講笑",
        0.0
      ],
      [
        "彎曲",
        0.0
      ],
      [
        "偏東",
        0.0
      ],
      [
        "帳篷",
        0.0
      ],
      [
        "都講",
        0.0
      ],
      [
        "卒之",
        0.0
      ],
      [
        "沙灘",
        0.0
      ],
      [
        "創造",
        0.0
      ],
      [
        "何況",
        0.0
      ],
      [
        "一級",
        0.0
      ],
      [
        "老豆",
        0.0
      ],
      [
        "完美",
        0.0
      ],
      [
        "實驗",
        0.0
      ],
      [
        "不滿",
        0.0
      ],
      [
        "幾十年",
        0.0
      ],
      [
        "麥潤壽",
        0.0
      ],
      [
        "請問",
        0.0
      ],
      [
        "哩句",
        0.0
      ],
      [
        "傻瓜機",
        0.0
      ],
      [
        "賣廣告",
        0.0
      ],
      [
        "人口",
        0.0
      ],
      [
        "執行",
        0.0
      ],
      [
        "熱線",
        0.0
      ],
      [
        "凌駕",
        0.0
      ],
      [
        "手法",
        0.0
      ],
      [
        "兩三年",
        0.0
      ],
      [
        "海琪",
        0.0
      ],
      [
        "阿伯",
        0.0
      ],
      [
        "九個",
        0.0
      ],
      [
        "個嬋盆",
        0.0
      ],
      [
        "六月",
        0.0
      ],
      [
        "西面行",
        0.0
      ],
      [
        "形成",
        0.0
      ],
      [
        "經個",
        0.0
      ],
      [
        "樹葉",
        0.0
      ],
      [
        "影印",
        0.0
      ],
      [
        "政務",
        0.0
      ],
      [
        "好運",
        0.0
      ],
      [
        "表姐",
        0.0
      ],
      [
        "蔣超平",
        0.0
      ],
      [
        "換言之",
        0.0
      ],
      [
        "現代",
        0.0
      ],
      [
        "每一次",
        0.0
      ],
      [
        "堡壘",
        0.0
      ],
      [
        "同航常",
        0.0
      ],
      [
        "出名",
        0.0
      ],
      [
        "通利琴行",
        0.0
      ],
      [
        "屋主",
        0.0
      ],
      [
        "進行",
        0.0
      ],
      [
        "數據",
        0.0
      ],
      [
        "極限",
        0.0
      ],
      [
        "你行",
        0.0
      ],
      [
        "批評",
        0.0
      ],
      [
        "地位",
        0.0
      ],
      [
        "收入",
        0.0
      ],
      [
        "一舊",
        0.0
      ],
      [
        "西北",
        0.0
      ],
      [
        "我覺",
        0.0
      ],
      [
        "知個",
        0.0
      ],
      [
        "痕山",
        0.0
      ],
      [
        "講吓",
        0.0
      ],
      [
        "阿二",
        0.0
      ],
      [
        "痛苦",
        0.0
      ],
      [
        "見工",
        0.0
      ],
      [
        "作文",
        0.0
      ],
      [
        "設計",
        0.0
      ],
      [
        "千萬",
        0.0
      ],
      [
        "科學",
        0.0
      ],
      [
        "在座",
        0.0
      ],
      [
        "傷風",
        0.0
      ],
      [
        "本書",
        0.0
      ],
      [
        "哩張",
        0.0
      ],
      [
        "宿舍",
        0.0
      ],
      [
        "傳統",
        0.0
      ],
      [
        "仔細",
        0.0
      ],
      [
        "經典",
        0.0
      ],
      [
        "到死",
        0.0
      ],
      [
        "有過",
        0.0
      ],
      [
        "哩科",
        0.0
      ],
      [
        "過往",
        0.0
      ],
      [
        "麻雀",
        0.0
      ],
      [
        "肉酸",
        0.0
      ],
      [
        "<0x00>",
        0.0
      ],
      [
        "<0x01>",
        0.0
      ],
      [
        "<0x02>",
        0.0
      ],
      [
        "<0x03>",
        0.0
      ],
      [
        "<0x04>",
        0.0
      ],
      [
        "<0x05>",
        0.0
      ],
      [
        "<0x06>",
        0.0
      ],
      [
        "<0x07>",
        0.0
      ],
      [
        "<0x08>",
        0.0
      ],
      [
        "<0x09>",
        0.0
      ],
      [
        "<0x0A>",
        0.0
      ],
      [
        "<0x0B>",
        0.0
      ],
      [
        "<0x0C>",
        0.0
      ],
      [
        "<0x0D>",
        0.0
      ],
      [
        "<0x0E>",
        0.0
      ],
      [
        "<0x0F>",
        0.0
      ],
      [
        "<0x10>",
        0.0
      ],
      [
        "<0x11>",
        0.0
      ],
      [
        "<0x12>",
        0.0
      ],
      [
        "<0x13>",
        0.0
      ],
      [
        "<0x14>",
        0.0
      ],
      [
        "<0x15>",
        0.0
      ],
      [
        "<0x16>",
        0.0
      ],
      [
        "<0x17>",
        0.0
      ],
      [
        "<0x18>",
        0.0
      ],
      [
        "<0x19>",
        0.0
      ],
      [
        "<0x1A>",
        0.0
      ],
      [
        "<0x1B>",
        0.0
      ],
      [
        "<0x1C>",
        0.0
      ],
      [
        "<0x1D>",
        0.0
      ],
      [
        "<0x1E>",
        0.0
      ],
      [
        "<0x1F>",
        0.0
      ],
      [
        "<0x20>",
        0.0
      ],
      [
        "<0x21>",
        0.0
      ],
      [
        "<0x22>",
        0.0
      ],
      [
        "<0x23>",
        0.0
      ],
      [
        "<0x24>",
        0.0
      ],
      [
        "<0x25>",
        0.0
      ],
      [
        "<0x26>",
        0.0
      ],
      [
        "<0x27>",
        0.0
      ],
      [
        "<0x28>",
        0.0
      ],
      [
        "<0x29>",
        0.0
      ],
      [
        "<0x2A>",
        0.0
      ],
      [
        "<0x2B>",
        0.0
      ],
      [
        "<0x2C>",
        0.0
      ],
      [
        "<0x2D>",
        0.0
      ],
      [
        "<0x2E>",
        0.0
      ],
      [
        "<0x2F>",
        0.0
      ],
      [
        "<0x30>",
        0.0
      ],
      [
        "<0x31>",
        0.0
      ],
      [
        "<0x32>",
        0.0
      ],
      [
        "<0x33>",
        0.0
      ],
      [
        "<0x34>",
        0.0
      ],
      [
        "<0x35>",
        0.0
      ],
      [
        "<0x36>",
        0.0
      ],
      [
        "<0x37>",
        0.0
      ],
      [
        "<0x38>",
        0.0
      ],
      [
        "<0x39>",
        0.0
      ],
      [
        "<0x3A>",
        0.0
      ],
      [
        "<0x3B>",
        0.0
      ],
      [
        "<0x3C>",
        0.0
      ],
      [
        "<0x3D>",
        0.0
      ],
      [
        "<0x3E>",
        0.0
      ],
      [
        "<0x3F>",
        0.0
      ],
      [
        "<0x40>",
        0.0
      ],
      [
        "<0x41>",
        0.0
      ],
      [
        "<0x42>",
        0.0
      ],
      [
        "<0x43>",
        0.0
      ],
      [
        "<0x44>",
        0.0
      ],
      [
        "<0x45>",
        0.0
      ],
      [
        "<0x46>",
        0.0
      ],
      [
        "<0x47>",
        0.0
      ],
      [
        "<0x48>",
        0.0
      ],
      [
        "<0x49>",
        0.0
      ],
      [
        "<0x4A>",
        0.0
      ],
      [
        "<0x4B>",
        0.0
      ],
      [
        "<0x4C>",
        0.0
      ],
      [
        "<0x4D>",
        0.0
      ],
      [
        "<0x4E>",
        0.0
      ],
      [
        "<0x4F>",
        0.0
      ],
      [
        "<0x50>",
        0.0
      ],
      [
        "<0x51>",
        0.0
      ],
      [
        "<0x52>",
        0.0
      ],
      [
        "<0x53>",
        0.0
      ],
      [
        "<0x54>",
        0.0
      ],
      [
        "<0x55>",
        0.0
      ],
      [
        "<0x56>",
        0.0
      ],
      [
        "<0x57>",
        0.0
      ],
      [
        "<0x58>",
        0.0
      ],
      [
        "<0x59>",
        0.0
      ],
      [
        "<0x5A>",
        0.0
      ],
      [
        "<0x5B>",
        0.0
      ],
      [
        "<0x5C>",
        0.0
      ],
      [
        "<0x5D>",
        0.0
      ],
      [
        "<0x5E>",
        0.0
      ],
      [
        "<0x5F>",
        0.0
      ],
      [
        "<0x60>",
        0.0
      ],
      [
        "<0x61>",
        0.0
      ],
      [
        "<0x62>",
        0.0
      ],
      [
        "<0x63>",
        0.0
      ],
      [
        "<0x64>",
        0.0
      ],
      [
        "<0x65>",
        0.0
      ],
      [
        "<0x66>",
        0.0
      ],
      [
        "<0x67>",
        0.0
      ],
      [
        "<0x68>",
        0.0
      ],
      [
        "<0x69>",
        0.0
      ],
      [
        "<0x6A>",
        0.0
      ],
      [
        "<0x6B>",
        0.0
      ],
      [
        "<0x6C>",
        0.0
      ],
      [
        "<0x6D>",
        0.0
      ],
      [
        "<0x6E>",
        0.0
      ],
      [
        "<0x6F>",
        0.0
      ],
      [
        "<0x70>",
        0.0
      ],
      [
        "<0x71>",
        0.0
      ],
      [
        "<0x72>",
        0.0
      ],
      [
        "<0x73>",
        0.0
      ],
      [
        "<0x74>",
        0.0
      ],
      [
        "<0x75>",
        0.0
      ],
      [
        "<0x76>",
        0.0
      ],
      [
        "<0x77>",
        0.0
      ],
      [
        "<0x78>",
        0.0
      ],
      [
        "<0x79>",
        0.0
      ],
      [
        "<0x7A>",
        0.0
      ],
      [
        "<0x7B>",
        0.0
      ],
      [
        "<0x7C>",
        0.0
      ],
      [
        "<0x7D>",
        0.0
      ],
      [
        "<0x7E>",
        0.0
      ],
      [
        "<0x7F>",
        0.0
      ],
      [
        "<0x80>",
        0.0
      ],
      [
        "<0x81>",
        0.0
      ],
      [
        "<0x82>",
        0.0
      ],
      [
        "<0x83>",
        0.0
      ],
      [
        "<0x84>",
        0.0
      ],
      [
        "<0x85>",
        0.0
      ],
      [
        "<0x86>",
        0.0
      ],
      [
        "<0x87>",
        0.0
      ],
      [
        "<0x88>",
        0.0
      ],
      [
        "<0x89>",
        0.0
      ],
      [
        "<0x8A>",
        0.0
      ],
      [
        "<0x8B>",
        0.0
      ],
      [
        "<0x8C>",
        0.0
      ],
      [
        "<0x8D>",
        0.0
      ],
      [
        "<0x8E>",
        0.0
      ],
      [
        "<0x8F>",
        0.0
      ],
      [
        "<0x90>",
        0.0
      ],
      [
        "<0x91>",
        0.0
      ],
      [
        "<0x92>",
        0.0
      ],
      [
        "<0x93>",
        0.0
      ],
      [
        "<0x94>",
        0.0
      ],
      [
        "<0x95>",
        0.0
      ],
      [
        "<0x96>",
        0.0
      ],
      [
        "<0x97>",
        0.0
      ],
      [
        "<0x98>",
        0.0
      ],
      [
        "<0x99>",
        0.0
      ],
      [
        "<0x9A>",
        0.0
      ],
      [
        "<0x9B>",
        0.0
      ],
      [
        "<0x9C>",
        0.0
      ],
      [
        "<0x9D>",
        0.0
      ],
      [
        "<0x9E>",
        0.0
      ],
      [
        "<0x9F>",
        0.0
      ],
      [
        "<0xA0>",
        0.0
      ],
      [
        "<0xA1>",
        0.0
      ],
      [
        "<0xA2>",
        0.0
      ],
      [
        "<0xA3>",
        0.0
      ],
      [
        "<0xA4>",
        0.0
      ],
      [
        "<0xA5>",
        0.0
      ],
      [
        "<0xA6>",
        0.0
      ],
      [
        "<0xA7>",
        0.0
      ],
      [
        "<0xA8>",
        0.0
      ],
      [
        "<0xA9>",
        0.0
      ],
      [
        "<0xAA>",
        0.0
      ],
      [
        "<0xAB>",
        0.0
      ],
      [
        "<0xAC>",
        0.0
      ],
      [
        "<0xAD>",
        0.0
      ],
      [
        "<0xAE>",
        0.0
      ],
      [
        "<0xAF>",
        0.0
      ],
      [
        "<0xB0>",
        0.0
      ],
      [
        "<0xB1>",
        0.0
      ],
      [
        "<0xB2>",
        0.0
      ],
      [
        "<0xB3>",
        0.0
      ],
      [
        "<0xB4>",
        0.0
      ],
      [
        "<0xB5>",
        0.0
      ],
      [
        "<0xB6>",
        0.0
      ],
      [
        "<0xB7>",
        0.0
      ],
      [
        "<0xB8>",
        0.0
      ],
      [
        "<0xB9>",
        0.0
      ],
      [
        "<0xBA>",
        0.0
      ],
      [
        "<0xBB>",
        0.0
      ],
      [
        "<0xBC>",
        0.0
      ],
      [
        "<0xBD>",
        0.0
      ],
      [
        "<0xBE>",
        0.0
      ],
      [
        "<0xBF>",
        0.0
      ],
      [
        "<0xC0>",
        0.0
      ],
      [
        "<0xC1>",
        0.0
      ],
      [
        "<0xC2>",
        0.0
      ],
      [
        "<0xC3>",
        0.0
      ],
      [
        "<0xC4>",
        0.0
      ],
      [
        "<0xC5>",
        0.0
      ],
      [
        "<0xC6>",
        0.0
      ],
      [
        "<0xC7>",
        0.0
      ],
      [
        "<0xC8>",
        0.0
      ],
      [
        "<0xC9>",
        0.0
      ],
      [
        "<0xCA>",
        0.0
      ],
      [
        "<0xCB>",
        0.0
      ],
      [
        "<0xCC>",
        0.0
      ],
      [
        "<0xCD>",
        0.0
      ],
      [
        "<0xCE>",
        0.0
      ],
      [
        "<0xCF>",
        0.0
      ],
      [
        "<0xD0>",
        0.0
      ],
      [
        "<0xD1>",
        0.0
      ],
      [
        "<0xD2>",
        0.0
      ],
      [
        "<0xD3>",
        0.0
      ],
      [
        "<0xD4>",
        0.0
      ],
      [
        "<0xD5>",
        0.0
      ],
      [
        "<0xD6>",
        0.0
      ],
      [
        "<0xD7>",
        0.0
      ],
      [
        "<0xD8>",
        0.0
      ],
      [
        "<0xD9>",
        0.0
      ],
      [
        "<0xDA>",
        0.0
      ],
      [
        "<0xDB>",
        0.0
      ],
      [
        "<0xDC>",
        0.0
      ],
      [
        "<0xDD>",
        0.0
      ],
      [
        "<0xDE>",
        0.0
      ],
      [
        "<0xDF>",
        0.0
      ],
      [
        "<0xE0>",
        0.0
      ],
      [
        "<0xE1>",
        0.0
      ],
      [
        "<0xE2>",
        0.0
      ],
      [
        "<0xE3>",
        0.0
      ],
      [
        "<0xE4>",
        0.0
      ],
      [
        "<0xE5>",
        0.0
      ],
      [
        "<0xE6>",
        0.0
      ],
      [
        "<0xE7>",
        0.0
      ],
      [
        "<0xE8>",
        0.0
      ],
      [
        "<0xE9>",
        0.0
      ],
      [
        "<0xEA>",
        0.0
      ],
      [
        "<0xEB>",
        0.0
      ],
      [
        "<0xEC>",
        0.0
      ],
      [
        "<0xED>",
        0.0
      ],
      [
        "<0xEE>",
        0.0
      ],
      [
        "<0xEF>",
        0.0
      ],
      [
        "<0xF0>",
        0.0
      ],
      [
        "<0xF1>",
        0.0
      ],
      [
        "<0xF2>",
        0.0
      ],
      [
        "<0xF3>",
        0.0
      ],
      [
        "<0xF4>",
        0.0
      ],
      [
        "<0xF5>",
        0.0
      ],
      [
        "<0xF6>",
        0.0
      ],
      [
        "<0xF7>",
        0.0
      ],
      [
        "<0xF8>",
        0.0
      ],
      [
        "<0xF9>",
        0.0
      ],
      [
        "<0xFA>",
        0.0
      ],
      [
        "<0xFB>",
        0.0
      ],
      [
        "<0xFC>",
        0.0
      ],
      [
        "<0xFD>",
        0.0
      ],
      [
        "<0xFE>",
        0.0
      ],
      [
        "<0xFF>",
        0.0
      ],
      [
        "，",
        -1.5135700702667236
      ],
      [
        "▁",
        -3.49813461303711
      ],
      [
        "。",
        -4.151235580444336
      ],
      [
        "嘅",
        -4.250422954559326
      ],
      [
        "係",
        -4.650816440582275
      ],
      [
        "同",
        -5.222866058349609
      ],
      [
        "有",
        -5.2293291091918945
      ],
      [
        "佢",
        -5.253377437591553
      ],
      [
        "我",
        -5.259932994842529
      ],
      [
        "、",
        -5.371128082275391
      ],
      [
        "你",
        -5.37909460067749
      ],
      [
        "就",
        -5.404717922210693
      ],
      [
        "都",
        -5.508170127868652
      ],
      [
        "人",
        -5.520101547241211
      ],
      [
        ",",
        -5.552833080291748
      ],
      [
        "喺",
        -5.568013668060303
      ],
      [
        "：",
        -5.579155921936035
      ],
      [
        "？",
        -5.680409908294678
      ],
      [
        "（",
        -5.694681644439697
      ],
      [
        "好",
        -5.711596488952637
      ],
      [
        "咁",
        -5.731130599975586
      ],
      [
        "）",
        -5.791232585906982
      ],
      [
        "年",
        -5.810793876647949
      ],
      [
        "既",
        -5.8116230964660645
      ],
      [
        "個",
        -5.813405990600586
      ],
      [
        "唔",
        -5.820885181427002
      ],
      [
        "「",
        -5.850888729095459
      ],
      [
        "到",
        -5.852530479431152
      ],
      [
        "會",
        -5.962388515472412
      ],
      [
        "要",
        -6.030848503112793
      ],
      [
        "」",
        -6.065747261047363
      ],
      [
        "大",
        -6.110193252563477
      ],
      [
        "去",
        -6.122206211090088
      ],
      [
        "但",
        -6.131901264190674
      ],
      [
        "做",
        -6.157033920288086
      ],
      [
        "！",
        -6.157167434692383
      ],
      [
        "呢",
        -6.1715474128723145
      ],
      [
        "話",
        -6.183263301849365
      ],
      [
        "一",
        -6.196674346923828
      ],
      [
        "又",
        -6.199106216430664
      ],
      [
        "啦",
        -6.213003158569336
      ],
      [
        "咗",
        -6.216650485992432
      ],
      [
        "用",
        -6.295807361602783
      ],
      [
        "啲",
        -6.33117151260376
      ],
      [
        "月",
        -6.33389949798584
      ],
      [
        "啊",
        -6.339117527008057
      ],
      [
        "上",
        -6.344494819641113
      ],
      [
        "而",
        -6.438676357269287
      ],
      [
        "冇",
        -6.438868522644043
      ],
      [
        "得",
        -6.441827297210693
      ],
      [
        "《",
        -6.4450812339782715
      ],
      [
        "下",
        -6.476315498352051
      ],
      [
        "都係",
        -6.486454963684082
      ],
      [
        "d",
        -6.496434211730957
      ],
      [
        "先",
        -6.508443355560303
      ],
      [
        "無",
        -6.537113666534424
      ],
      [
        "》",
        -6.538766860961914
      ],
      [
        "睇",
        -6.661840915679932
      ],
      [
        "過",
        -6.662294387817383
      ],
      [
        "/",
        -6.698878765106201
      ],
      [
        "呀",
        -6.70017147064209
      ],
      [
        "左",
        -6.7098212242126465
      ],
      [
        "出",
        -6.7194318771362305
      ],
      [
        "講",
        -6.72109842300415
      ],
      [
        "打",
        -6.748736381530762
      ],
      [
        "呢個",
        -6.754120349884033
      ],
      [
        "中",
        -6.79422664642334
      ],
      [
        ")",
        -6.795891284942627
      ],
      [
        "對",
        -6.798017978668213
      ],
      [
        "再",
        -6.802237510681152
      ],
      [
        "；",
        -6.815781593322754
      ],
      [
        "s",
        -6.845090389251709
      ],
      [
        "嚟",
        -6.852108478546143
      ],
      [
        "-",
        -6.863239288330078
      ],
      [
        "就係",
        -6.870635032653809
      ],
      [
        "為",
        -6.874897480010986
      ],
      [
        "3",
        -6.884007453918457
      ],
      [
        "2",
        -6.884921073913574
      ],
      [
        "1",
        -6.891134738922119
      ],
      [
        ".",
        -6.892966270446777
      ],
      [
        "比",
        -6.920917987823486
      ],
      [
        "後",
        -6.941119194030762
      ],
      [
        "開",
        -6.942255973815918
      ],
      [
        "由",
        -6.947216987609863
      ],
      [
        "號",
        -6.952130317687988
      ],
      [
        "仲",
        -6.953510761260986
      ],
      [
        "多",
        -6.958929538726807
      ],
      [
        "食",
        -6.9602179527282715
      ],
      [
        "咩",
        -6.989765167236328
      ],
      [
        "點",
        -7.01842737197876
      ],
      [
        "日",
        -7.0233845710754395
      ],
      [
        "住",
        -7.023501873016357
      ],
      [
        "想",
        -7.039801597595215
      ],
      [
        "將",
        -7.064768314361572
      ],
      [
        "新",
        -7.07417106628418
      ],
      [
        "返",
        -7.086048603057861
      ],
      [
        "入",
        -7.091597557067871
      ],
      [
        "以",
        -7.091686248779297
      ],
      [
        "4",
        -7.093678951263428
      ],
      [
        "佢哋",
        -7.099618434906006
      ],
      [
        "不",
        -7.101615905761719
      ],
      [
        "前",
        -7.106743812561035
      ],
      [
        "高",
        -7.116522312164307
      ],
      [
        "等",
        -7.1194915771484375
      ],
      [
        "喇",
        -7.127286911010742
      ],
      [
        "5",
        -7.13034725189209
      ],
      [
        "D",
        -7.1312456130981445
      ],
      [
        "時",
        -7.135657787322998
      ],
      [
        "水",
        -7.1417059898376465
      ],
      [
        "頭",
        -7.162415027618408
      ],
      [
        "最",
        -7.168177127838135
      ],
      [
        "仔",
        -7.171352863311768
      ],
      [
        "行",
        -7.189284324645996
      ],
      [
        "玩",
        -7.192800045013428
      ],
      [
        "我哋",
        -7.195049285888672
      ],
      [
        "好多",
        -7.195713520050049
      ],
      [
        "成",
        -7.1996941566467285
      ],
      [
        "曬",
        -7.204732418060303
      ],
      [
        "死",
        -7.221817970275879
      ],
      [
        "買",
        -7.229488372802734
      ],
      [
        "。」",
        -7.234174728393555
      ],
      [
        "(",
        -7.243055820465088
      ],
      [
        "野",
        -7.255678176879883
      ],
      [
        "地",
        -7.257907390594482
      ],
      [
        "度",
        -7.266780853271484
      ],
      [
        "9",
        -7.268727302551269
      ],
      [
        "]",
        -7.287294387817383
      ],
      [
        "：「",
        -7.292932510375977
      ],
      [
        "小",
        -7.293613433837891
      ],
      [
        "噉",
        -7.30228328704834
      ],
      [
        "分",
        -7.312333583831787
      ],
      [
        "亦",
        -7.312383651733398
      ],
      [
        "叫",
        -7.315771102905273
      ],
      [
        "俾",
        -7.3224196434021
      ],
      [
        "生",
        -7.324298858642578
      ],
      [
        "埋",
        -7.329351902008057
      ],
      [
        "?",
        -7.334149837493896
      ],
      [
        ":",
        -7.353410243988037
      ],
      [
        "嗰",
        -7.358766078948975
      ],
      [
        "6",
        -7.3778181076049805
      ],
      [
        "佢地",
        -7.381020069122315
      ],
      [
        "三",
        -7.388426780700684
      ],
      [
        "車",
        -7.395939350128174
      ],
      [
        "畀",
        -7.416713714599609
      ],
      [
        "手",
        -7.419130802154541
      ],
      [
        "心",
        -7.419881820678711
      ],
      [
        "之",
        -7.42274808883667
      ],
      [
        "連",
        -7.423040866851807
      ],
      [
        "架",
        -7.431699275970459
      ],
      [
        "重",
        -7.432394504547119
      ],
      [
        "走",
        -7.438845634460449
      ],
      [
        "被",
        -7.440157890319824
      ],
      [
        "位",
        -7.446845531463623
      ],
      [
        "名",
        -7.4505133628845215
      ],
      [
        "10",
        -7.455523490905762
      ],
      [
        "起",
        -7.457447052001953
      ],
      [
        "家",
        -7.457829475402832
      ],
      [
        "未",
        -7.458024501800537
      ],
      [
        "A",
        -7.47752857208252
      ],
      [
        "揾",
        -7.479967594146728
      ],
      [
        "嘢",
        -7.483773231506348
      ],
      [
        "定",
        -7.485182762145996
      ],
      [
        "加",
        -7.4874091148376465
      ],
      [
        "落",
        -7.493295192718506
      ],
      [
        "緊",
        -7.495429515838623
      ],
      [
        "只係",
        -7.501895427703857
      ],
      [
        "聲",
        -7.504733562469482
      ],
      [
        "馬",
        -7.506910800933838
      ],
      [
        "區",
        -7.514130592346191
      ],
      [
        "幾",
        -7.5152482986450195
      ],
      [
        "女",
        -7.515730381011963
      ],
      [
        "...",
        -7.520830154418945
      ],
      [
        "喎",
        -7.53355598449707
      ],
      [
        "7",
        -7.536246299743652
      ],
      [
        "長",
        -7.5445685386657715
      ],
      [
        "機",
        -7.548830032348633
      ],
      [
        "及",
        -7.551661014556885
      ],
      [
        "咪",
        -7.558420181274414
      ],
      [
        "文",
        -7.563787937164307
      ],
      [
        "㗎",
        -7.564174652099609
      ],
      [
        "當",
        -7.568800926208496
      ],
      [
        "8",
        -7.570394039154053
      ],
      [
        "我地",
        -7.571539402008057
      ],
      [
        "黎",
        -7.571850299835205
      ],
      [
        "er",
        -7.574544906616211
      ],
      [
        "見",
        -7.579871654510498
      ],
      [
        "阿",
        -7.580456256866455
      ],
      [
        "搞",
        -7.589869022369385
      ],
      [
        "完",
        -7.589878082275391
      ],
      [
        "力",
        -7.600162982940674
      ],
      [
        "學",
        -7.607481956481934
      ],
      [
        "隻",
        -7.60752010345459
      ],
      [
        "錢",
        -7.607727527618408
      ],
      [
        "性",
        -7.611551284790039
      ],
      [
        "都有",
        -7.616450309753418
      ],
      [
        "\"",
        -7.618649482727051
      ],
      [
        "者",
        -7.625959396362305
      ],
      [
        "道",
        -7.640505790710449
      ],
      [
        "路",
        -7.647083282470703
      ],
      [
        "向",
        -7.650190353393555
      ],
      [
        "囉",
        -7.653112888336182
      ],
      [
        "唔會",
        -7.655105590820312
      ],
      [
        "e",
        -7.661741256713867
      ],
      [
        "在",
        -7.66216230392456
      ],
      [
        "班",
        -7.662239074707031
      ],
      [
        "國",
        -7.662514209747315
      ],
      [
        "張",
        -7.663904190063477
      ],
      [
        "[",
        -7.668034553527832
      ],
      [
        "間",
        -7.668281555175781
      ],
      [
        "條",
        -7.682333946228027
      ],
      [
        "▁(",
        -7.683049201965332
      ],
      [
        "事",
        -7.683430194854736
      ],
      [
        "天",
        -7.697045803070068
      ],
      [
        "見到",
        -7.703758239746094
      ],
      [
        "兩",
        -7.704861640930176
      ],
      [
        "子",
        -7.7051215171813965
      ],
      [
        "呢啲",
        -7.712886333465576
      ],
      [
        "蘋果",
        -7.72097110748291
      ],
      [
        "至",
        -7.7244696617126465
      ],
      [
        "轉",
        -7.725318908691406
      ],
      [
        "老",
        -7.7272796630859375
      ],
      [
        "問",
        -7.729023456573486
      ],
      [
        "嚇",
        -7.729057788848877
      ],
      [
        "山",
        -7.732217311859131
      ],
      [
        "更",
        -7.732546806335449
      ],
      [
        "數",
        -7.738237380981445
      ],
      [
        "指",
        -7.744111061096191
      ],
      [
        "萬",
        -7.745419502258301
      ],
      [
        "場",
        -7.74891996383667
      ],
      [
        "▁你",
        -7.760122299194336
      ],
      [
        "明",
        -7.7647385597229
      ],
      [
        "C",
        -7.76537036895752
      ],
      [
        "次",
        -7.767173767089844
      ],
      [
        "…",
        -7.768771648406982
      ],
      [
        "c",
        -7.769583225250244
      ],
      [
        "令",
        -7.77133846282959
      ],
      [
        "放",
        -7.771979331970215
      ],
      [
        "帶",
        -7.778841972351074
      ],
      [
        "自",
        -7.779558658599853
      ],
      [
        "聽",
        -7.783865451812744
      ],
      [
        "部",
        -7.790452480316162
      ],
      [
        "S",
        -7.793831825256348
      ],
      [
        "嘅人",
        -7.799807071685791
      ],
      [
        "太",
        -7.799953460693359
      ],
      [
        "拉",
        -7.814661502838135
      ],
      [
        "番",
        -7.820796489715576
      ],
      [
        "內",
        -7.824162483215332
      ],
      [
        "B",
        -7.824650764465332
      ],
      [
        "字",
        -7.842794418334961
      ],
      [
        "正",
        -7.85015058517456
      ],
      [
        "或",
        -7.852911472320557
      ],
      [
        "屌",
        -7.857162952423096
      ],
      [
        "低",
        -7.857581615447998
      ],
      [
        "波",
        -7.863855361938477
      ],
      [
        "收",
        -7.867963790893555
      ],
      [
        "金",
        -7.871239185333252
      ],
      [
        "線",
        -7.874819755554199
      ],
      [
        "五",
        -7.875819206237793
      ],
      [
        "於",
        -7.879016876220703
      ],
      [
        "二",
        -7.879188060760498
      ],
      [
        "可",
        -7.880134105682373
      ],
      [
        "全",
        -7.883874893188477
      ],
      [
        "法",
        -7.884396553039551
      ],
      [
        "on",
        -7.889421939849853
      ],
      [
        "口",
        -7.896976947784424
      ],
      [
        "a",
        -7.898183822631836
      ],
      [
        "外",
        -7.916700839996338
      ],
      [
        "花",
        -7.920469760894775
      ],
      [
        "站",
        -7.923012256622315
      ],
      [
        "四",
        -7.92591667175293
      ],
      [
        "派",
        -7.927509307861328
      ],
      [
        "黃",
        -7.928473949432373
      ],
      [
        "白",
        -7.929834842681885
      ],
      [
        "果",
        -7.932641983032227
      ],
      [
        "幫",
        -7.936870574951172
      ],
      [
        "t",
        -7.936956882476807
      ],
      [
        "化",
        -7.9437575340271
      ],
      [
        "西",
        -7.944188594818115
      ],
      [
        "諗",
        -7.945375919342041
      ],
      [
        "12",
        -7.953645706176758
      ],
      [
        "王",
        -7.954978942871094
      ],
      [
        "愛",
        -7.9646501541137695
      ],
      [
        "le",
        -7.965310573577881
      ],
      [
        "神",
        -7.966731071472168
      ],
      [
        "唔知",
        -7.967503070831299
      ],
      [
        "賣",
        -7.970499515533447
      ],
      [
        "氣",
        -7.971689701080322
      ],
      [
        "面",
        -7.97409200668335
      ],
      [
        "海",
        -7.978890895843506
      ],
      [
        "整",
        -7.98394250869751
      ],
      [
        "都唔",
        -7.98575496673584
      ],
      [
        "狗",
        -7.988468170166016
      ],
      [
        "識",
        -7.989899158477783
      ],
      [
        "寫",
        -7.992167949676514
      ],
      [
        "教",
        -7.997381687164307
      ],
      [
        "邊",
        -8.002081871032715
      ],
      [
        "有啲",
        -8.002654075622559
      ],
      [
        "平",
        -8.003555297851562
      ],
      [
        "讀",
        -8.006091117858887
      ],
      [
        "信",
        -8.006148338317871
      ],
      [
        "元",
        -8.006363868713379
      ],
      [
        "版",
        -8.007345199584961
      ],
      [
        "黑",
        -8.012633323669434
      ],
      [
        "請",
        -8.02308464050293
      ],
      [
        "紅",
        -8.041512489318848
      ],
      [
        "都要",
        -8.04556941986084
      ],
      [
        "計",
        -8.045976638793945
      ],
      [
        "響",
        -8.048317909240723
      ],
      [
        "細",
        -8.048561096191406
      ],
      [
        "哂",
        -8.054224014282227
      ],
      [
        "▁我",
        -8.055536270141602
      ],
      [
        "y",
        -8.056904792785645
      ],
      [
        "少",
        -8.057778358459473
      ],
      [
        "台",
        -8.058099746704102
      ],
      [
        "華",
        -8.05859375
      ],
      [
        "身",
        -8.059236526489258
      ],
      [
        "去到",
        -8.059505462646484
      ],
      [
        "▁-",
        -8.064913749694824
      ],
      [
        "飛",
        -8.065051078796387
      ],
      [
        "坐",
        -8.069478034973145
      ],
      [
        "來",
        -8.070935249328613
      ],
      [
        "光",
        -8.071916580200195
      ],
      [
        "利",
        -8.074212074279785
      ],
      [
        "單",
        -8.076024055480957
      ],
      [
        "歲",
        -8.079340934753418
      ],
      [
        "隊",
        -8.08310604095459
      ],
      [
        "本",
        -8.083653450012207
      ],
      [
        "城",
        -8.085739135742188
      ],
      [
        "卡",
        -8.087160110473633
      ],
      [
        "只",
        -8.088062286376953
      ],
      [
        "相",
        -8.08938980102539
      ],
      [
        "20",
        -8.089531898498535
      ],
      [
        "第",
        -8.094475746154785
      ],
      [
        "陳",
        -8.094535827636719
      ],
      [
        "李",
        -8.096650123596191
      ],
      [
        "發",
        -8.099868774414062
      ],
      [
        "知",
        -8.102577209472656
      ],
      [
        "升",
        -8.103631973266602
      ],
      [
        "書",
        -8.105070114135742
      ],
      [
        "拎",
        -8.107808113098145
      ],
      [
        "約",
        -8.108006477355957
      ],
      [
        "都好",
        -8.10859489440918
      ],
      [
        "美",
        -8.108922958374023
      ],
      [
        "拍",
        -8.112665176391602
      ],
      [
        "變",
        -8.113804817199707
      ],
      [
        "G",
        -8.114238739013672
      ],
      [
        "門",
        -8.117399215698242
      ],
      [
        "▁但",
        -8.133573532104492
      ],
      [
        "差",
        -8.137528419494629
      ],
      [
        "林",
        -8.13854694366455
      ],
      [
        "佢話",
        -8.141097068786621
      ],
      [
        "實",
        -8.141640663146973
      ],
      [
        "T",
        -8.14264965057373
      ],
      [
        "post",
        -8.14327335357666
      ],
      [
        "b",
        -8.145483016967773
      ],
      [
        "M",
        -8.146398544311523
      ],
      [
        "德",
        -8.15937614440918
      ],
      [
        "反",
        -8.1608304977417
      ],
      [
        "東",
        -8.161319732666016
      ],
      [
        "火",
        -8.163323402404785
      ],
      [
        "風",
        -8.165757179260254
      ],
      [
        "和",
        -8.165814399719238
      ],
      [
        "圖",
        -8.171175003051758
      ],
      [
        "嘞",
        -8.171469688415527
      ],
      [
        "」。",
        -8.175760269165039
      ],
      [
        "街",
        -8.17722225189209
      ],
      [
        "作",
        -8.179104804992676
      ],
      [
        "k",
        -8.182851791381836
      ],
      [
        "片",
        -8.188695907592773
      ],
      [
        "m",
        -8.189496994018555
      ],
      [
        "所",
        -8.191152572631836
      ],
      [
        "夠",
        -8.193320274353027
      ],
      [
        "龍",
        -8.194365501403809
      ],
      [
        "出黎",
        -8.195799827575684
      ],
      [
        "樓",
        -8.19660758972168
      ],
      [
        "已",
        -8.197779655456543
      ],
      [
        "11",
        -8.201881408691406
      ],
      [
        "受",
        -8.201972961425781
      ],
      [
        "戰",
        -8.20676326751709
      ],
      [
        "真",
        -8.20743179321289
      ],
      [
        "30",
        -8.20801067352295
      ],
      [
        "市",
        -8.209040641784668
      ],
      [
        "o",
        -8.210619926452637
      ],
      [
        "嗰陣",
        -8.210970878601074
      ],
      [
        "換",
        -8.212776184082031
      ],
      [
        "清",
        -8.213536262512207
      ],
      [
        "笑",
        -8.216923713684082
      ],
      [
        "嗰個",
        -8.217287063598633
      ],
      [
        "K",
        -8.219051361083984
      ],
      [
        "你地",
        -8.220671653747559
      ],
      [
        "爆",
        -8.2217378616333
      ],
      [
        "驚",
        -8.22205638885498
      ],
      [
        "撚",
        -8.225963592529297
      ],
      [
        "都冇",
        -8.227888107299805
      ],
      [
        "跟",
        -8.227953910827637
      ],
      [
        "眼",
        -8.228400230407715
      ],
      [
        "p",
        -8.233929634094238
      ],
      [
        "解",
        -8.236592292785645
      ],
      [
        "P",
        -8.238024711608887
      ],
      [
        "星",
        -8.23876953125
      ],
      [
        "工",
        -8.240250587463379
      ],
      [
        "科",
        -8.242293357849121
      ],
      [
        "斯",
        -8.245149612426758
      ],
      [
        "安",
        -8.24770450592041
      ],
      [
        "推",
        -8.249119758605957
      ],
      [
        "達",
        -8.251703262329102
      ],
      [
        "著",
        -8.254195213317871
      ],
      [
        "咁多",
        -8.257024765014648
      ],
      [
        "舊",
        -8.259431838989258
      ],
      [
        "18",
        -8.259827613830566
      ],
      [
        "另",
        -8.26150894165039
      ],
      [
        "你哋",
        -8.265273094177246
      ],
      [
        "有冇",
        -8.266945838928223
      ],
      [
        "tion",
        -8.267351150512695
      ],
      [
        "鬼",
        -8.27260684967041
      ],
      [
        "軍",
        -8.272613525390625
      ],
      [
        "每",
        -8.273882865905762
      ],
      [
        "交",
        -8.277665138244629
      ],
      [
        "與",
        -8.27846622467041
      ],
      [
        "送",
        -8.279394149780273
      ],
      [
        "ing",
        -8.279409408569336
      ],
      [
        "攞",
        -8.283080101013184
      ],
      [
        "改",
        -8.286102294921875
      ],
      [
        "近",
        -8.290398597717285
      ],
      [
        "人地",
        -8.294816970825195
      ],
      [
        "關",
        -8.294899940490723
      ],
      [
        "即",
        -8.295679092407227
      ],
      [
        "特",
        -8.297785758972168
      ],
      [
        "揀",
        -8.310791969299316
      ],
      [
        "【",
        -8.311837196350098
      ],
      [
        "報",
        -8.312240600585938
      ],
      [
        "15",
        -8.314172744750977
      ],
      [
        "勁",
        -8.31663990020752
      ],
      [
        "影",
        -8.317404747009277
      ],
      [
        "牌",
        -8.317580223083496
      ],
      [
        "難",
        -8.324234008789062
      ],
      [
        "！」",
        -8.326125144958496
      ],
      [
        "如",
        -8.3307466506958
      ],
      [
        "F",
        -8.332286834716797
      ],
      [
        "電",
        -8.333795547485352
      ],
      [
        "強",
        -8.335321426391602
      ],
      [
        "+",
        -8.336909294128418
      ],
      [
        "g",
        -8.34090805053711
      ],
      [
        "米",
        -8.341010093688965
      ],
      [
        "量詞",
        -8.342727661132812
      ],
      [
        "錯",
        -8.34293270111084
      ],
      [
        "底",
        -8.35355281829834
      ],
      [
        "in",
        -8.359301567077637
      ],
      [
        "噚日",
        -8.361079216003418
      ],
      [
        "快",
        -8.369063377380371
      ],
      [
        "追",
        -8.3700532913208
      ],
      [
        "傳",
        -8.372318267822266
      ],
      [
        "半",
        -8.373921394348145
      ],
      [
        "樣",
        -8.375272750854492
      ],
      [
        "L",
        -8.375874519348145
      ],
      [
        "搞到",
        -8.377811431884766
      ],
      [
        "】",
        -8.378679275512695
      ],
      [
        "兵",
        -8.379524230957031
      ],
      [
        "主",
        -8.382818222045898
      ],
      [
        "試",
        -8.38587474822998
      ],
      [
        "價",
        -8.386746406555176
      ],
      [
        "處",
        -8.387746810913086
      ],
      [
        "通",
        -8.397910118103027
      ],
      [
        "南",
        -8.400888442993164
      ],
      [
        "i",
        -8.405194282531738
      ],
      [
        "超",
        -8.409534454345703
      ],
      [
        "飲",
        -8.410895347595215
      ],
      [
        "亞",
        -8.413019180297852
      ],
      [
        "石",
        -8.41633129119873
      ],
      [
        "男",
        -8.41745376586914
      ],
      [
        "腳",
        -8.417656898498535
      ],
      [
        "除咗",
        -8.419878959655762
      ],
      [
        "贏",
        -8.420113563537598
      ],
      [
        "re",
        -8.421490669250488
      ],
      [
        "有咩",
        -8.421682357788086
      ],
      [
        "一啲",
        -8.42231273651123
      ],
      [
        "並",
        -8.422860145568848
      ],
      [
        "呢度",
        -8.428009033203125
      ],
      [
        "排",
        -8.436795234680176
      ],
      [
        "流",
        -8.440004348754883
      ],
      [
        "包",
        -8.440874099731445
      ],
      [
        "公",
        -8.446767807006836
      ],
      [
        "巴",
        -8.452079772949219
      ],
      [
        "留",
        -8.452622413635254
      ],
      [
        "乜",
        -8.458889961242676
      ],
      [
        "從",
        -8.463913917541504
      ],
      [
        "理",
        -8.465771675109863
      ],
      [
        "R",
        -8.465903282165527
      ],
      [
        "皮",
        -8.467825889587402
      ],
      [
        "客",
        -8.46850299835205
      ],
      [
        "跌",
        -8.469115257263184
      ],
      [
        "早",
        -8.469915390014648
      ],
      [
        "吖",
        -8.470166206359863
      ],
      [
        "爾",
        -8.476079940795898
      ],
      [
        "佢嘅",
        -8.480836868286133
      ],
      [
        "情",
        -8.482545852661133
      ],
      [
        "份",
        -8.485298156738281
      ],
      [
        "哥",
        -8.486382484436035
      ],
      [
        "世",
        -8.486472129821777
      ],
      [
        "我都",
        -8.486750602722168
      ],
      [
        "貨",
        -8.487642288208008
      ],
      [
        "望",
        -8.49013900756836
      ],
      [
        "方",
        -8.494026184082031
      ],
      [
        "x",
        -8.496244430541992
      ],
      [
        "期",
        -8.496895790100098
      ],
      [
        "n",
        -8.500421524047852
      ],
      [
        "式",
        -8.505950927734375
      ],
      [
        "羅",
        -8.507155418395996
      ],
      [
        "因",
        -8.507643699645996
      ],
      [
        "代",
        -8.508132934570312
      ],
      [
        "越",
        -8.509329795837402
      ],
      [
        "病",
        -8.511401176452637
      ],
      [
        "色",
        -8.512758255004883
      ],
      [
        "集",
        -8.519754409790039
      ],
      [
        "E",
        -8.52023983001709
      ],
      [
        "任",
        -8.523457527160645
      ],
      [
        "更多",
        -8.524053573608398
      ],
      [
        "雞",
        -8.524654388427734
      ],
      [
        "意",
        -8.530257225036621
      ],
      [
        "民",
        -8.532219886779785
      ],
      [
        "唱",
        -8.532743453979492
      ],
      [
        "輸",
        -8.535880088806152
      ],
      [
        "扮",
        -8.539387702941895
      ],
      [
        "接",
        -8.539592742919922
      ],
      [
        "蚊",
        -8.539775848388672
      ],
      [
        "體",
        -8.540061950683594
      ],
      [
        "八",
        -8.540168762207031
      ],
      [
        "嘅嘢",
        -8.541475296020508
      ],
      [
        "2.",
        -8.541759490966797
      ],
      [
        "殺",
        -8.542344093322754
      ],
      [
        "嗰啲",
        -8.543209075927734
      ],
      [
        "油",
        -8.546632766723633
      ],
      [
        "睇到",
        -8.548699378967285
      ],
      [
        "喺度",
        -8.548834800720215
      ],
      [
        "1.",
        -8.55119800567627
      ],
      [
        "既人",
        -8.554767608642578
      ],
      [
        "尾",
        -8.554832458496094
      ],
      [
        "記",
        -8.556046485900879
      ],
      [
        "唔想",
        -8.556654930114746
      ],
      [
        "經",
        -8.557161331176758
      ],
      [
        "倒",
        -8.557565689086914
      ],
      [
        "歌",
        -8.55958080291748
      ],
      [
        "l",
        -8.563122749328613
      ],
      [
        "照",
        -8.563772201538086
      ],
      [
        "首",
        -8.564230918884277
      ],
      [
        "股",
        -8.5642671585083
      ],
      [
        "。「",
        -8.565390586853027
      ],
      [
        "港",
        -8.567692756652832
      ],
      [
        "or",
        -8.567795753479004
      ],
      [
        "裝",
        -8.569221496582031
      ],
      [
        "貴",
        -8.574312210083008
      ],
      [
        "炒",
        -8.574590682983398
      ],
      [
        "表示",
        -8.57616138458252
      ],
      [
        "亂",
        -8.577473640441895
      ],
      [
        "師",
        -8.577579498291016
      ],
      [
        "回",
        -8.578201293945312
      ],
      [
        "跑",
        -8.579764366149902
      ],
      [
        "假",
        -8.58065414428711
      ],
      [
        "同佢",
        -8.585281372070312
      ],
      [
        "熱",
        -8.587198257446289
      ],
      [
        "啫",
        -8.588643074035645
      ],
      [
        "格",
        -8.58942699432373
      ],
      [
        "房",
        -8.590481758117676
      ],
      [
        "佢係",
        -8.5933256149292
      ],
      [
        "樂",
        -8.594103813171387
      ],
      [
        "音",
        -8.594748497009277
      ],
      [
        "型",
        -8.595047950744629
      ],
      [
        "姐",
        -8.600409507751465
      ],
      [
        "16",
        -8.600508689880371
      ],
      [
        "非",
        -8.601391792297363
      ],
      [
        "鳩",
        -8.603179931640625
      ],
      [
        "·",
        -8.60335636138916
      ],
      [
        "靚",
        -8.603863716125488
      ],
      [
        "唔識",
        -8.605754852294922
      ],
      [
        "頂",
        -8.606931686401367
      ],
      [
        "？」",
        -8.60766315460205
      ],
      [
        "W",
        -8.612150192260742
      ],
      [
        "又係",
        -8.612628936767578
      ],
      [
        "擺",
        -8.613228797912598
      ],
      [
        "跳",
        -8.61341381072998
      ],
      [
        "射",
        -8.61435317993164
      ],
      [
        "權",
        -8.61584186553955
      ],
      [
        "我就",
        -8.618195533752441
      ],
      [
        "球",
        -8.619707107543945
      ],
      [
        "睇下",
        -8.62019157409668
      ],
      [
        "親",
        -8.620529174804688
      ],
      [
        "傾",
        -8.621720314025879
      ],
      [
        "翻",
        -8.625576972961426
      ],
      [
        "六",
        -8.62603759765625
      ],
      [
        "洗",
        -8.627202987670898
      ],
      [
        "島",
        -8.627242088317871
      ],
      [
        "支",
        -8.630114555358887
      ],
      [
        "執",
        -8.631333351135254
      ],
      [
        "沙",
        -8.633922576904297
      ],
      [
        "合",
        -8.634767532348633
      ],
      [
        "X",
        -8.636096000671387
      ],
      [
        "級",
        -8.639798164367676
      ],
      [
        "着",
        -8.639806747436523
      ],
      [
        "動",
        -8.642346382141113
      ],
      [
        "局",
        -8.645118713378906
      ],
      [
        "寶",
        -8.646172523498535
      ],
      [
        "商",
        -8.647153854370117
      ],
      [
        "!",
        -8.64741039276123
      ],
      [
        "嘅話",
        -8.647923469543457
      ],
      [
        "似",
        -8.649465560913086
      ],
      [
        "肉",
        -8.654555320739746
      ],
      [
        "味",
        -8.656517028808594
      ],
      [
        "傷",
        -8.6575927734375
      ],
      [
        "依",
        -8.659079551696777
      ],
      [
        "N",
        -8.65909194946289
      ],
      [
        "至於",
        -8.659171104431152
      ],
      [
        "魚",
        -8.65938663482666
      ],
      [
        "船",
        -8.659706115722656
      ],
      [
        "官",
        -8.660404205322266
      ],
      [
        "算",
        -8.661982536315918
      ],
      [
        "比人",
        -8.66609001159668
      ],
      [
        "鐘",
        -8.672548294067383
      ],
      [
        "救",
        -8.673189163208008
      ],
      [
        "血",
        -8.674468040466309
      ],
      [
        "3.",
        -8.674483299255371
      ],
      [
        "19",
        -8.680110931396484
      ],
      [
        "搭",
        -8.681831359863281
      ],
      [
        "ed",
        -8.68189525604248
      ],
      [
        "件",
        -8.68195629119873
      ],
      [
        "做到",
        -8.684176445007324
      ],
      [
        "組",
        -8.686348915100098
      ],
      [
        "靠",
        -8.688838958740234
      ],
      [
        "感",
        -8.692120552062988
      ],
      [
        "基",
        -8.694719314575195
      ],
      [
        "雙",
        -8.694829940795898
      ],
      [
        "種",
        -8.695343017578125
      ],
      [
        "七",
        -8.697779655456543
      ],
      [
        "為咗",
        -8.698847770690918
      ],
      [
        "係咁",
        -8.699601173400879
      ],
      [
        "14",
        -8.70040225982666
      ],
      [
        "英",
        -8.700654029846191
      ],
      [
        "量",
        -8.70103645324707
      ],
      [
        "求",
        -8.701753616333008
      ],
      [
        "App",
        -8.702356338500977
      ],
      [
        "原",
        -8.704239845275879
      ],
      [
        "都無",
        -8.706210136413574
      ],
      [
        "九",
        -8.70753288269043
      ],
      [
        "保",
        -8.710556983947754
      ],
      [
        "總",
        -8.714306831359863
      ],
      [
        "唔少",
        -8.714573860168457
      ],
      [
        "H",
        -8.71579360961914
      ],
      [
        "其",
        -8.716197967529297
      ],
      [
        "角",
        -8.716937065124512
      ],
      [
        "我係",
        -8.717260360717773
      ],
      [
        "士",
        -8.718633651733398
      ],
      [
        "亦都",
        -8.719645500183105
      ],
      [
        "應",
        -8.721709251403809
      ],
      [
        "借",
        -8.72268009185791
      ],
      [
        "V",
        -8.7232027053833
      ],
      [
        "50",
        -8.724236488342285
      ],
      [
        "黨",
        -8.726487159729004
      ],
      [
        "彈",
        -8.727923393249512
      ],
      [
        "就要",
        -8.729015350341797
      ],
      [
        "養",
        -8.72905445098877
      ],
      [
        "0",
        -8.729388236999512
      ],
      [
        "就話",
        -8.731635093688965
      ],
      [
        "答",
        -8.731928825378418
      ],
      [
        "／",
        -8.733471870422363
      ],
      [
        "盡",
        -8.735214233398438
      ],
      [
        "由於",
        -8.735560417175293
      ],
      [
        "倍",
        -8.738847732543945
      ],
      [
        "界",
        -8.741194725036621
      ],
      [
        "13",
        -8.741249084472656
      ],
      [
        "退",
        -8.741399765014648
      ],
      [
        "屬",
        -8.742537498474121
      ],
      [
        "畫",
        -8.745794296264648
      ],
      [
        "佬",
        -8.746219635009766
      ],
      [
        "深",
        -8.747119903564453
      ],
      [
        "提",
        -8.747904777526855
      ],
      [
        "多啲",
        -8.749003410339355
      ],
      [
        "周",
        -8.749654769897461
      ],
      [
        "北",
        -8.74984073638916
      ],
      [
        "員",
        -8.751154899597168
      ],
      [
        "網",
        -8.756433486938477
      ],
      [
        "啱",
        -8.757043838500977
      ],
      [
        "古",
        -8.757065773010254
      ],
      [
        "極",
        -8.764402389526367
      ],
      [
        "空",
        -8.767114639282227
      ],
      [
        "警察",
        -8.768047332763672
      ],
      [
        "州",
        -8.769526481628418
      ],
      [
        "雲",
        -8.77029800415039
      ],
      [
        "J",
        -8.773216247558594
      ],
      [
        "團",
        -8.774271011352539
      ],
      [
        "'",
        -8.774715423583984
      ],
      [
        "費",
        -8.7764892578125
      ],
      [
        "揾到",
        -8.779396057128906
      ],
      [
        "田",
        -8.782957077026367
      ],
      [
        "語",
        -8.784163475036621
      ],
      [
        "進",
        -8.784404754638672
      ],
      [
        "會唔會",
        -8.784969329833984
      ],
      [
        "輪",
        -8.78548526763916
      ],
      [
        "al",
        -8.78787899017334
      ],
      [
        "r",
        -8.788034439086914
      ],
      [
        "怕",
        -8.788872718811035
      ],
      [
        "尼",
        -8.789470672607422
      ],
      [
        "選",
        -8.790019035339355
      ],
      [
        "遠",
        -8.7926607131958
      ],
      [
        "易",
        -8.792945861816406
      ],
      [
        "千",
        -8.794516563415527
      ],
      [
        "鐵",
        -8.795063972473145
      ],
      [
        "制",
        -8.79613971710205
      ],
      [
        "25",
        -8.796170234680176
      ],
      [
        "毛",
        -8.79711627960205
      ],
      [
        "劉",
        -8.797563552856445
      ],
      [
        "17",
        -8.797712326049805
      ],
      [
        "劇",
        -8.797982215881348
      ],
      [
        "套",
        -8.798792839050293
      ],
      [
        "戴",
        -8.799341201782227
      ],
      [
        "廢",
        -8.80077838897705
      ],
      [
        "系",
        -8.801695823669434
      ],
      [
        "木",
        -8.802623748779297
      ],
      [
        "衝",
        -8.804560661315918
      ],
      [
        "）。",
        -8.805794715881348
      ],
      [
        "u",
        -8.806848526000977
      ],
      [
        "克",
        -8.809800148010254
      ],
      [
        "散",
        -8.811089515686035
      ],
      [
        "100",
        -8.811225891113281
      ],
      [
        "當年",
        -8.811788558959961
      ],
      [
        "足",
        -8.813512802124023
      ],
      [
        "粒",
        -8.815936088562012
      ],
      [
        "▁[",
        -8.81611442565918
      ],
      [
        "地區",
        -8.818218231201172
      ],
      [
        "停",
        -8.820097923278809
      ],
      [
        "手足",
        -8.820180892944336
      ],
      [
        "層",
        -8.823917388916016
      ],
      [
        "各",
        -8.825662612915039
      ],
      [
        "藥",
        -8.826148986816406
      ],
      [
        "直",
        -8.82690715789795
      ],
      [
        "失",
        -8.827465057373047
      ],
      [
        "賽",
        -8.82911491394043
      ],
      [
        "肥",
        -8.830023765563965
      ],
      [
        "堂",
        -8.832152366638184
      ],
      [
        "企",
        -8.833150863647461
      ],
      [
        "踢",
        -8.83560848236084
      ],
      [
        "衰",
        -8.83566951751709
      ],
      [
        "球員",
        -8.836145401000977
      ],
      [
        "封",
        -8.836705207824707
      ],
      [
        "乜嘢",
        -8.837404251098633
      ],
      [
        "牛",
        -8.837414741516113
      ],
      [
        "飯",
        -8.837420463562012
      ],
      [
        "U",
        -8.84168529510498
      ],
      [
        "更新",
        -8.841924667358398
      ],
      [
        "河",
        -8.842376708984375
      ],
      [
        "曾",
        -8.843278884887695
      ],
      [
        "立",
        -8.84404182434082
      ],
      [
        "樓主",
        -8.844289779663086
      ],
      [
        "估",
        -8.845479011535645
      ],
      [
        "稱",
        -8.845708847045898
      ],
      [
        "好撚",
        -8.847493171691895
      ],
      [
        "圈",
        -8.848457336425781
      ],
      [
        "滿",
        -8.848886489868164
      ],
      [
        "百",
        -8.849589347839355
      ],
      [
        "f",
        -8.850929260253906
      ],
      [
        "節",
        -8.851184844970703
      ],
      [
        "只有",
        -8.853494644165039
      ],
      [
        "怪",
        -8.858201026916504
      ],
      [
        "除",
        -8.858473777770996
      ],
      [
        "段",
        -8.85906982421875
      ],
      [
        "韋小寶",
        -8.862859725952148
      ],
      [
        "幫手",
        -8.870221138000488
      ],
      [
        "座",
        -8.870816230773926
      ],
      [
        "某",
        -8.872666358947754
      ],
      [
        "啲人",
        -8.87329387664795
      ],
      [
        "唔洗",
        -8.873376846313477
      ],
      [
        "24",
        -8.87380313873291
      ],
      [
        "都唔會",
        -8.874260902404785
      ],
      [
        "香",
        -8.87626838684082
      ],
      [
        "戲",
        -8.87917709350586
      ],
      [
        "布",
        -8.881858825683594
      ],
      [
        "人哋",
        -8.882272720336914
      ],
      [
        "刀",
        -8.882710456848145
      ],
      [
        "藍",
        -8.883020401000977
      ],
      [
        "物",
        -8.88353157043457
      ],
      [
        "de",
        -8.883851051330566
      ],
      [
        "史",
        -8.884187698364258
      ],
      [
        "屋",
        -8.884614944458008
      ],
      [
        "十",
        -8.886536598205566
      ],
      [
        "料",
        -8.8873872756958
      ],
      [
        "村",
        -8.888294219970703
      ],
      [
        "使",
        -8.890101432800293
      ],
      [
        "勝",
        -8.892998695373535
      ],
      [
        "an",
        -8.893739700317383
      ],
      [
        "業",
        -8.897724151611328
      ],
      [
        "I",
        -8.898481369018555
      ],
      [
        "離",
        -8.898630142211914
      ],
      [
        "兼",
        -8.899601936340332
      ],
      [
        "句",
        -8.901429176330566
      ],
      [
        "能",
        -8.901754379272461
      ],
      [
        "抽",
        -8.902799606323242
      ],
      [
        "威",
        -8.905633926391602
      ],
      [
        "po",
        -8.90760612487793
      ],
      [
        "酒",
        -8.907917022705078
      ],
      [
        "Q",
        -8.910602569580078
      ],
      [
        "喂",
        -8.914151191711426
      ],
      [
        "燒",
        -8.916070938110352
      ],
      [
        "衫",
        -8.916666030883789
      ],
      [
        "槍",
        -8.91910457611084
      ],
      [
        "豬",
        -8.919198036193848
      ],
      [
        "肯",
        -8.919215202331543
      ],
      [
        "夜",
        -8.919559478759766
      ],
      [
        "O",
        -8.920283317565918
      ],
      [
        "用嚟",
        -8.920733451843262
      ],
      [
        "ter",
        -8.921710014343262
      ],
      [
        "搶",
        -8.922892570495605
      ],
      [
        "友",
        -8.923446655273438
      ],
      [
        "痛",
        -8.924795150756836
      ],
      [
        "盤",
        -8.925579071044922
      ],
      [
        "步",
        -8.925883293151855
      ],
      [
        "插",
        -8.926794052124023
      ],
      [
        "拖",
        -8.928511619567871
      ],
      [
        "中共",
        -8.932777404785156
      ],
      [
        "菜",
        -8.933284759521484
      ],
      [
        "夫",
        -8.933736801147461
      ],
      [
        "副",
        -8.934134483337402
      ],
      [
        "撐",
        -8.937285423278809
      ],
      [
        "好好",
        -8.938283920288086
      ],
      [
        "鬧",
        -8.938472747802734
      ],
      [
        "粵語",
        -8.939505577087402
      ],
      [
        "se",
        -8.94045352935791
      ],
      [
        "▁S",
        -8.941343307495117
      ],
      [
        "▁A",
        -8.941932678222656
      ],
      [
        "還",
        -8.947072982788086
      ],
      [
        "－",
        -8.948699951171875
      ],
      [
        "何",
        -8.948710441589355
      ],
      [
        "紙",
        -8.949420928955078
      ],
      [
        "ne",
        -8.950325012207031
      ],
      [
        "牙",
        -8.953827857971191
      ],
      [
        "租",
        -8.954078674316406
      ],
      [
        "葉",
        -8.954131126403809
      ],
      [
        "運",
        -8.9550199508667
      ],
      [
        "補",
        -8.955187797546387
      ],
      [
        "game",
        -8.956647872924805
      ],
      [
        "票",
        -8.959890365600586
      ],
      [
        "命",
        -8.961421966552734
      ],
      [
        "陣",
        -8.966036796569824
      ],
      [
        "獲",
        -8.967059135437012
      ],
      [
        "up",
        -8.96712589263916
      ],
      [
        "21",
        -8.967169761657715
      ],
      [
        "獎",
        -8.96826457977295
      ],
      [
        "江",
        -8.969905853271484
      ],
      [
        "考",
        -8.970317840576172
      ],
      [
        "▁the",
        -8.971818923950195
      ],
      [
        "en",
        -8.973045349121094
      ],
      [
        "青",
        -8.973922729492188
      ],
      [
        "板",
        -8.974601745605469
      ],
      [
        "店",
        -8.97683048248291
      ],
      [
        "▁L",
        -8.97801399230957
      ],
      [
        "獨立",
        -8.979161262512207
      ],
      [
        "23",
        -8.980437278747559
      ],
      [
        "▁s",
        -8.980484962463379
      ],
      [
        "嗰度",
        -8.980497360229492
      ],
      [
        "一隻",
        -8.98381519317627
      ],
      [
        "查",
        -8.984010696411133
      ],
      [
        "巴打",
        -8.985980033874512
      ],
      [
        "袋",
        -8.987390518188477
      ],
      [
        "ment",
        -8.987737655639648
      ],
      [
        "嘉",
        -8.990674018859863
      ],
      [
        "類",
        -8.990864753723145
      ],
      [
        "爭",
        -8.991767883300781
      ],
      [
        "▁of",
        -8.992958068847656
      ],
      [
        "省",
        -8.9949369430542
      ],
      [
        "et",
        -8.995719909667969
      ],
      [
        "腦",
        -8.996423721313477
      ],
      [
        "～",
        -8.996949195861816
      ],
      [
        "▁呢個",
        -8.999874114990234
      ],
      [
        "又話",
        -9.000436782836914
      ],
      [
        "60",
        -9.001263618469238
      ],
      [
        "嘅事",
        -9.001579284667969
      ],
      [
        "拿",
        -9.001640319824219
      ],
      [
        "有好多",
        -9.00251579284668
      ],
      [
        "瞓",
        -9.002708435058594
      ],
      [
        "配",
        -9.004409790039062
      ],
      [
        "福",
        -9.004549026489258
      ],
      [
        "又要",
        -9.0048246383667
      ],
      [
        "鬥",
        -9.005352973937988
      ],
      [
        "圍",
        -9.005589485168457
      ],
      [
        "40",
        -9.00730037689209
      ],
      [
        "仆街",
        -9.00743579864502
      ],
      [
        "警",
        -9.009137153625488
      ],
      [
        "興",
        -9.009410858154297
      ],
      [
        "捉",
        -9.01079273223877
      ],
      [
        "𠵱家",
        -9.011004447937012
      ],
      [
        "選舉",
        -9.011052131652832
      ],
      [
        "武",
        -9.011082649230955
      ],
      [
        "減",
        -9.0133056640625
      ],
      [
        "齊",
        -9.01486873626709
      ],
      [
        "屆",
        -9.016847610473633
      ],
      [
        "調",
        -9.017498016357422
      ],
      [
        "組織",
        -9.018787384033203
      ],
      [
        "都未",
        -9.01886749267578
      ],
      [
        "我諗",
        -9.022541999816896
      ],
      [
        "室",
        -9.024920463562012
      ],
      [
        "投",
        -9.030500411987305
      ],
      [
        "短",
        -9.031248092651367
      ],
      [
        "合作",
        -9.0324125289917
      ],
      [
        "喊",
        -9.03328800201416
      ],
      [
        "斷",
        -9.033642768859863
      ],
      [
        "億",
        -9.033860206604004
      ],
      [
        "又有",
        -9.034937858581545
      ],
      [
        "爛",
        -9.034958839416504
      ],
      [
        "貼",
        -9.03513526916504
      ],
      [
        "▁咁",
        -9.038204193115234
      ],
      [
        "急",
        -9.038883209228516
      ],
      [
        "雪",
        -9.039666175842283
      ],
      [
        "ch",
        -9.039983749389648
      ],
      [
        "el",
        -9.040635108947754
      ],
      [
        "28",
        -9.04086685180664
      ],
      [
        "言",
        -9.041097640991213
      ],
      [
        "比賽",
        -9.041237831115724
      ],
      [
        "守",
        -9.045235633850098
      ],
      [
        "縣",
        -9.04806900024414
      ],
      [
        "韓國",
        -9.04828929901123
      ],
      [
        "賺",
        -9.050006866455078
      ],
      [
        "梁",
        -9.050980567932127
      ],
      [
        "形",
        -9.05245876312256
      ],
      [
        "品",
        -9.052705764770508
      ],
      [
        "▁in",
        -9.052726745605469
      ],
      [
        "夾",
        -9.05277156829834
      ],
      [
        "毒",
        -9.054187774658203
      ],
      [
        "宣傳",
        -9.054744720458984
      ],
      [
        "零",
        -9.059441566467283
      ],
      [
        "論",
        -9.059613227844238
      ],
      [
        "技術",
        -9.060497283935549
      ],
      [
        "貓",
        -9.06125545501709
      ],
      [
        "取",
        -9.06259536743164
      ],
      [
        "硬",
        -9.064224243164062
      ],
      [
        "..",
        -9.064263343811035
      ],
      [
        "w",
        -9.06525993347168
      ],
      [
        "景",
        -9.066728591918944
      ],
      [
        "校",
        -9.067635536193848
      ],
      [
        "快啲",
        -9.07007122039795
      ],
      [
        "樹",
        -9.07175350189209
      ],
      [
        "燈",
        -9.07222843170166
      ],
      [
        "你話",
        -9.073198318481444
      ],
      [
        "我唔",
        -9.075082778930664
      ],
      [
        "則",
        -9.075166702270508
      ],
      [
        "草",
        -9.07707691192627
      ],
      [
        "揸",
        -9.077208518981934
      ],
      [
        "遊",
        -9.078432083129885
      ],
      [
        "值",
        -9.07951545715332
      ],
      [
        "共",
        -9.080918312072754
      ],
      [
        "率",
        -9.081742286682127
      ],
      [
        "器",
        -9.081764221191406
      ],
      [
        "奧",
        -9.082311630249023
      ],
      [
        "楊",
        -9.082547187805176
      ],
      [
        "返嚟",
        -9.082775115966797
      ],
      [
        "添",
        -9.083979606628418
      ],
      [
        "80",
        -9.086755752563477
      ],
      [
        "管",
        -9.087319374084473
      ],
      [
        "裏",
        -9.087592124938965
      ],
      [
        "4.",
        -9.088017463684082
      ],
      [
        "蘭",
        -9.090643882751465
      ],
      [
        "較",
        -9.091764450073242
      ],
      [
        "的",
        -9.094522476196287
      ],
      [
        "銀",
        -9.094691276550291
      ],
      [
        "表",
        -9.09516716003418
      ],
      [
        "攻",
        -9.096610069274902
      ],
      [
        "精",
        -9.096968650817873
      ],
      [
        "妹",
        -9.097282409667969
      ],
      [
        "聖",
        -9.098694801330566
      ],
      [
        "既野",
        -9.099048614501951
      ],
      [
        "造",
        -9.099409103393556
      ],
      [
        "撞",
        -9.100101470947266
      ],
      [
        "吳",
        -9.100540161132812
      ],
      [
        "恩",
        -9.101930618286133
      ],
      [
        "仲係",
        -9.102168083190918
      ],
      [
        "冇人",
        -9.10566520690918
      ],
      [
        "破",
        -9.107733726501465
      ],
      [
        "醒",
        -9.10838508605957
      ],
      [
        "漢",
        -9.110710144042969
      ],
      [
        "維",
        -9.1120023727417
      ],
      [
        "奇",
        -9.114720344543455
      ],
      [
        "博",
        -9.117125511169434
      ],
      [
        "聯",
        -9.11720848083496
      ],
      [
        "切",
        -9.11739444732666
      ],
      [
        "h",
        -9.11755084991455
      ],
      [
        "成員",
        -9.12141227722168
      ],
      [
        "22",
        -9.12463092803955
      ],
      [
        "防",
        -9.12524127960205
      ],
      [
        "義",
        -9.125433921813965
      ],
      [
        "骨",
        -9.125972747802734
      ],
      [
        "以上",
        -9.126943588256836
      ],
      [
        "㗎喇",
        -9.127646446228027
      ],
      [
        "迪",
        -9.128780364990234
      ],
      [
        "粉",
        -9.130793571472168
      ],
      [
        "禮",
        -9.13132667541504
      ],
      [
        "練",
        -9.13143253326416
      ],
      [
        "餐",
        -9.131912231445312
      ],
      [
        "曲",
        -9.132176399230955
      ],
      [
        "加入",
        -9.132859230041504
      ],
      [
        "富",
        -9.133843421936035
      ],
      [
        "人類",
        -9.135497093200684
      ],
      [
        "鏡",
        -9.13571834564209
      ],
      [
        "每日",
        -9.136473655700684
      ],
      [
        "▁#",
        -9.138386726379396
      ],
      [
        "訓",
        -9.138409614562988
      ],
      [
        "你係",
        -9.138595581054688
      ],
      [
        "便",
        -9.139034271240234
      ],
      [
        "book",
        -9.139559745788574
      ],
      [
        "=",
        -9.139947891235352
      ],
      [
        "慢",
        -9.139985084533691
      ],
      [
        "冇得",
        -9.140275955200195
      ],
      [
        "而係",
        -9.141935348510742
      ],
      [
        "列",
        -9.142998695373535
      ],
      [
        "ge",
        -9.145339965820312
      ],
      [
        "動物",
        -9.146040916442873
      ],
      [
        "款",
        -9.147233963012695
      ],
      [
        "詞",
        -9.149665832519531
      ],
      [
        "26",
        -9.149734497070312
      ],
      [
        "And",
        -9.150425910949709
      ],
      [
        "又唔",
        -9.154098510742188
      ],
      [
        "順",
        -9.15504550933838
      ],
      [
        "咯",
        -9.155474662780762
      ],
      [
        "連登",
        -9.155942916870115
      ],
      [
        "最大",
        -9.156617164611816
      ],
      [
        "初",
        -9.157512664794922
      ],
      [
        "得好",
        -9.158058166503906
      ],
      [
        "志",
        -9.158927917480469
      ],
      [
        "屎",
        -9.160039901733398
      ],
      [
        "吹",
        -9.160526275634766
      ],
      [
        "佢就",
        -9.161235809326172
      ],
      [
        "Y",
        -9.16151523590088
      ],
      [
        "同你",
        -9.162827491760254
      ],
      [
        "佔",
        -9.163416862487791
      ],
      [
        "季",
        -9.163614273071287
      ],
      [
        "晚",
        -9.16528606414795
      ],
      [
        "按",
        -9.16733741760254
      ],
      [
        "▁B",
        -9.16859245300293
      ],
      [
        "印",
        -9.169872283935549
      ],
      [
        "內地",
        -9.170121192932127
      ],
      [
        "修",
        -9.171512603759766
      ],
      [
        "絕",
        -9.171880722045898
      ],
      [
        "輕",
        -9.172932624816896
      ],
      [
        "……",
        -9.175385475158691
      ],
      [
        "ok",
        -9.176209449768066
      ],
      [
        "佢喺",
        -9.180026054382324
      ],
      [
        "認",
        -9.181408882141112
      ],
      [
        "茶",
        -9.18366813659668
      ],
      [
        "蘇",
        -9.185858726501465
      ],
      [
        "com",
        -9.186031341552734
      ],
      [
        "膠",
        -9.186803817749023
      ],
      [
        "柒",
        -9.18940544128418
      ],
      [
        "嬲",
        -9.190741539001465
      ],
      [
        "筆",
        -9.19151210784912
      ],
      [
        "逼",
        -9.193008422851562
      ],
      [
        "）、",
        -9.194662094116213
      ],
      [
        "職",
        -9.19581127166748
      ],
      [
        "案",
        -9.199382781982422
      ],
      [
        "宣佈",
        -9.201802253723145
      ],
      [
        "雷",
        -9.202571868896484
      ],
      [
        "專",
        -9.203776359558104
      ],
      [
        "塞",
        -9.20752239227295
      ],
      [
        "roid",
        -9.208148956298828
      ],
      [
        "兒",
        -9.209050178527832
      ],
      [
        "夢",
        -9.209829330444336
      ],
      [
        "朗",
        -9.210579872131348
      ],
      [
        "招",
        -9.21216869354248
      ],
      [
        ",000",
        -9.212366104125977
      ],
      [
        "#",
        -9.213540077209473
      ],
      [
        "▁C",
        -9.21418571472168
      ],
      [
        "參與",
        -9.21529483795166
      ],
      [
        "版已登錄",
        -9.21689510345459
      ],
      [
        "有無",
        -9.217172622680664
      ],
      [
        "呃",
        -9.21741008758545
      ],
      [
        "27",
        -9.219470977783203
      ],
      [
        "建",
        -9.219865798950195
      ],
      [
        "踩",
        -9.223549842834473
      ],
      [
        "嘛",
        -9.224721908569336
      ],
      [
        "us",
        -9.225135803222656
      ],
      [
        "以及",
        -9.226806640625
      ],
      [
        "pro",
        -9.227095603942873
      ],
      [
        "朝",
        -9.227276802062988
      ],
      [
        "嚟講",
        -9.227916717529297
      ],
      [
        "觀",
        -9.228293418884276
      ],
      [
        "壞",
        -9.22841739654541
      ],
      [
        "泰",
        -9.232760429382324
      ],
      [
        "▁唔",
        -9.233476638793944
      ],
      [
        "院",
        -9.234416961669922
      ],
      [
        "90",
        -9.234471321105955
      ],
      [
        "湯",
        -9.236103057861328
      ],
      [
        "此",
        -9.236978530883787
      ],
      [
        "把",
        -9.238347053527832
      ],
      [
        "畀人",
        -9.238407135009766
      ],
      [
        "th",
        -9.23854923248291
      ],
      [
        "歌手",
        -9.239325523376465
      ],
      [
        "利申",
        -9.24365520477295
      ],
      [
        "熟",
        -9.243749618530272
      ],
      [
        "哦",
        -9.243804931640623
      ],
      [
        "推出",
        -9.245659828186035
      ],
      [
        "現",
        -9.245829582214355
      ],
      [
        "播",
        -9.246724128723145
      ],
      [
        "你要",
        -9.24811840057373
      ],
      [
        "只會",
        -9.248208999633787
      ],
      [
        "冷",
        -9.249587059020996
      ],
      [
        "唔得",
        -9.249761581420898
      ],
      [
        "右",
        -9.250444412231444
      ],
      [
        "就有",
        -9.250503540039062
      ],
      [
        "橋",
        -9.252086639404297
      ],
      [
        "舉行",
        -9.253704071044922
      ],
      [
        "禁",
        -9.253915786743164
      ],
      [
        "亦係",
        -9.255950927734377
      ],
      [
        "智",
        -9.255992889404297
      ],
      [
        "煙",
        -9.26062297821045
      ],
      [
        "『",
        -9.263094902038574
      ],
      [
        "公開",
        -9.2633638381958
      ],
      [
        "第三",
        -9.263598442077637
      ],
      [
        "球隊",
        -9.266136169433594
      ],
      [
        "仙",
        -9.26745319366455
      ],
      [
        "靜",
        -9.269889831542969
      ],
      [
        "200",
        -9.27160358428955
      ],
      [
        "壓",
        -9.273115158081056
      ],
      [
        "▁/",
        -9.273555755615234
      ],
      [
        "嗰時",
        -9.275477409362791
      ],
      [
        "係我",
        -9.276636123657228
      ],
      [
        "塊",
        -9.277109146118164
      ],
      [
        "70",
        -9.279134750366213
      ],
      [
        "居",
        -9.28056526184082
      ],
      [
        "谷",
        -9.280719757080078
      ],
      [
        "既話",
        -9.280736923217772
      ],
      [
        "德國",
        -9.281575202941896
      ],
      [
        "亞洲",
        -9.281634330749512
      ],
      [
        "太多",
        -9.281787872314451
      ],
      [
        "老母",
        -9.28235912322998
      ],
      [
        "果陣",
        -9.282373428344728
      ],
      [
        "政",
        -9.283021926879885
      ],
      [
        "治",
        -9.283195495605469
      ],
      [
        "設",
        -9.285734176635742
      ],
      [
        "證",
        -9.28708267211914
      ],
      [
        "奶",
        -9.289376258850098
      ],
      [
        "屈",
        -9.289634704589844
      ],
      [
        "@",
        -9.29045295715332
      ],
      [
        "成立",
        -9.29117488861084
      ],
      [
        "歸",
        -9.291607856750488
      ],
      [
        "簽",
        -9.29200267791748
      ],
      [
        "掛",
        -9.292426109313965
      ],
      [
        "結",
        -9.292925834655762
      ],
      [
        "廣州",
        -9.293354034423828
      ],
      [
        "登",
        -9.29385757446289
      ],
      [
        "吉",
        -9.294021606445312
      ],
      [
        "姐姐",
        -9.29443359375
      ],
      [
        "係有",
        -9.29612922668457
      ],
      [
        "2021",
        -9.296648979187012
      ],
      [
        "糖",
        -9.298209190368652
      ],
      [
        "常",
        -9.29898738861084
      ],
      [
        "幫佢",
        -9.299636840820312
      ],
      [
        "詩",
        -9.299724578857422
      ],
      [
        "亂噏",
        -9.299883842468262
      ],
      [
        "醫",
        -9.301513671875
      ],
      [
        "偉",
        -9.301535606384276
      ],
      [
        "必",
        -9.303890228271484
      ],
      [
        "宗",
        -9.303956985473633
      ],
      [
        "誒",
        -9.304163932800291
      ],
      [
        "兄弟",
        -9.305262565612791
      ],
      [
        "▁1",
        -9.305316925048828
      ],
      [
        "同我",
        -9.307230949401855
      ],
      [
        "▁c",
        -9.307390213012695
      ],
      [
        "麥",
        -9.307868003845217
      ],
      [
        "▁2",
        -9.307873725891112
      ],
      [
        "程",
        -9.308194160461426
      ],
      [
        "比你",
        -9.308975219726562
      ],
      [
        "盛",
        -9.309600830078123
      ],
      [
        "to",
        -9.311577796936035
      ],
      [
        "中央",
        -9.313034057617188
      ],
      [
        "每次",
        -9.314199447631836
      ],
      [
        "嗌",
        -9.316811561584473
      ],
      [
        "絲",
        -9.319183349609377
      ],
      [
        "哈",
        -9.31922721862793
      ],
      [
        "惡",
        -9.320847511291504
      ],
      [
        "人都",
        -9.321371078491213
      ],
      [
        "▁a",
        -9.322327613830566
      ],
      [
        "功能",
        -9.323257446289062
      ],
      [
        "素",
        -9.324779510498049
      ],
      [
        "最終",
        -9.324970245361328
      ],
      [
        "康",
        -9.325040817260742
      ],
      [
        "思",
        -9.325650215148926
      ],
      [
        "錫",
        -9.32577896118164
      ],
      [
        "無綫",
        -9.325966835021973
      ],
      [
        "鬱",
        -9.326400756835938
      ],
      [
        "ig",
        -9.327765464782717
      ],
      [
        "迷",
        -9.328290939331056
      ],
      [
        "北京",
        -9.328438758850098
      ],
      [
        "好有",
        -9.3285493850708
      ],
      [
        "都話",
        -9.328821182250977
      ],
      [
        "族",
        -9.330316543579102
      ],
      [
        "支那",
        -9.331082344055176
      ],
      [
        "ro",
        -9.331390380859377
      ],
      [
        "罪",
        -9.331883430480955
      ],
      [
        "la",
        -9.333869934082031
      ],
      [
        "真心",
        -9.335238456726074
      ],
      [
        "手機",
        -9.336469650268556
      ],
      [
        "集團",
        -9.337579727172852
      ],
      [
        "▁冇",
        -9.337937355041504
      ],
      [
        "係咩",
        -9.339554786682127
      ],
      [
        "屌你老母",
        -9.340487480163574
      ],
      [
        "99",
        -9.342392921447754
      ],
      [
        "春",
        -9.342403411865234
      ],
      [
        "乾",
        -9.34247589111328
      ],
      [
        "人嘅",
        -9.342529296875
      ],
      [
        "靈",
        -9.343013763427734
      ],
      [
        "ex",
        -9.343098640441896
      ],
      [
        "前線",
        -9.343417167663574
      ],
      [
        "視",
        -9.343759536743164
      ],
      [
        "杯",
        -9.344493865966797
      ],
      [
        "愈",
        -9.34500217437744
      ],
      [
        "伊",
        -9.345257759094238
      ],
      [
        "現場",
        -9.3470458984375
      ],
      [
        "iOS",
        -9.34792709350586
      ],
      [
        "▁to",
        -9.348550796508787
      ],
      [
        "甲",
        -9.34887981414795
      ],
      [
        "背",
        -9.349579811096191
      ],
      [
        "抗爭",
        -9.350706100463867
      ],
      [
        "立即",
        -9.350838661193848
      ],
      [
        "老闆",
        -9.351400375366213
      ],
      [
        "盃",
        -9.351978302001951
      ],
      [
        "除左",
        -9.35220432281494
      ],
      [
        "獨",
        -9.352486610412598
      ],
      [
        "勢",
        -9.355575561523438
      ],
      [
        "但我",
        -9.355594635009766
      ],
      [
        "件事",
        -9.356078147888184
      ],
      [
        "俾你",
        -9.356563568115234
      ],
      [
        "》（",
        -9.357155799865724
      ],
      [
        "目",
        -9.35731029510498
      ],
      [
        "做咗",
        -9.357929229736328
      ],
      [
        "ic",
        -9.358161926269531
      ],
      [
        "24》",
        -9.359015464782717
      ],
      [
        "29",
        -9.359265327453612
      ],
      [
        "嘈",
        -9.359450340270996
      ],
      [
        "亦有",
        -9.359797477722168
      ],
      [
        "衣",
        -9.360072135925291
      ],
      [
        "迫",
        -9.360706329345703
      ],
      [
        "鄭",
        -9.3610258102417
      ],
      [
        "園",
        -9.36257266998291
      ],
      [
        "v",
        -9.363653182983398
      ],
      [
        "』",
        -9.364975929260254
      ],
      [
        "足球",
        -9.365503311157228
      ],
      [
        "母",
        -9.365889549255373
      ],
      [
        "俾佢",
        -9.367551803588867
      ],
      [
        "質",
        -9.368467330932615
      ],
      [
        "章",
        -9.370373725891112
      ],
      [
        "睇嚇",
        -9.370739936828612
      ],
      [
        "網頁",
        -9.370779037475586
      ],
      [
        "遊行",
        -9.37126350402832
      ],
      [
        "批",
        -9.371297836303713
      ],
      [
        "若",
        -9.371514320373535
      ],
      [
        "係指",
        -9.371790885925291
      ],
      [
        "無人",
        -9.374059677124023
      ],
      [
        "嘩",
        -9.37550163269043
      ],
      [
        "理解",
        -9.37550449371338
      ],
      [
        "拆",
        -9.375680923461914
      ],
      [
        "檔",
        -9.37709903717041
      ],
      [
        "時期",
        -9.378137588500977
      ],
      [
        "黑警",
        -9.379234313964844
      ],
      [
        "有幾",
        -9.380131721496582
      ],
      [
        "然",
        -9.382075309753418
      ],
      [
        "苦",
        -9.383724212646484
      ],
      [
        "唉",
        -9.383907318115234
      ],
      [
        "資源",
        -9.384075164794922
      ],
      [
        "斬",
        -9.384211540222168
      ],
      [
        "就得",
        -9.384894371032717
      ],
      [
        "產品",
        -9.385076522827148
      ],
      [
        "告",
        -9.38577938079834
      ],
      [
        "蛋",
        -9.385836601257324
      ],
      [
        "冠軍",
        -9.385991096496582
      ],
      [
        "讓",
        -9.386056900024414
      ],
      [
        "就唔",
        -9.388219833374023
      ],
      [
        "睇完",
        -9.388519287109377
      ],
      [
        "永",
        -9.388801574707031
      ],
      [
        "預",
        -9.388860702514648
      ],
      [
        "麗",
        -9.38988208770752
      ],
      [
        "鋪",
        -9.390869140625
      ],
      [
        "全球",
        -9.392083168029783
      ],
      [
        "據",
        -9.392817497253418
      ],
      [
        "灣",
        -9.39311695098877
      ],
      [
        "唐",
        -9.393832206726074
      ],
      [
        "以下",
        -9.394020080566406
      ],
      [
        "祖",
        -9.394850730895996
      ],
      [
        "舉",
        -9.396279335021973
      ],
      [
        "服",
        -9.396280288696287
      ],
      [
        "你唔",
        -9.396550178527832
      ],
      [
        "port",
        -9.396954536437988
      ],
      [
        "都幾",
        -9.397176742553713
      ],
      [
        "委員會",
        -9.397366523742676
      ],
      [
        "對手",
        -9.397859573364258
      ],
      [
        "人物",
        -9.398773193359377
      ],
      [
        "微",
        -9.39879035949707
      ],
      [
        "幫你",
        -9.399978637695312
      ],
      [
        "世紀",
        -9.400035858154297
      ],
      [
        "st",
        -9.40220832824707
      ],
      [
        "根",
        -9.402287483215332
      ],
      [
        "豪",
        -9.402450561523438
      ],
      [
        "廠",
        -9.402752876281738
      ],
      [
        "好啦",
        -9.404479026794434
      ],
      [
        "塔",
        -9.405117988586426
      ],
      [
        "功",
        -9.405143737792969
      ],
      [
        "孫",
        -9.405531883239746
      ],
      [
        "演",
        -9.406051635742188
      ],
      [
        "2019",
        -9.406758308410645
      ],
      [
        "叫我",
        -9.40724754333496
      ],
      [
        "man",
        -9.40759563446045
      ],
      [
        "唔敢",
        -9.408278465270996
      ],
      [
        "標",
        -9.408645629882812
      ],
      [
        "雅",
        -9.408729553222656
      ],
      [
        "速",
        -9.4094877243042
      ],
      [
        "舞",
        -9.410700798034668
      ],
      [
        "咁講",
        -9.410806655883787
      ],
      [
        "煮",
        -9.41132926940918
      ],
      [
        "比佢",
        -9.412155151367188
      ],
      [
        "各位",
        -9.41323947906494
      ],
      [
        "莊",
        -9.416784286499023
      ],
      [
        "立即下載",
        -9.417104721069336
      ],
      [
        "慘",
        -9.419252395629885
      ],
      [
        "彩",
        -9.41963005065918
      ],
      [
        "魔",
        -9.421271324157717
      ],
      [
        "am",
        -9.42210865020752
      ],
      [
        "純",
        -9.4227294921875
      ],
      [
        "nd",
        -9.423504829406738
      ],
      [
        "雨",
        -9.423521041870115
      ],
      [
        "鎮",
        -9.424053192138672
      ],
      [
        "it",
        -9.424734115600586
      ],
      [
        "宮",
        -9.425091743469238
      ],
      [
        "陰",
        -9.427602767944336
      ],
      [
        "網上",
        -9.4276123046875
      ],
      [
        "工程",
        -9.427955627441406
      ],
      [
        "es",
        -9.428301811218262
      ],
      [
        "施",
        -9.429423332214355
      ],
      [
        "狂",
        -9.42975616455078
      ],
      [
        "廣",
        -9.429784774780272
      ],
      [
        "con",
        -9.430709838867188
      ],
      [
        "500",
        -9.4316987991333
      ],
      [
        "趕",
        -9.431770324707031
      ],
      [
        "係好",
        -9.431962013244627
      ],
      [
        "話佢",
        -9.432077407836914
      ],
      [
        "j",
        -9.432642936706545
      ],
      [
        "該",
        -9.432794570922852
      ],
      [
        "有得",
        -9.433317184448242
      ],
      [
        "。」「",
        -9.433571815490724
      ],
      [
        "圓",
        -9.434527397155762
      ],
      [
        "普",
        -9.435258865356444
      ],
      [
        "巖",
        -9.43603229522705
      ],
      [
        "FB",
        -9.436393737792969
      ],
      [
        "可唔",
        -9.436633110046388
      ],
      [
        "都唔知",
        -9.436654090881348
      ],
      [
        "家庭",
        -9.436796188354492
      ],
      [
        "丁",
        -9.43795394897461
      ],
      [
        "架啦",
        -9.43798542022705
      ],
      [
        "5.",
        -9.438847541809082
      ],
      [
        "個陣",
        -9.439497947692873
      ],
      [
        "温",
        -9.440080642700195
      ],
      [
        "偷",
        -9.440418243408203
      ],
      [
        "呢隻",
        -9.44101333618164
      ],
      [
        "夏",
        -9.441163063049316
      ],
      [
        "」、「",
        -9.44179916381836
      ],
      [
        "暗",
        -9.442442893981934
      ],
      [
        "伯",
        -9.442548751831056
      ],
      [
        "秒",
        -9.442619323730469
      ],
      [
        "濕",
        -9.442684173583984
      ],
      [
        "裏便",
        -9.444616317749023
      ],
      [
        "你個",
        -9.444665908813477
      ],
      [
        "at",
        -9.444923400878906
      ],
      [
        "土",
        -9.444926261901855
      ],
      [
        "做嘢",
        -9.445369720458984
      ],
      [
        "專頁",
        -9.44607162475586
      ],
      [
        "部分",
        -9.446699142456056
      ],
      [
        "大量",
        -9.447035789489746
      ],
      [
        "—",
        -9.448352813720703
      ],
      [
        "通過",
        -9.45041847229004
      ],
      [
        "咋",
        -9.450550079345703
      ],
      [
        "好想",
        -9.450773239135742
      ],
      [
        "冰",
        -9.451923370361328
      ],
      [
        "穿",
        -9.451939582824709
      ],
      [
        "但佢",
        -9.45226764678955
      ],
      [
        "作品",
        -9.453083992004396
      ],
      [
        "嘴",
        -9.454598426818848
      ],
      [
        "叫佢",
        -9.455307006835938
      ],
      [
        "免費試睇",
        -9.4568510055542
      ],
      [
        "主動",
        -9.45761013031006
      ],
      [
        "健",
        -9.459299087524414
      ],
      [
        "政策",
        -9.461398124694824
      ],
      [
        "仁",
        -9.461784362792969
      ],
      [
        "ice",
        -9.461853981018066
      ],
      [
        "寧",
        -9.463157653808594
      ],
      [
        "活",
        -9.463319778442385
      ],
      [
        "age",
        -9.46334171295166
      ],
      [
        "Z",
        -9.465095520019531
      ],
      [
        "交通",
        -9.46550178527832
      ],
      [
        "善",
        -9.466426849365234
      ],
      [
        "呢位",
        -9.467662811279297
      ],
      [
        "抵",
        -9.468391418457031
      ],
      [
        "父母",
        -9.468685150146484
      ],
      [
        "勇武",
        -9.468871116638184
      ],
      [
        "良",
        -9.4693603515625
      ],
      [
        "▁and",
        -9.469419479370115
      ],
      [
        "員工",
        -9.47061538696289
      ],
      [
        "儲",
        -9.471694946289062
      ],
      [
        "洋",
        -9.471776962280272
      ],
      [
        "密",
        -9.471783638000488
      ],
      [
        "去咗",
        -9.472383499145508
      ],
      [
        "加埋",
        -9.472404479980469
      ],
      [
        "皇帝",
        -9.472705841064451
      ],
      [
        "產",
        -9.473660469055176
      ],
      [
        "凍",
        -9.474247932434082
      ],
      [
        "息",
        -9.47459602355957
      ],
      [
        "劍",
        -9.47474479675293
      ],
      [
        "異",
        -9.476031303405762
      ],
      [
        "弱",
        -9.477758407592772
      ],
      [
        "un",
        -9.478086471557615
      ],
      [
        "納",
        -9.47837257385254
      ],
      [
        "條女",
        -9.47890853881836
      ],
      [
        "攝影",
        -9.47912883758545
      ],
      [
        "置",
        -9.480077743530272
      ],
      [
        "閪",
        -9.480695724487305
      ],
      [
        "part",
        -9.48176383972168
      ],
      [
        "係佢",
        -9.482048034667969
      ],
      [
        "me",
        -9.482401847839355
      ],
      [
        "革命",
        -9.482603073120115
      ],
      [
        "陽",
        -9.483238220214844
      ],
      [
        "平均",
        -9.483402252197266
      ],
      [
        "榮",
        -9.484485626220703
      ],
      [
        "社",
        -9.485172271728516
      ],
      [
        "館",
        -9.485210418701172
      ],
      [
        "▁T",
        -9.485997200012209
      ],
      [
        "免費",
        -9.486148834228516
      ],
      [
        "嫁",
        -9.486360549926758
      ],
      [
        "引",
        -9.487371444702148
      ],
      [
        "攻擊",
        -9.487489700317385
      ],
      [
        "咁大",
        -9.487646102905272
      ],
      [
        "供",
        -9.48802375793457
      ],
      [
        "許",
        -9.488603591918944
      ],
      [
        "朱",
        -9.48873233795166
      ],
      [
        "沖",
        -9.489051818847656
      ],
      [
        "個月",
        -9.48996925354004
      ],
      [
        "縮",
        -9.490062713623049
      ],
      [
        "去做",
        -9.490288734436035
      ],
      [
        "有限",
        -9.491116523742676
      ],
      [
        "羣",
        -9.491561889648438
      ],
      [
        "嚟到",
        -9.491781234741213
      ],
      [
        "今",
        -9.49236011505127
      ],
      [
        "艾",
        -9.495308876037598
      ],
      [
        "做乜",
        -9.495319366455078
      ],
      [
        "針",
        -9.496298789978027
      ],
      [
        "露",
        -9.49648094177246
      ],
      [
        "核",
        -9.498919486999512
      ],
      [
        "砌",
        -9.499459266662598
      ],
      [
        "領",
        -9.499465942382812
      ],
      [
        "至少",
        -9.499486923217772
      ],
      [
        "串",
        -9.499813079833984
      ],
      [
        "君",
        -9.500078201293944
      ],
      [
        "係要",
        -9.500975608825684
      ],
      [
        "煩",
        -9.501134872436523
      ],
      [
        "營",
        -9.50132656097412
      ],
      [
        "動作",
        -9.501556396484377
      ],
      [
        "佢哋嘅",
        -9.501919746398926
      ],
      [
        "倫",
        -9.502248764038086
      ],
      [
        "私",
        -9.502586364746094
      ],
      [
        "你都",
        -9.502735137939451
      ],
      [
        "曹操",
        -9.504283905029297
      ],
      [
        ">",
        -9.5054292678833
      ],
      [
        "枱",
        -9.506418228149414
      ],
      [
        "財",
        -9.506784439086914
      ],
      [
        "問佢",
        -9.50761890411377
      ],
      [
        "搬",
        -9.507862091064451
      ],
      [
        "淨",
        -9.508240699768066
      ],
      [
        "早前",
        -9.509130477905272
      ],
      [
        "31",
        -9.509564399719238
      ],
      [
        "傻",
        -9.510342597961426
      ],
      [
        "畀佢",
        -9.510440826416016
      ],
      [
        "旗",
        -9.511751174926758
      ],
      [
        "呢件事",
        -9.511859893798828
      ],
      [
        "甩",
        -9.511959075927734
      ],
      [
        "倉",
        -9.512020111083984
      ],
      [
        "z",
        -9.513121604919434
      ],
      [
        "出世",
        -9.514583587646484
      ],
      [
        "源",
        -9.515582084655762
      ],
      [
        "仲未",
        -9.516236305236816
      ],
      [
        "技",
        -9.516340255737305
      ],
      [
        "創",
        -9.517378807067873
      ],
      [
        "震",
        -9.519041061401367
      ],
      [
        "▁又",
        -9.52088737487793
      ],
      [
        "ent",
        -9.521360397338867
      ],
      [
        "綠",
        -9.522221565246582
      ],
      [
        "掂",
        -9.522769927978516
      ],
      [
        "索",
        -9.526745796203612
      ],
      [
        "㗎啦",
        -9.527719497680664
      ],
      [
        "鞋",
        -9.529666900634766
      ],
      [
        "主持",
        -9.531220436096191
      ],
      [
        "嗮",
        -9.53151798248291
      ],
      [
        "軟",
        -9.531916618347168
      ],
      [
        "警方",
        -9.532301902770996
      ],
      [
        "摸",
        -9.532504081726074
      ],
      [
        "身上",
        -9.532647132873535
      ],
      [
        "牆",
        -9.532649993896484
      ],
      [
        "叔",
        -9.533146858215332
      ],
      [
        "佢個",
        -9.533576965332031
      ],
      [
        "碼",
        -9.534046173095703
      ],
      [
        "印度",
        -9.534293174743652
      ],
      [
        "heck",
        -9.53459930419922
      ],
      [
        "簡",
        -9.534812927246094
      ],
      [
        "偏",
        -9.535774230957031
      ],
      [
        "包師傅",
        -9.536775588989258
      ],
      [
        "淡",
        -9.53798770904541
      ],
      [
        "故",
        -9.538444519042969
      ],
      [
        "▁P",
        -9.539788246154783
      ],
      [
        "app",
        -9.540014266967772
      ],
      [
        "2000",
        -9.54090976715088
      ],
      [
        "粵拼",
        -9.540985107421877
      ],
      [
        "當地",
        -9.541016578674316
      ],
      [
        "又叫",
        -9.542108535766602
      ],
      [
        "死咗",
        -9.54239273071289
      ],
      [
        "ion",
        -9.54241943359375
      ],
      [
        "傑",
        -9.542535781860352
      ],
      [
        "▁D",
        -9.542716026306152
      ],
      [
        "覺",
        -9.543638229370115
      ],
      [
        "ie",
        -9.544366836547852
      ],
      [
        "胡",
        -9.545618057250977
      ],
      [
        "希",
        -9.546354293823242
      ],
      [
        "臨",
        -9.546993255615234
      ],
      [
        "讚",
        -9.54779052734375
      ],
      [
        "探",
        -9.548032760620115
      ],
      [
        "才",
        -9.551139831542969
      ],
      [
        "和理非",
        -9.551349639892578
      ],
      [
        "深度報道",
        -9.552746772766112
      ],
      [
        "BB",
        -9.55292510986328
      ],
      [
        "深入社區",
        -9.553597450256348
      ],
      [
        "皇",
        -9.555173873901367
      ],
      [
        "踢爆權貴",
        -9.555268287658691
      ],
      [
        "小時",
        -9.556032180786133
      ],
      [
        "甘",
        -9.556344032287598
      ],
      [
        "長期",
        -9.556537628173828
      ],
      [
        "碟",
        -9.55665397644043
      ],
      [
        "賭",
        -9.557110786437988
      ],
      [
        "過咗",
        -9.560552597045898
      ],
      [
        "現時",
        -9.56114673614502
      ],
      [
        "害",
        -9.561471939086914
      ],
      [
        "隔",
        -9.563203811645508
      ],
      [
        "so",
        -9.563226699829102
      ],
      [
        "啲嘢",
        -9.56386661529541
      ],
      [
        "系列",
        -9.564077377319336
      ],
      [
        "市鎮",
        -9.56503963470459
      ],
      [
        "ar",
        -9.566707611083984
      ],
      [
        "覆",
        -9.56823444366455
      ],
      [
        "~",
        -9.568918228149414
      ],
      [
        "製",
        -9.569025993347168
      ],
      [
        "as",
        -9.56914234161377
      ],
      [
        "line",
        -9.569180488586426
      ],
      [
        "仲話",
        -9.57092571258545
      ],
      [
        "牀",
        -9.571499824523926
      ],
      [
        "韓",
        -9.572186470031738
      ],
      [
        "你就",
        -9.572676658630373
      ],
      [
        "負",
        -9.572772026062012
      ],
      [
        "球迷",
        -9.5742769241333
      ],
      [
        "35",
        -9.575142860412598
      ],
      [
        "九龍",
        -9.575286865234377
      ],
      [
        "▁G",
        -9.575818061828612
      ],
      [
        "臭",
        -9.576226234436035
      ],
      [
        "呢個係",
        -9.576595306396484
      ],
      [
        "杜",
        -9.577561378479004
      ],
      [
        "餘",
        -9.578489303588867
      ],
      [
        "一場",
        -9.57873249053955
      ],
      [
        "舖",
        -9.579405784606934
      ],
      [
        "lo",
        -9.579545021057127
      ],
      [
        "玉",
        -9.579761505126951
      ],
      [
        "咗個",
        -9.58018684387207
      ],
      [
        "幫我",
        -9.58210563659668
      ],
      [
        "身份",
        -9.582283020019531
      ],
      [
        "總統",
        -9.582402229309082
      ],
      [
        "表演",
        -9.583702087402344
      ],
      [
        "商場",
        -9.585260391235352
      ],
      [
        "na",
        -9.58553409576416
      ],
      [
        "訓練",
        -9.586044311523438
      ],
      [
        "準",
        -9.586681365966797
      ],
      [
        "都知",
        -9.586692810058594
      ],
      [
        "頓",
        -9.586874961853027
      ],
      [
        "2017",
        -9.587055206298828
      ],
      [
        "咗佢",
        -9.587610244750977
      ],
      [
        "剪",
        -9.587727546691896
      ],
      [
        "乜都",
        -9.588427543640137
      ],
      [
        "食物",
        -9.588674545288086
      ],
      [
        "Like",
        -9.589617729187012
      ],
      [
        "留言",
        -9.590336799621582
      ],
      [
        "玩家",
        -9.5908842086792
      ],
      [
        "先係",
        -9.590902328491213
      ],
      [
        "咁就",
        -9.59090805053711
      ],
      [
        "因此",
        -9.591082572937012
      ],
      [
        "ight",
        -9.594483375549316
      ],
      [
        "遲",
        -9.59489631652832
      ],
      [
        "fans",
        -9.595243453979492
      ],
      [
        "耳",
        -9.59570026397705
      ],
      [
        "set",
        -9.595888137817385
      ],
      [
        "係你",
        -9.595928192138672
      ],
      [
        "黎講",
        -9.597485542297363
      ],
      [
        "足球員",
        -9.597870826721191
      ],
      [
        "萬元",
        -9.598343849182127
      ],
      [
        "佢同",
        -9.59856128692627
      ],
      [
        "建築",
        -9.599087715148926
      ],
      [
        "風險",
        -9.59952163696289
      ],
      [
        "唔明",
        -9.600045204162598
      ],
      [
        "又好",
        -9.602023124694824
      ],
      [
        "俾我",
        -9.60204029083252
      ],
      [
        "容",
        -9.602604866027832
      ],
      [
        "莫",
        -9.602869033813477
      ],
      [
        "IHKG",
        -9.603321075439451
      ],
      [
        "叫人",
        -9.603713035583496
      ],
      [
        "係個",
        -9.604090690612791
      ],
      [
        "2020",
        -9.604820251464844
      ],
      [
        "税",
        -9.605085372924805
      ],
      [
        "調查",
        -9.606732368469238
      ],
      [
        "可惜",
        -9.606985092163086
      ],
      [
        "篇",
        -9.607211112976074
      ],
      [
        "酸",
        -9.60865306854248
      ],
      [
        "大把",
        -9.608720779418944
      ],
      [
        "鄉",
        -9.608757972717283
      ],
      [
        "對住",
        -9.609098434448242
      ],
      [
        "唔撚",
        -9.609950065612791
      ],
      [
        "▁M",
        -9.61037540435791
      ],
      [
        "keep",
        -9.610796928405762
      ],
      [
        "日前",
        -9.611753463745115
      ],
      [
        "目前",
        -9.61188793182373
      ],
      [
        "導演",
        -9.611968040466309
      ],
      [
        "_",
        -9.614293098449709
      ],
      [
        "出咗",
        -9.614341735839844
      ],
      [
        "有乜",
        -9.614494323730469
      ],
      [
        "▁F",
        -9.614866256713867
      ],
      [
        "立場",
        -9.61490535736084
      ],
      [
        "2018",
        -9.61573314666748
      ],
      [
        "咗好多",
        -9.616344451904297
      ],
      [
        "環",
        -9.616628646850586
      ],
      [
        "蟲",
        -9.617189407348633
      ],
      [
        "咩事",
        -9.617620468139648
      ],
      [
        "mon",
        -9.618249893188477
      ],
      [
        "佢又",
        -9.618841171264648
      ],
      [
        "虎",
        -9.61948299407959
      ],
      [
        "吸",
        -9.621350288391112
      ],
      [
        "忍",
        -9.622200965881348
      ],
      [
        "隨",
        -9.622620582580566
      ],
      [
        "共產黨",
        -9.62290382385254
      ],
      [
        "咁做",
        -9.623384475708008
      ],
      [
        "係由",
        -9.623799324035645
      ],
      [
        "潮",
        -9.625215530395508
      ],
      [
        "耐",
        -9.62713623046875
      ],
      [
        "擊",
        -9.628255844116213
      ],
      [
        "拜",
        -9.628317832946776
      ],
      [
        "攞到",
        -9.629047393798828
      ],
      [
        "組合",
        -9.629159927368164
      ],
      [
        "謝",
        -9.629292488098145
      ],
      [
        "相關",
        -9.630223274230955
      ],
      [
        "2016",
        -9.631468772888184
      ],
      [
        "係度",
        -9.63161849975586
      ],
      [
        "囖",
        -9.631675720214844
      ],
      [
        "雄",
        -9.631832122802734
      ],
      [
        "錄",
        -9.632024765014648
      ],
      [
        "扣",
        -9.633122444152832
      ],
      [
        "梅",
        -9.63324737548828
      ],
      [
        "眾",
        -9.63507080078125
      ],
      [
        "▁3",
        -9.63568115234375
      ],
      [
        "臣",
        -9.635815620422363
      ],
      [
        "裏面",
        -9.636150360107422
      ],
      [
        "公佈",
        -9.63684368133545
      ],
      [
        "陪",
        -9.638176918029783
      ],
      [
        "資",
        -9.638494491577148
      ],
      [
        "敢",
        -9.63896369934082
      ],
      [
        "嗱",
        -9.639581680297852
      ],
      [
        "文宣",
        -9.640351295471191
      ],
      [
        "no",
        -9.640897750854492
      ],
      [
        "別",
        -9.641498565673828
      ],
      [
        "保持",
        -9.642050743103027
      ],
      [
        "盒",
        -9.64206314086914
      ],
      [
        "元朗",
        -9.642319679260254
      ],
      [
        "廣東",
        -9.64240264892578
      ],
      [
        "噃",
        -9.642918586730955
      ],
      [
        "勇",
        -9.643511772155762
      ],
      [
        "做得",
        -9.643549919128418
      ],
      [
        "教練",
        -9.643598556518556
      ],
      [
        "特首",
        -9.645381927490234
      ],
      [
        "過嚟",
        -9.645607948303224
      ],
      [
        "儀",
        -9.645691871643066
      ],
      [
        "ube",
        -9.645711898803713
      ],
      [
        "湖",
        -9.645955085754396
      ],
      [
        "自動",
        -9.646407127380373
      ],
      [
        "佛",
        -9.646410942077637
      ],
      [
        "你想",
        -9.648014068603516
      ],
      [
        "喜",
        -9.648789405822754
      ],
      [
        "標準",
        -9.64882755279541
      ],
      [
        "咬",
        -9.649492263793944
      ],
      [
        "盧",
        -9.650405883789062
      ],
      [
        "呢間",
        -9.651742935180664
      ],
      [
        "大部分",
        -9.652154922485352
      ],
      [
        "上海",
        -9.652410507202148
      ],
      [
        "聯賽",
        -9.653143882751465
      ],
      [
        "300",
        -9.653416633605955
      ],
      [
        "▁=",
        -9.654048919677734
      ],
      [
        "復",
        -9.654539108276367
      ],
      [
        "阻",
        -9.655420303344728
      ],
      [
        "走去",
        -9.655985832214355
      ],
      [
        "依個",
        -9.656249046325684
      ],
      [
        "就冇",
        -9.65979290008545
      ],
      [
        "媽",
        -9.660078048706056
      ],
      [
        "先啦",
        -9.66086769104004
      ],
      [
        "佢都",
        -9.662456512451172
      ],
      [
        "説話",
        -9.663066864013672
      ],
      [
        "▁d",
        -9.66334056854248
      ],
      [
        "唔駛",
        -9.663723945617676
      ],
      [
        "魯",
        -9.663826942443848
      ],
      [
        "到佢",
        -9.66517162322998
      ],
      [
        "打機",
        -9.66692352294922
      ],
      [
        "6.",
        -9.667054176330566
      ],
      [
        "避",
        -9.667171478271484
      ],
      [
        "沉",
        -9.66746425628662
      ],
      [
        "例",
        -9.66829776763916
      ],
      [
        "落嚟",
        -9.66891384124756
      ],
      [
        "川",
        -9.669142723083496
      ],
      [
        "▁呢度",
        -9.669495582580566
      ],
      [
        "氏",
        -9.669715881347656
      ],
      [
        "俄羅斯",
        -9.670251846313477
      ],
      [
        "上嘅",
        -9.670369148254396
      ],
      [
        "談",
        -9.673382759094238
      ],
      [
        "ta",
        -9.673460006713867
      ],
      [
        "我好",
        -9.675105094909668
      ],
      [
        "曼",
        -9.675286293029783
      ],
      [
        "托",
        -9.675352096557615
      ],
      [
        "打算",
        -9.675958633422852
      ],
      [
        "啲咩",
        -9.676504135131836
      ],
      [
        "話要",
        -9.67673397064209
      ],
      [
        "co",
        -9.67738914489746
      ],
      [
        "冇咩",
        -9.678003311157228
      ],
      [
        "加拿大",
        -9.678049087524414
      ],
      [
        "煲",
        -9.678266525268556
      ],
      [
        "戰爭",
        -9.678847312927246
      ],
      [
[...]
