<pad>	0
<unk>	0
[CLS]	0
[SEP]	0
[MASK]	0
即係	0
唔係	0
跟住	0
但係	0
之後	0
一個	0
同埋	0
覺得	0
可以	0
其實	0
而家	0
中間	0
真係	0
因為	0
如果	0
下面	0
係咪	0
自己	0
咁樣	0
噉樣	0
應該	0
好似	0
上面	0
可能	0
開始	0
經過	0
或者	0
時候	0
唔好	0
所以	0
少少	0
譬如	0
已經	0
落去	0
然後	0
點解	0
沙漠	0
不過	0
穿過	0
問題	0
兩個	0
個人	0
終點	0
上去	0
哩個	0
點樣	0
有個	0
唔到	0
大家	0
邊個	0
一定	0
一路	0
成日	0
政府	0
香港	0
公司	0
茅屋	0
知道	0
過去	0
唔使	0
叫做	0
頭先	0
右邊	0
一直	0
一樣	0
方向	0
第一	0
鍾意	0
左邊	0
繼續	0
地方	0
地圖	0
時間	0
邊度	0
唔見	0
馬戲	0
兜過	0
個位	0
比較	0
冇乜	0
點鐘	0
朋友	0
交叉	0
出嚟	0
返去	0
開心	0
都會	0
需要	0
泳池	0
右面	0
左面	0
位置	0
幾多	0
機場	0
之間	0
啱啱	0
梗係	0
公園	0
隔離	0
屋企	0
葡萄	0
淨係	0
迷宮	0
車站	0
以前	0
係噉	0
差唔多	0
諗住	0
魚排	0
科技	0
另外	0
會見	0
條線	0
唔同	0
起點	0
希望	0
其他	0
滑雪	0
今日	0
等等	0
明白	0
定係	0
電話	0
根本	0
冇錯	0
原來	0
大概	0
工廠	0
同學	0
有時	0
之前	0
意思	0
仲有	0
感覺	0
一齊	0
大樹	0
本身	0
方面	0
扮汗	0
今次	0
不如	0
球場	0
多謝	0
社會	0
幾好	0
貧大宅	0
即刻	0
北方	0
金字塔	0
風車	0
礦場	0
當然	0
碼頭	0
先至	0
女仔	0
究竟	0
總之	0
情況	0
完全	0
瀑布	0
農莊	0
墳場	0
辛苦	0
出來	0
樹林	0
禮堂	0
你講	0
燈塔	0
畫到	0
首先	0
纜車	0
所謂	0
國旗	0
講呢	0
重有	0
全部	0
服務	0
清楚	0
得到	0
特別	0
虛線	0
就算	0
出去	0
唔記得	0
效果	0
打橫	0
文字	0
以為	0
通常	0
相信	0
杏堂	0
禮拜	0
行到	0
地盤	0
市場	0
我講	0
尚健	0
入去	0
出現	0
直情	0
條路線	0
裏邊	0
讀書	0
冇問題	0
右行	0
地標	0
男朋友	0
唔該	0
更加	0
水塘	0
一條	0
將來	0
提碑	0
工作	0
最後	0
電腦	0
能夠	0
肯定	0
一次	0
後尾	0
重要	0
信心	0
我話	0
成病	0
英文	0
男仔	0
今年	0
完成	0
犀利	0
樂園	0
任何	0
返來	0
記得	0
憂店	0
緊要	0
細個	0
國家	0
第二個	0
先生	0
左上	0
經濟	0
幾時	0
點啊	0
直接	0
叢林	0
我會	0
一係	0
突然	0
基本上	0
雖然	0
說話	0
大陸	0
打電話	0
成個	0
直線	0
上行	0
哩樣	0
自由	0
右上	0
世界	0
翻版	0
繞過	0
貨倉	0
理由	0
落到	0
發覺	0
返工	0
東方	0
影響	0
講到	0
法律	0
一種	0
未必	0
旅行	0
要求	0
關係	0
學生	0
考慮	0
會話	0
男人	0
電視	0
學校	0
唔夠	0
轉彎	0
其中	0
早晨	0
水平	0
生活	0
最好	0
西方	0
好過	0
代表	0
公共	0
山路	0
方法	0
發展	0
簡單	0
圖案	0
好睇	0
我見	0
意見	0
接受	0
最近	0
貧大	0
同一	0
辦法	0
拜拜	0
圖片	0
第二	0
報紙	0
分鐘	0
容易	0
打開	0
外國	0
直行	0
起碼	0
平時	0
入面	0
等陣	0
反而	0
有陣	0
慢慢	0
主要	0
人工	0
節目	0
直落	0
點知	0
三個	0
點呀	0
同意	0
行過	0
所有	0
財政	0
女人	0
個個	0
普通	0
爸爸	0
例如	0
直上	0
直程	0
畫個	0
水平線	0
環境	0
左右	0
食飯	0
一半	0
概念	0
距離	0
左行	0
個韻	0
港人	0
阿媽	0
考試	0
人權	0
包括	0
小姐	0
原本	0
試過	0
始終	0
對於	0
下行	0
放棄	0
我想	0
講話	0
公務員	0
幾個	0
我個	0
得閒	0
會堂	0
分別	0
大個	0
尊重	0
當時	0
之外	0
餐室	0
大學	0
一份	0
路線	0
黐線	0
行為	0
忍依	0
介紹	0
投資	0
興趣	0
廣告	0
日本	0
講下	0
唔緊要	0
我知	0
甚至	0
一年	0
右手	0
表達	0
有錢	0
秩序	0
能力	0
只不過	0
生意	0
機會	0
永遠	0
字典	0
上方	0
飛機	0
講過	0
講得	0
接近	0
好玩	0
陣時	0
感受	0
無論	0
數碼	0
面對	0
出面	0
我要	0
來講	0
股票	0
制度	0
圓形	0
小學	0
知點	0
立法	0
講真	0
令到	0
一陣	0
法院	0
開頭	0
一間	0
城市	0
原因	0
判決	0
發生	0
女朋友	0
中文	0
去邊	0
最多	0
大佬	0
返學	0
問下	0
厘米	0
行行	0
下方	0
形容	0
法官	0
包住	0
搞笑	0
左手	0
國際	0
成績	0
右手面	0
經歷	0
非常	0
美國	0
返到	0
彭銅	0
成為	0
關於	0
平衡	0
周圍	0
點講	0
好難	0
中國	0
絕對	0
明明	0
今晚	0
郵票	0
一日	0
上次	0
透過	0
之下	0
一下	0
壓力	0
過程	0
結果	0
見過	0
同事	0
橢圓	0
未來	0
教書	0
景點	0
個樣	0
好奇	0
小心	0
正常	0
法庭	0
利益	0
頹餐	0
舒服	0
互聯網	0
起身	0
改革	0
公仔	0
作為	0
認為	0
第日	0
掛住	0
留意	0
遲啲	0
努力	0
等如	0
開支	0
私營化	0
北行	0
手邊	0
類似	0
公約	0
停低	0
無聊	0
左手面	0
幾年	0
正話	0
兩年	0
支持	0
方便	0
鐘頭	0
方式	0
受害	0
沿住	0
上市	0
日子	0
附近	0
決定	0
唔通	0
選擇	0
好彩	0
頭髮	0
夜晚	0
奶茶	0
真正	0
手指	0
研究	0
盡量	0
會考	0
價值	0
緊張	0
在乎	0
限制	0
經驗	0
後來	0
有條	0
四個	0
講呀	0
點呢	0
同人	0
噉樣樣	0
得意	0
態度	0
曾經	0
網絡	0
條路	0
澳洲	0
抑或	0
點算	0
皮池	0
到時	0
聽講	0
講啦	0
一張	0
刑事	0
暑假	0
聽日	0
一般	0
八月	0
尤其	0
麻煩	0
下個	0
南行	0
女性	0
一段	0
程度	0
發現	0
大部份	0
重係	0
外圍	0
而且	0
睇法	0
事實	0
年紀	0
要點	0
左畫	0
左下角	0
講返	0
畫條	0
電子	0
於是	0
本來	0
冇事	0
功課	0
生日	0
舊年	0
醫生	0
兩間	0
白紙	0
空白	0
直到	0
入邊	0
負責	0
冤墓	0
形狀	0
東行	0
處理	0
改變	0
底下	0
打個	0
私人	0
兩個韻	0
行去	0
維持	0
聽眾	0
機構	0
資產	0
我想問	0
預算案	0
分開	0
幾耐	0
受山	0
終於	0
長方形	0
兜返	0
大約	0
白色	0
準備	0
新聞	0
離開	0
九點	0
煙海	0
擔心	0
仍然	0
解釋	0
競爭	0
北面	0
對唔住	0
暫時	0
例子	0
講乜	0
同個	0
控制	0
仲要	0
以後	0
結婚	0
聖經	0
盈利	0
地下	0
七月	0
年代	0
精神	0
哩度	0
身邊	0
整個	0
圖形	0
手面	0
咖啡	0
做咩	0
我同	0
一方面	0
值得	0
實在	0
唔肯	0
地產	0
即話	0
補習	0
三年	0
溝通	0
張紙	0
銀行	0
電視機	0
右下角	0
地鐵	0
好話	0
形式	0
先算	0
畫畫	0
保障	0
只要	0
價錢	0
你點	0
失業	0
變成	0
想講	0
預備	0
正下方	0
到底	0
媽媽	0
放假	0
禮物	0
一個韻	0
性格	0
俾人	0
右手邊	0
旁邊	0
解決	0
右下	0
懷疑	0
分手	0
試下	0
象徵	0
擦膠	0
回歸	0
幾大	0
反應	0
是但	0
畢業	0
有人	0
埋個	0
英國	0
南方	0
適合	0
男性	0
做過	0
原則	0
自然	0
鑑林	0
要好	0
記住	0
市民	0
提供	0
相當	0
得罪	0
靚女	0
感情	0
直頭	0
鐘意	0
三角形	0
返上	0
成功	0
多數	0
我估	0
高度	0
知有	0
邊行	0
受到	0
資料	0
個害	0
複雜	0
好慘	0
四十五度	0
好大	0
三點	0
民主黨	0
靚仔	0
唔好意思	0
我畫	0
打斜	0
理論	0
再落	0
公眾	0
基本法	0
後面	0
尊嚴	0
收到	0
有機	0
下邊	0
權利	0
將個	0
純粹	0
平排	0
計劃	0
瞭解	0
落落	0
太過	0
打直	0
必須	0
阿哥	0
波浪	0
言論	0
咁上下	0
後生	0
左下	0
圍住	0
奇怪	0
公平	0
空間	0
一晚	0
證明	0
垂直	0
轉個	0
資訊	0
人士	0
創作	0
無端端	0
雀仔	0
政黨	0
吸引	0
一點	0
申請	0
朝頭早	0
講個	0
成張	0
環保	0
下下	0
基本	0
語言	0
失敗	0
即個	0
幾喇	0
酒店	0
越來	0
上邊	0
城堡	0
不嬲	0
信佳	0
問我	0
整體	0
對方	0
冇所謂	0
搞錯	0
安排	0
毫子	0
似乎	0
教育	0
合格	0
阿婆	0
上角	0
不斷	0
依家	0
老實	0
存在	0
寧願	0
一次過	0
多次	0
左手邊	0
法例	0
家姐	0
右下方	0
上年	0
乜鬼	0
質素	0
點會	0
竟然	0
車主	0
過個	0
時話	0
一百蚊	0
冷氣	0
多個	0
重新	0
明顯	0
答案	0
艾爾頓	0
恐怖	0
電影	0
音響	0
坦白	0
醫療	0
排隊	0
福利	0
亞視	0
地點	0
之類	0
音樂	0
冇用	0
角色	0
除非	0
個意	0
贊成	0
終審	0
講番	0
膠袋	0
好處	0
落返	0
有趣	0
諗法	0
就畫	0
提出	0
印椰樹	0
多少	0
邊緣	0
大隻	0
文化	0
五點	0
心理	0
行業	0
從來	0
架構	0
離婚	0
講講	0
下角	0
郭富城	0
再畫	0
費事	0
沾污	0
牌子	0
錄音	0
媽咪	0
女皇	0
回應	0
容許	0
經常	0
根據	0
一座	0
角度	0
聖誕	0
困難	0
初初	0
舖頭	0
引起	0
幾咁	0
事實上	0
一本	0
剛才	0
效率	0
拍拖	0
搞掂	0
教授	0
屋企人	0
養魚	0
等於	0
特登	0
好貴	0
認識	0
重複	0
右畫	0
有關	0
醫院	0
辭典	0
每個	0
要講	0
政治	0
中醫	0
認真	0
一棵	0
秘書	0
黑色	0
照顧	0
琴日	0
單仲佳	0
互相	0
咁滯	0
傾偈	0
增加	0
今個	0
目的	0
一部份	0
主題	0
面前	0
主角	0
個萍	0
好少	0
中心	0
太太	0
身體	0
傷害	0
日後	0
監管	0
收埋	0
講多次	0
一件	0
幾點	0
兩條	0
參考	0
出聲	0
先得	0
部門	0
損失	0
好煩	0
嘗試	0
畫一個	0
數字	0
好笑	0
唔錯	0
十年	0
為止	0
幾靚	0
你畫	0
之中	0
台灣	0
會會	0
我識	0
食到	0
即要	0
就會	0
速度	0
骨折	0
細路仔	0
自信	0
返轉頭	0
金融	0
一套	0
尷尬	0
投訴	0
生產	0
一刻	0
黎明	0
最右	0
溫暖	0
破壞	0
既然	0
好悶	0
最底	0
正面	0
開燈	0
好聽	0
國內	0
早餐	0
內容	0
十二點	0
報告	0
去過	0
相對	0
電芯	0
澳門	0
提到	0
成熟	0
水草	0
詳細	0
個頭	0
西行	0
高過	0
兩樣	0
私家	0
中學	0
唔多	0
橫線	0
貼住	0
合理	0
增長	0
股份	0
補充	0
琴晚	0
時效	0
西面	0
門口	0
相處	0
誇張	0
遇到	0
商業	0
多過	0
一部	0
問吓	0
珍惜	0
睇住	0
即將	0
製造	0
聽過	0
好食	0
直角	0
案件	0
之內	0
十分	0
邊有	0
居民	0
乾淨	0
曲線	0
財務	0
對面	0
核突	0
嘉賓	0
呢種	0
形象	0
兩日	0
校長	0
顯示	0
東面	0
再行	0
足夠	0
反對	0
接觸	0
邊間	0
一號	0
意義	0
必要	0
通知	0
鼓勵	0
翻譯	0
做法	0
聯絡	0
嚴重	0
九月	0
穩定	0
正版	0
冬天	0
比例	0
創新	0
唱片	0
老細	0
唯一	0
幾日	0
講開	0
罪行	0
粗口	0
成年	0
哲學	0
自從	0
當我	0
五個	0
電訊	0
妄想	0
聽到	0
人話	0
幫到	0
愛情	0
婚姻	0
工業	0
定義	0
半年	0
當你	0
規則	0
一句	0
好多人	0
巴士	0
工人	0
司長	0
業主	0
評價	0
長遠	0
現象	0
講法	0
好快	0
第時	0
股價	0
保險	0
出版	0
燕梳	0
細妹	0
轉右	0
忽然	0
欣賞	0
轉頭	0
實際上	0
擦紙膠	0
普通話	0
事業	0
好近	0
本地	0
禮拜三	0
樓下	0
活動	0
正上方	0
戲院	0
屬於	0
初頭	0
我問	0
普遍	0
第二個韻	0
家人	0
就講	0
千祈	0
兩點	0
健康	0
牛肉	0
晏晝	0
禮拜六	0
好遠	0
遊戲	0
創意	0
心胸	0
重心	0
表現	0
反映	0
考到	0
數學	0
好味	0
依然	0
會有	0
規定	0
貨櫃	0
下畫	0
硬係	0
特殊	0
狹窄	0
隨時	0
同樣	0
唔知幾	0
現實	0
人生	0
民主	0
網球	0
年齡	0
五月	0
哈哈	0
一邊	0
專業	0
指示	0
邊位	0
梳打	0
老公	0
期間	0
唯有	0
兔仔	0
民建聯	0
兩位	0
合法	0
你識	0
紅籌	0
生物	0
好靚	0
行返	0
傾計	0
火星	0
好人	0
使錢	0
行路	0
傳媒	0
山個	0
兜個	0
個案	0
耶穌	0
飛碟	0
上堂	0
幫襯	0
內心	0
我明	0
判斷	0
無謂	0
可憐	0
保護	0
同時	0
得滯	0
加返	0
有份	0
心態	0
地球	0
九十度	0
安全	0
開會	0
界定	0
實際	0
關注	0
別人	0
姊妹	0
責任	0
天堂	0
特色	0
發達	0
以往	0
太陽	0
運動	0
年青	0
十一點	0
仙人掌	0
幫助	0
一模一樣	0
完整	0
清晰	0
出邊	0
藝術	0
你明	0
定下	0
全名	0
圖標	0
呢邊	0
出席	0
背後	0
侮辱	0
監察	0
由個	0
擁有	0
識講	0
有位	0
哩件	0
要畫	0
中國人	0
單位	0
返番	0
旅遊	0
連埋	0
譯本	0
針對	0
一人	0
階段	0
講完	0
收音機	0
分析	0
幾乎	0
祝福	0
效堡	0
好平	0
出街	0
關心	0
雜誌	0
家長	0
前面	0
一去	0
我返	0
阿妹	0
唱歌	0
一聲	0
近排	0
幾難	0
一條線	0
移民	0
風氣	0
我讀	0
好耐	0
買過	0
升到	0
支出	0
愛來	0
講緊	0
睇好	0
得講	0
寫住	0
十一	0
講埋	0
即講	0
承認	0
如何	0
兩次	0
半個	0
陣間	0
消息	0
道理	0
政權	0
半圓	0
講喇	0
預算	0
爭取	0
阿張	0
想問	0
原諒	0
好細	0
蚊度	0
阿爸	0
返個	0
忘記	0
份工	0
舉例	0
下次	0
星期六	0
利用	0
歐洲	0
得多	0
當中	0
一班	0
認同	0
親戚	0
情緒	0
李生	0
慶祝	0
應用	0
口罩	0
即會	0
勇氣	0
好景	0
業務	0
歡迎	0
南面	0
畫條線	0
餐廳	0
大鑊	0
憲法	0
下落	0
直至	0
畫一條	0
的確	0
俾個	0
使用	0
範圍	0
快樂	0
顛覆	0
今朝	0
會點	0
十幾年	0
導遊	0
公民	0
點寫	0
面有	0
幾衰	0
大吉利是	0
丈夫	0
受傷	0
畫返	0
新年	0
煽動	0
宜家	0
測驗	0
負擔	0
污糟	0
艷舞	0
相差	0
引導	0
最初	0
幾正	0
光碟	0
個底	0
老奉	0
學期	0
再過	0
討論	0
之一	0
電視台	0
區旗	0
大過	0
舊時	0
以來	0
觀眾	0
得人驚	0
題目	0
倫敦	0
即點	0
一早	0
比起	0
舉個	0
犯法	0
條例	0
流行	0
行動	0
體質	0
通訊	0
學習	0
張相	0
後果	0
我得	0
行政	0
鄉下	0
福祉	0
講即	0
十二	0
一百萬	0
一步	0
寵物	0
側面	0
追求	0
池個	0
總有	0
嘩好	0
演員	0
目標	0
假設	0
一科	0
每年	0
唔在乎	0
運作	0
圖畫	0
仔女	0
轉左	0
幫人	0
大力	0
所講	0
有事	0
頭兆	0
南方行	0
單止	0
不停	0
專利	0
剪碎	0
講一次	0
退休	0
正中	0
成本	0
點都	0
馬蹄	0
劇情	0
無字頭	0
大廈	0
遊客	0
藍籌	0
個銅	0
擔憂	0
危機	0
消費	0
東南面	0
因素	0
三分	0
二號	0
製作	0
偏右	0
觀點	0
進步	0
大大	0
確實	0
判詞	0
六點	0
不同	0
俾錢	0
一百	0
諗起	0
阿叔	0
和平	0
大圈	0
人手	0
矛盾	0
個名	0
過我	0
願意	0
傾向	0
實質	0
條件	0
心情	0
我夠	0
認得	0
包致	0
彭銅山個	0
識得	0
星期三	0
提高	0
一百八十度	0
第二日	0
就快	0
情形	0
故事	0
賺錢	0
今時今日	0
參加	0
處境	0
人知	0
好心	0
個效	0
失去	0
學系	0
主人	0
遊戲機	0
最高	0
衝動	0
轉返	0
建議	0
考官	0
先好	0
屯門	0
項農	0
多種	0
親人	0
依字	0
架車	0
勤力	0
成班	0
同善	0
生命	0
過份	0
四點	0
上畫	0
一切	0
細路	0
少人	0
分享	0
火車	0
細佬	0
放低	0
過呢	0
刺激	0
加上	0
期望	0
底部	0
維護	0
啤梨	0
三份	0
加個	0
合約	0
廣東話	0
老師	0
當日	0
難講	0
豬仔	0
養過	0
何秀蘭	0
至得	0
一萬	0
阿艾爾頓	0
金錢	0
工場	0
包埋	0
熱潮	0
每人	0
盈科	0
一個鐘	0
早起	0
牙醫	0
沙田	0
點唧	0
出庭	0
頭痛	0
冇計	0
講就	0
停車場	0
先講	0
阿公	0
次序	0
準時	0
十五	0
花園	0
專科	0
放榜	0
計數	0
三十蚊	0
彎線	0
正方形	0
準確	0
好知	0
兩三	0
會同	0
知識	0
套戲	0
缺點	0
叛亂	0
蝕本	0
一來	0
描述	0
咁鬼	0
適應	0
思想	0
跟團	0
收購	0
指引	0
達到	0
真情	0
成世	0
上個	0
不足	0
要將	0
超過	0
同韻	0
笑話	0
牌費	0
濫字	0
喪失	0
畫多	0
成條	0
娛樂	0
湖底	0
部份	0
一類	0
壟斷	0
講者	0
點睇	0
即同	0
講一	0
心理學	0
好長	0
產生	0
出入	0
理想	0
起上嚟	0
調轉	0
未曾	0
問一問	0
哩種	0
系統	0
東南	0
數量	0
買賣	0
主席	0
索償	0
將條線	0
第二朝	0
議員	0
一般人	0
假如	0
總共	0
集體	0
幾有	0
阿琪	0
過你	0
你間	0
上下	0
時代	0
示威	0
司法	0
四位	0
分分鐘	0
你記	0
壯士	0
提議	0
收工	0
歲數	0
見面	0
傾到	0
幸福	0
梳化	0
埋晒	0
想像	0
耳仔	0
自覺	0
好肥	0
座山	0
請飲	0
中大	0
堅持	0
外面	0
大眾	0
日頭	0
費用	0
少數	0
人家	0
曼聯	0
成人	0
變態	0
推薦	0
正式	0
民族	0
做人	0
一笑置之	0
十點	0
夠膽	0
道歉	0
話題	0
先喇	0
危險	0
心靈	0
職員	0
發表	0
幾驚	0
暴力	0
尾指	0
我點	0
星期	0
騷擾	0
高興	0
遲到	0
一世	0
左下方	0
廁所	0
裁員	0
因應	0
有間	0
牛油	0
上網	0
兩份	0
就將	0
沖涼	0
發夢	0
任性	0
睇嚟	0
意識	0
事件	0
管理	0
習慣	0
關慧明	0
點做	0
年度	0
我先	0
個步	0
印象	0
小朋友	0
八個	0
冇心機	0
廚房	0
將會	0
執笠	0
阿木	0
對落	0
十幾	0
人情	0
成就	0
幾次	0
三角	0
將我	0
圓柱體	0
有用	0
呢排	0
名牌	0
六個	0
強調	0
問人	0
孔融	0
靈體	0
講我	0
法國	0
日日	0
最尾	0
加加	0
兩三個	0
條橋	0
成長	0
斜線	0
基督徒	0
下去	0
單車	0
有些	0
返右	0
太平	0
有權	0
雙糧	0
計埋	0
硬件	0
幾千蚊	0
手提電話	0
估計	0
金字	0
企業	0
求其	0
聽見	0
非法	0
盜版	0
競爭力	0
彭個	0
再講	0
講都	0
有哩	0
街坊	0
影得	0
夢想	0
四十五萬	0
體制	0
買個	0
訪問	0
下一個	0
左上方	0
畫面	0
皮字	0
過來	0
畫完	0
氣氛	0
美金	0
一片	0
真實	0
幾樣	0
未去	0
是否	0
谷底	0
波動	0
年頭	0
快趣	0
兩部	0
定點	0
細聲	0
傷殘	0
用途	0
主義	0
先會	0
一度	0
一班人	0
光纖	0
出奇	0
支旗	0
即時	0
不安	0
總言	0
一國兩制	0
明知	0
默書	0
影相	0
滿意	0
買車	0
橫掂	0
令人	0
垃圾	0
黑膠	0
偏西	0
禁止	0
調番轉	0
一位	0
幾慘	0
落行	0
個堡	0
牛柳	0
記者	0
請教	0
鬼馬	0
剩返	0
左至	0
四幅	0
過頭	0
人員	0
講錯	0
第三個	0
跳樓	0
到達	0
不變	0
條文	0
進聯	0
喜劇	0
讀過	0
傷心	0
些少	0
過人	0
大多數	0
事情	0
老婆	0
你估	0
歷史	0
好易	0
具體	0
首日封	0
廿三	0
逐個	0
電台	0
交易	0
開學	0
投票	0
哩份	0
再轉	0
嚇死	0
離譜	0
上升	0
用個	0
推動	0
患難	0
肌肉	0
先有	0
俾多	0
友誼	0
學院	0
夏天	0
運毒	0
無奈	0
過好	0
坐監	0
建築物	0
蝕底	0
刑法	0
正正	0
重疊	0
走到	0
政局	0
即使	0
有成	0
立方體	0
官司	0
幾抵	0
一排	0
講好	0
再右	0
衝突	0
東南方	0
知名	0
難得	0
十二月	0
組成	0
事關	0
股市	0
烏蠅	0
睇見	0
成點	0
薯仔	0
盡頭	0
塊面	0
大學生	0
有哩個	0
現有	0
講笑	0
彎曲	0
偏東	0
帳篷	0
都講	0
卒之	0
沙灘	0
創造	0
何況	0
一級	0
老豆	0
完美	0
實驗	0
不滿	0
幾十年	0
麥潤壽	0
請問	0
哩句	0
傻瓜機	0
賣廣告	0
人口	0
執行	0
熱線	0
凌駕	0
手法	0
兩三年	0
海琪	0
阿伯	0
九個	0
個嬋盆	0
六月	0
西面行	0
形成	0
經個	0
樹葉	0
影印	0
政務	0
好運	0
表姐	0
蔣超平	0
換言之	0
現代	0
每一次	0
堡壘	0
同航常	0
出名	0
通利琴行	0
屋主	0
進行	0
數據	0
極限	0
你行	0
批評	0
地位	0
收入	0
一舊	0
西北	0
我覺	0
知個	0
痕山	0
講吓	0
阿二	0
痛苦	0
見工	0
作文	0
設計	0
千萬	0
科學	0
在座	0
傷風	0
本書	0
哩張	0
宿舍	0
傳統	0
仔細	0
經典	0
到死	0
有過	0
哩科	0
過往	0
麻雀	0
肉酸	0
<0x00>	0
<0x01>	0
<0x02>	0
<0x03>	0
<0x04>	0
<0x05>	0
<0x06>	0
<0x07>	0
<0x08>	0
<0x09>	0
<0x0A>	0
<0x0B>	0
<0x0C>	0
<0x0D>	0
<0x0E>	0
<0x0F>	0
<0x10>	0
<0x11>	0
<0x12>	0
<0x13>	0
<0x14>	0
<0x15>	0
<0x16>	0
<0x17>	0
<0x18>	0
<0x19>	0
<0x1A>	0
<0x1B>	0
<0x1C>	0
<0x1D>	0
<0x1E>	0
<0x1F>	0
<0x20>	0
<0x21>	0
<0x22>	0
<0x23>	0
<0x24>	0
<0x25>	0
<0x26>	0
<0x27>	0
<0x28>	0
<0x29>	0
<0x2A>	0
<0x2B>	0
<0x2C>	0
<0x2D>	0
<0x2E>	0
<0x2F>	0
<0x30>	0
<0x31>	0
<0x32>	0
<0x33>	0
<0x34>	0
<0x35>	0
<0x36>	0
<0x37>	0
<0x38>	0
<0x39>	0
<0x3A>	0
<0x3B>	0
<0x3C>	0
<0x3D>	0
<0x3E>	0
<0x3F>	0
<0x40>	0
<0x41>	0
<0x42>	0
<0x43>	0
<0x44>	0
<0x45>	0
<0x46>	0
<0x47>	0
<0x48>	0
<0x49>	0
<0x4A>	0
<0x4B>	0
<0x4C>	0
<0x4D>	0
<0x4E>	0
<0x4F>	0
<0x50>	0
<0x51>	0
<0x52>	0
<0x53>	0
<0x54>	0
<0x55>	0
<0x56>	0
<0x57>	0
<0x58>	0
<0x59>	0
<0x5A>	0
<0x5B>	0
<0x5C>	0
<0x5D>	0
<0x5E>	0
<0x5F>	0
<0x60>	0
<0x61>	0
<0x62>	0
<0x63>	0
<0x64>	0
<0x65>	0
<0x66>	0
<0x67>	0
<0x68>	0
<0x69>	0
<0x6A>	0
<0x6B>	0
<0x6C>	0
<0x6D>	0
<0x6E>	0
<0x6F>	0
<0x70>	0
<0x71>	0
<0x72>	0
<0x73>	0
<0x74>	0
<0x75>	0
<0x76>	0
<0x77>	0
<0x78>	0
<0x79>	0
<0x7A>	0
<0x7B>	0
<0x7C>	0
<0x7D>	0
<0x7E>	0
<0x7F>	0
<0x80>	0
<0x81>	0
<0x82>	0
<0x83>	0
<0x84>	0
<0x85>	0
<0x86>	0
<0x87>	0
<0x88>	0
<0x89>	0
<0x8A>	0
<0x8B>	0
<0x8C>	0
<0x8D>	0
<0x8E>	0
<0x8F>	0
<0x90>	0
<0x91>	0
<0x92>	0
<0x93>	0
<0x94>	0
<0x95>	0
<0x96>	0
<0x97>	0
<0x98>	0
<0x99>	0
<0x9A>	0
<0x9B>	0
<0x9C>	0
<0x9D>	0
<0x9E>	0
<0x9F>	0
<0xA0>	0
<0xA1>	0
<0xA2>	0
<0xA3>	0
<0xA4>	0
<0xA5>	0
<0xA6>	0
<0xA7>	0
<0xA8>	0
<0xA9>	0
<0xAA>	0
<0xAB>	0
<0xAC>	0
<0xAD>	0
<0xAE>	0
<0xAF>	0
<0xB0>	0
<0xB1>	0
<0xB2>	0
<0xB3>	0
<0xB4>	0
<0xB5>	0
<0xB6>	0
<0xB7>	0
<0xB8>	0
<0xB9>	0
<0xBA>	0
<0xBB>	0
<0xBC>	0
<0xBD>	0
<0xBE>	0
<0xBF>	0
<0xC0>	0
<0xC1>	0
<0xC2>	0
<0xC3>	0
<0xC4>	0
<0xC5>	0
<0xC6>	0
<0xC7>	0
<0xC8>	0
<0xC9>	0
<0xCA>	0
<0xCB>	0
<0xCC>	0
<0xCD>	0
<0xCE>	0
<0xCF>	0
<0xD0>	0
<0xD1>	0
<0xD2>	0
<0xD3>	0
<0xD4>	0
<0xD5>	0
<0xD6>	0
<0xD7>	0
<0xD8>	0
<0xD9>	0
<0xDA>	0
<0xDB>	0
<0xDC>	0
<0xDD>	0
<0xDE>	0
<0xDF>	0
<0xE0>	0
<0xE1>	0
<0xE2>	0
<0xE3>	0
<0xE4>	0
<0xE5>	0
<0xE6>	0
<0xE7>	0
<0xE8>	0
<0xE9>	0
<0xEA>	0
<0xEB>	0
<0xEC>	0
<0xED>	0
<0xEE>	0
<0xEF>	0
<0xF0>	0
<0xF1>	0
<0xF2>	0
<0xF3>	0
<0xF4>	0
<0xF5>	0
<0xF6>	0
<0xF7>	0
<0xF8>	0
<0xF9>	0
<0xFA>	0
<0xFB>	0
<0xFC>	0
<0xFD>	0
<0xFE>	0
<0xFF>	0
，	-1.51357
▁	-3.49813
。	-4.15124
嘅	-4.25042
係	-4.65082
同	-5.22287
有	-5.22933
佢	-5.25338
我	-5.25993
、	-5.37113
你	-5.37909
就	-5.40472
都	-5.50817
人	-5.5201
,	-5.55283
喺	-5.56801
：	-5.57916
？	-5.68041
（	-5.69468
好	-5.7116
咁	-5.73113
）	-5.79123
年	-5.81079
既	-5.81162
個	-5.81341
唔	-5.82089
「	-5.85089
到	-5.85253
會	-5.96239
要	-6.03085
」	-6.06575
大	-6.11019
去	-6.12221
但	-6.1319
做	-6.15703
！	-6.15717
呢	-6.17155
話	-6.18326
一	-6.19667
又	-6.19911
啦	-6.213
咗	-6.21665
用	-6.29581
啲	-6.33117
月	-6.3339
啊	-6.33912
上	-6.34449
而	-6.43868
冇	-6.43887
得	-6.44183
《	-6.44508
下	-6.47632
都係	-6.48645
d	-6.49643
先	-6.50844
無	-6.53711
》	-6.53877
睇	-6.66184
過	-6.66229
/	-6.69888
呀	-6.70017
左	-6.70982
出	-6.71943
講	-6.7211
打	-6.74874
呢個	-6.75412
中	-6.79423
)	-6.79589
對	-6.79802
再	-6.80224
；	-6.81578
s	-6.84509
嚟	-6.85211
-	-6.86324
就係	-6.87064
為	-6.8749
3	-6.88401
2	-6.88492
1	-6.89113
.	-6.89297
比	-6.92092
後	-6.94112
開	-6.94226
由	-6.94722
號	-6.95213
仲	-6.95351
多	-6.95893
食	-6.96022
咩	-6.98977
點	-7.01843
日	-7.02338
住	-7.0235
想	-7.0398
將	-7.06477
新	-7.07417
返	-7.08605
入	-7.0916
以	-7.09169
4	-7.09368
佢哋	-7.09962
不	-7.10162
前	-7.10674
高	-7.11652
等	-7.11949
喇	-7.12729
5	-7.13035
D	-7.13125
時	-7.13566
水	-7.14171
頭	-7.16242
最	-7.16818
仔	-7.17135
行	-7.18928
玩	-7.1928
我哋	-7.19505
好多	-7.19571
成	-7.19969
曬	-7.20473
死	-7.22182
買	-7.22949
。」	-7.23417
(	-7.24306
野	-7.25568
地	-7.25791
度	-7.26678
9	-7.26873
]	-7.28729
：「	-7.29293
小	-7.29361
噉	-7.30228
分	-7.31233
亦	-7.31238
叫	-7.31577
俾	-7.32242
生	-7.3243
埋	-7.32935
?	-7.33415
:	-7.35341
嗰	-7.35877
6	-7.37782
佢地	-7.38102
三	-7.38843
車	-7.39594
畀	-7.41671
手	-7.41913
心	-7.41988
之	-7.42275
連	-7.42304
架	-7.4317
重	-7.43239
走	-7.43885
被	-7.44016
位	-7.44685
名	-7.45051
10	-7.45552
起	-7.45745
家	-7.45783
未	-7.45802
A	-7.47753
揾	-7.47997
嘢	-7.48377
定	-7.48518
加	-7.48741
落	-7.4933
緊	-7.49543
只係	-7.5019
聲	-7.50473
馬	-7.50691
區	-7.51413
幾	-7.51525
女	-7.51573
...	-7.52083
喎	-7.53356
7	-7.53625
長	-7.54457
機	-7.54883
及	-7.55166
咪	-7.55842
文	-7.56379
㗎	-7.56417
當	-7.5688
8	-7.57039
我地	-7.57154
黎	-7.57185
er	-7.57454
見	-7.57987
阿	-7.58046
搞	-7.58987
完	-7.58988
力	-7.60016
學	-7.60748
隻	-7.60752
錢	-7.60773
性	-7.61155
都有	-7.61645
"	-7.61865
者	-7.62596
道	-7.64051
路	-7.64708
向	-7.65019
囉	-7.65311
唔會	-7.65511
e	-7.66174
在	-7.66216
班	-7.66224
國	-7.66251
張	-7.6639
[	-7.66803
間	-7.66828
條	-7.68233
▁(	-7.68305
事	-7.68343
天	-7.69705
見到	-7.70376
兩	-7.70486
子	-7.70512
呢啲	-7.71289
蘋果	-7.72097
至	-7.72447
轉	-7.72532
老	-7.72728
問	-7.72902
嚇	-7.72906
山	-7.73222
更	-7.73255
數	-7.73824
指	-7.74411
萬	-7.74542
場	-7.74892
▁你	-7.76012
明	-7.76474
C	-7.76537
次	-7.76717
…	-7.76877
c	-7.76958
令	-7.77134
放	-7.77198
帶	-7.77884
自	-7.77956
聽	-7.78387
部	-7.79045
S	-7.79383
嘅人	-7.79981
太	-7.79995
拉	-7.81466
番	-7.8208
內	-7.82416
B	-7.82465
字	-7.84279
正	-7.85015
或	-7.85291
屌	-7.85716
低	-7.85758
波	-7.86386
收	-7.86796
金	-7.87124
線	-7.87482
五	-7.87582
於	-7.87902
二	-7.87919
可	-7.88013
全	-7.88387
法	-7.8844
on	-7.88942
口	-7.89698
a	-7.89818
外	-7.9167
花	-7.92047
站	-7.92301
四	-7.92592
派	-7.92751
黃	-7.92847
白	-7.92983
果	-7.93264
幫	-7.93687
t	-7.93696
化	-7.94376
西	-7.94419
諗	-7.94538
12	-7.95365
王	-7.95498
愛	-7.96465
le	-7.96531
神	-7.96673
唔知	-7.9675
賣	-7.9705
氣	-7.97169
面	-7.97409
海	-7.97889
整	-7.98394
都唔	-7.98575
狗	-7.98847
識	-7.9899
寫	-7.99217
教	-7.99738
邊	-8.00208
有啲	-8.00265
平	-8.00356
讀	-8.00609
信	-8.00615
元	-8.00636
版	-8.00735
黑	-8.01263
請	-8.02308
紅	-8.04151
都要	-8.04557
計	-8.04598
響	-8.04832
細	-8.04856
哂	-8.05422
▁我	-8.05554
y	-8.0569
少	-8.05778
台	-8.0581
華	-8.05859
身	-8.05924
去到	-8.05951
▁-	-8.06491
飛	-8.06505
坐	-8.06948
來	-8.07094
光	-8.07192
利	-8.07421
單	-8.07602
歲	-8.07934
隊	-8.08311
本	-8.08365
城	-8.08574
卡	-8.08716
只	-8.08806
相	-8.08939
20	-8.08953
第	-8.09448
陳	-8.09454
李	-8.09665
發	-8.09987
知	-8.10258
升	-8.10363
書	-8.10507
拎	-8.10781
約	-8.10801
都好	-8.10859
美	-8.10892
拍	-8.11267
變	-8.1138
G	-8.11424
門	-8.1174
▁但	-8.13357
差	-8.13753
林	-8.13855
佢話	-8.1411
實	-8.14164
T	-8.14265
post	-8.14327
b	-8.14548
M	-8.1464
德	-8.15938
反	-8.16083
東	-8.16132
火	-8.16332
風	-8.16576
和	-8.16581
圖	-8.17118
嘞	-8.17147
」。	-8.17576
街	-8.17722
作	-8.1791
k	-8.18285
片	-8.1887
m	-8.1895
所	-8.19115
夠	-8.19332
龍	-8.19437
出黎	-8.1958
樓	-8.19661
已	-8.19778
11	-8.20188
受	-8.20197
戰	-8.20676
真	-8.20743
30	-8.20801
市	-8.20904
o	-8.21062
嗰陣	-8.21097
換	-8.21278
清	-8.21354
笑	-8.21692
嗰個	-8.21729
K	-8.21905
你地	-8.22067
爆	-8.22174
驚	-8.22206
撚	-8.22596
都冇	-8.22789
跟	-8.22795
眼	-8.2284
p	-8.23393
解	-8.23659
P	-8.23802
星	-8.23877
工	-8.24025
科	-8.24229
斯	-8.24515
安	-8.2477
推	-8.24912
達	-8.2517
著	-8.2542
咁多	-8.25702
舊	-8.25943
18	-8.25983
另	-8.26151
你哋	-8.26527
有冇	-8.26695
tion	-8.26735
鬼	-8.27261
軍	-8.27261
每	-8.27388
交	-8.27767
與	-8.27847
送	-8.27939
ing	-8.27941
攞	-8.28308
改	-8.2861
近	-8.2904
人地	-8.29482
關	-8.2949
即	-8.29568
特	-8.29779
揀	-8.31079
【	-8.31184
報	-8.31224
15	-8.31417
勁	-8.31664
影	-8.3174
牌	-8.31758
難	-8.32423
！」	-8.32613
如	-8.33075
F	-8.33229
電	-8.3338
強	-8.33532
+	-8.33691
g	-8.34091
米	-8.34101
量詞	-8.34273
錯	-8.34293
底	-8.35355
in	-8.3593
噚日	-8.36108
快	-8.36906
追	-8.37005
傳	-8.37232
半	-8.37392
樣	-8.37527
L	-8.37587
搞到	-8.37781
】	-8.37868
兵	-8.37952
主	-8.38282
試	-8.38587
價	-8.38675
處	-8.38775
通	-8.39791
南	-8.40089
i	-8.40519
超	-8.40953
飲	-8.4109
亞	-8.41302
石	-8.41633
男	-8.41745
腳	-8.41766
除咗	-8.41988
贏	-8.42011
re	-8.42149
有咩	-8.42168
一啲	-8.42231
並	-8.42286
呢度	-8.42801
排	-8.4368
流	-8.44
包	-8.44087
公	-8.44677
巴	-8.45208
留	-8.45262
乜	-8.45889
從	-8.46391
理	-8.46577
R	-8.4659
皮	-8.46783
客	-8.4685
跌	-8.46912
早	-8.46992
吖	-8.47017
爾	-8.47608
佢嘅	-8.48084
情	-8.48255
份	-8.4853
哥	-8.48638
世	-8.48647
我都	-8.48675
貨	-8.48764
望	-8.49014
方	-8.49403
x	-8.49624
期	-8.4969
n	-8.50042
式	-8.50595
羅	-8.50716
因	-8.50764
代	-8.50813
越	-8.50933
病	-8.5114
色	-8.51276
集	-8.51975
E	-8.52024
任	-8.52346
更多	-8.52405
雞	-8.52465
意	-8.53026
民	-8.53222
唱	-8.53274
輸	-8.53588
扮	-8.53939
接	-8.53959
蚊	-8.53978
體	-8.54006
八	-8.54017
嘅嘢	-8.54148
2.	-8.54176
殺	-8.54234
嗰啲	-8.54321
油	-8.54663
睇到	-8.5487
喺度	-8.54883
1.	-8.5512
既人	-8.55477
尾	-8.55483
記	-8.55605
唔想	-8.55665
經	-8.55716
倒	-8.55757
歌	-8.55958
l	-8.56312
照	-8.56377
首	-8.56423
股	-8.56427
。「	-8.56539
港	-8.56769
or	-8.5678
裝	-8.56922
貴	-8.57431
炒	-8.57459
表示	-8.57616
亂	-8.57747
師	-8.57758
回	-8.5782
跑	-8.57976
假	-8.58065
同佢	-8.58528
熱	-8.5872
啫	-8.58864
格	-8.58943
房	-8.59048
佢係	-8.59333
樂	-8.5941
音	-8.59475
型	-8.59505
姐	-8.60041
16	-8.60051
非	-8.60139
鳩	-8.60318
·	-8.60336
靚	-8.60386
唔識	-8.60575
頂	-8.60693
？」	-8.60766
W	-8.61215
又係	-8.61263
擺	-8.61323
跳	-8.61341
射	-8.61435
權	-8.61584
我就	-8.6182
球	-8.61971
睇下	-8.62019
親	-8.62053
傾	-8.62172
翻	-8.62558
六	-8.62604
洗	-8.6272
島	-8.62724
支	-8.63011
執	-8.63133
沙	-8.63392
合	-8.63477
X	-8.6361
級	-8.6398
着	-8.63981
動	-8.64235
局	-8.64512
寶	-8.64617
商	-8.64715
!	-8.64741
嘅話	-8.64792
似	-8.64947
肉	-8.65456
味	-8.65652
傷	-8.65759
依	-8.65908
N	-8.65909
至於	-8.65917
魚	-8.65939
船	-8.65971
官	-8.6604
算	-8.66198
比人	-8.66609
鐘	-8.67255
救	-8.67319
血	-8.67447
3.	-8.67448
19	-8.68011
搭	-8.68183
ed	-8.6819
件	-8.68196
做到	-8.68418
組	-8.68635
靠	-8.68884
感	-8.69212
基	-8.69472
雙	-8.69483
種	-8.69534
七	-8.69778
為咗	-8.69885
係咁	-8.6996
14	-8.7004
英	-8.70065
量	-8.70104
求	-8.70175
App	-8.70236
原	-8.70424
都無	-8.70621
九	-8.70753
保	-8.71056
總	-8.71431
唔少	-8.71457
H	-8.71579
其	-8.7162
角	-8.71694
我係	-8.71726
士	-8.71863
亦都	-8.71965
應	-8.72171
借	-8.72268
V	-8.7232
50	-8.72424
黨	-8.72649
彈	-8.72792
就要	-8.72902
養	-8.72905
0	-8.72939
就話	-8.73164
答	-8.73193
／	-8.73347
盡	-8.73521
由於	-8.73556
倍	-8.73885
界	-8.74119
13	-8.74125
退	-8.7414
屬	-8.74254
畫	-8.74579
佬	-8.74622
深	-8.74712
提	-8.7479
多啲	-8.749
周	-8.74965
北	-8.74984
員	-8.75115
網	-8.75643
啱	-8.75704
古	-8.75707
極	-8.7644
空	-8.76711
警察	-8.76805
州	-8.76953
雲	-8.7703
J	-8.77322
團	-8.77427
'	-8.77472
費	-8.77649
揾到	-8.7794
田	-8.78296
語	-8.78416
進	-8.7844
會唔會	-8.78497
輪	-8.78549
al	-8.78788
r	-8.78803
怕	-8.78887
尼	-8.78947
選	-8.79002
遠	-8.79266
易	-8.79295
千	-8.79452
鐵	-8.79506
制	-8.79614
25	-8.79617
毛	-8.79712
劉	-8.79756
17	-8.79771
劇	-8.79798
套	-8.79879
戴	-8.79934
廢	-8.80078
系	-8.8017
木	-8.80262
衝	-8.80456
）。	-8.80579
u	-8.80685
克	-8.8098
散	-8.81109
100	-8.81123
當年	-8.81179
足	-8.81351
粒	-8.81594
▁[	-8.81611
地區	-8.81822
停	-8.8201
手足	-8.82018
層	-8.82392
各	-8.82566
藥	-8.82615
直	-8.82691
失	-8.82747
賽	-8.82911
肥	-8.83002
堂	-8.83215
企	-8.83315
踢	-8.83561
衰	-8.83567
球員	-8.83615
封	-8.83671
乜嘢	-8.8374
牛	-8.83741
飯	-8.83742
U	-8.84169
更新	-8.84192
河	-8.84238
曾	-8.84328
立	-8.84404
樓主	-8.84429
估	-8.84548
稱	-8.84571
好撚	-8.84749
圈	-8.84846
滿	-8.84889
百	-8.84959
f	-8.85093
節	-8.85118
只有	-8.85349
怪	-8.8582
除	-8.85847
段	-8.85907
韋小寶	-8.86286
幫手	-8.87022
座	-8.87082
某	-8.87267
啲人	-8.87329
唔洗	-8.87338
24	-8.8738
都唔會	-8.87426
香	-8.87627
戲	-8.87918
布	-8.88186
人哋	-8.88227
刀	-8.88271
藍	-8.88302
物	-8.88353
de	-8.88385
史	-8.88419
屋	-8.88461
十	-8.88654
料	-8.88739
村	-8.88829
使	-8.8901
勝	-8.893
an	-8.89374
業	-8.89772
I	-8.89848
離	-8.89863
兼	-8.8996
句	-8.90143
能	-8.90175
抽	-8.9028
威	-8.90563
po	-8.90761
酒	-8.90792
Q	-8.9106
喂	-8.91415
燒	-8.91607
衫	-8.91667
槍	-8.9191
豬	-8.9192
肯	-8.91922
夜	-8.91956
O	-8.92028
用嚟	-8.92073
ter	-8.92171
搶	-8.92289
友	-8.92345
痛	-8.9248
盤	-8.92558
步	-8.92588
插	-8.92679
拖	-8.92851
中共	-8.93278
菜	-8.93328
夫	-8.93374
副	-8.93413
撐	-8.93729
好好	-8.93828
鬧	-8.93847
粵語	-8.93951
se	-8.94045
▁S	-8.94134
▁A	-8.94193
還	-8.94707
－	-8.9487
何	-8.94871
紙	-8.94942
ne	-8.95033
牙	-8.95383
租	-8.95408
葉	-8.95413
運	-8.95502
補	-8.95519
game	-8.95665
票	-8.95989
命	-8.96142
陣	-8.96604
獲	-8.96706
up	-8.96713
21	-8.96717
獎	-8.96826
江	-8.96991
考	-8.97032
▁the	-8.97182
en	-8.97305
青	-8.97392
板	-8.9746
店	-8.97683
▁L	-8.97801
獨立	-8.97916
23	-8.98044
▁s	-8.98048
嗰度	-8.9805
一隻	-8.98382
查	-8.98401
巴打	-8.98598
袋	-8.98739
ment	-8.98774
嘉	-8.99067
類	-8.99086
爭	-8.99177
▁of	-8.99296
省	-8.99494
et	-8.99572
腦	-8.99642
～	-8.99695
▁呢個	-8.99987
又話	-9.00044
60	-9.00126
嘅事	-9.00158
拿	-9.00164
有好多	-9.00252
瞓	-9.00271
配	-9.00441
福	-9.00455
又要	-9.00482
鬥	-9.00535
圍	-9.00559
40	-9.0073
仆街	-9.00744
警	-9.00914
興	-9.00941
捉	-9.01079
𠵱家	-9.011
選舉	-9.01105
武	-9.01108
減	-9.01331
齊	-9.01487
屆	-9.01685
調	-9.0175
組織	-9.01879
都未	-9.01887
我諗	-9.02254
室	-9.02492
投	-9.0305
短	-9.03125
合作	-9.03241
喊	-9.03329
斷	-9.03364
億	-9.03386
又有	-9.03494
爛	-9.03496
貼	-9.03514
▁咁	-9.0382
急	-9.03888
雪	-9.03967
ch	-9.03998
el	-9.04064
28	-9.04087
言	-9.0411
比賽	-9.04124
守	-9.04524
縣	-9.04807
韓國	-9.04829
賺	-9.05001
梁	-9.05098
形	-9.05246
品	-9.05271
▁in	-9.05273
夾	-9.05277
毒	-9.05419
宣傳	-9.05474
零	-9.05944
論	-9.05961
技術	-9.0605
貓	-9.06126
取	-9.0626
硬	-9.06422
..	-9.06426
w	-9.06526
景	-9.06673
校	-9.06764
快啲	-9.07007
樹	-9.07175
燈	-9.07223
你話	-9.0732
我唔	-9.07508
則	-9.07517
草	-9.07708
揸	-9.07721
遊	-9.07843
值	-9.07952
共	-9.08092
率	-9.08174
器	-9.08176
奧	-9.08231
楊	-9.08255
返嚟	-9.08278
添	-9.08398
80	-9.08676
管	-9.08732
裏	-9.08759
4.	-9.08802
蘭	-9.09064
較	-9.09176
的	-9.09452
銀	-9.09469
表	-9.09517
攻	-9.09661
精	-9.09697
妹	-9.09728
聖	-9.09869
既野	-9.09905
造	-9.09941
撞	-9.1001
吳	-9.10054
恩	-9.10193
仲係	-9.10217
冇人	-9.10567
破	-9.10773
醒	-9.10839
漢	-9.11071
維	-9.112
奇	-9.11472
博	-9.11713
聯	-9.11721
切	-9.11739
h	-9.11755
成員	-9.12141
22	-9.12463
防	-9.12524
義	-9.12543
骨	-9.12597
以上	-9.12694
㗎喇	-9.12765
迪	-9.12878
粉	-9.13079
禮	-9.13133
練	-9.13143
餐	-9.13191
曲	-9.13218
加入	-9.13286
富	-9.13384
人類	-9.1355
鏡	-9.13572
每日	-9.13647
▁#	-9.13839
訓	-9.13841
你係	-9.1386
便	-9.13903
book	-9.13956
=	-9.13995
慢	-9.13999
冇得	-9.14028
而係	-9.14194
列	-9.143
ge	-9.14534
動物	-9.14604
款	-9.14723
詞	-9.14967
26	-9.14973
And	-9.15043
又唔	-9.1541
順	-9.15505
咯	-9.15547
連登	-9.15594
最大	-9.15662
初	-9.15751
得好	-9.15806
志	-9.15893
屎	-9.16004
吹	-9.16053
佢就	-9.16124
Y	-9.16152
同你	-9.16283
佔	-9.16342
季	-9.16361
晚	-9.16529
按	-9.16734
▁B	-9.16859
印	-9.16987
內地	-9.17012
修	-9.17151
絕	-9.17188
輕	-9.17293
……	-9.17539
ok	-9.17621
佢喺	-9.18003
認	-9.18141
茶	-9.18367
蘇	-9.18586
com	-9.18603
膠	-9.1868
柒	-9.18941
嬲	-9.19074
筆	-9.19151
逼	-9.19301
）、	-9.19466
職	-9.19581
案	-9.19938
宣佈	-9.2018
雷	-9.20257
專	-9.20378
塞	-9.20752
roid	-9.20815
兒	-9.20905
夢	-9.20983
朗	-9.21058
招	-9.21217
,000	-9.21237
#	-9.21354
▁C	-9.21419
參與	-9.21529
版已登錄	-9.2169
有無	-9.21717
呃	-9.21741
27	-9.21947
建	-9.21987
踩	-9.22355
嘛	-9.22472
us	-9.22514
以及	-9.22681
pro	-9.2271
朝	-9.22728
嚟講	-9.22792
觀	-9.22829
壞	-9.22842
泰	-9.23276
▁唔	-9.23348
院	-9.23442
90	-9.23447
湯	-9.2361
此	-9.23698
把	-9.23835
畀人	-9.23841
th	-9.23855
歌手	-9.23933
利申	-9.24366
熟	-9.24375
哦	-9.2438
推出	-9.24566
現	-9.24583
播	-9.24672
你要	-9.24812
只會	-9.24821
冷	-9.24959
唔得	-9.24976
右	-9.25044
就有	-9.2505
橋	-9.25209
舉行	-9.2537
禁	-9.25392
亦係	-9.25595
智	-9.25599
煙	-9.26062
『	-9.26309
公開	-9.26336
第三	-9.2636
球隊	-9.26614
仙	-9.26745
靜	-9.26989
200	-9.2716
壓	-9.27312
▁/	-9.27356
嗰時	-9.27548
係我	-9.27664
塊	-9.27711
70	-9.27913
居	-9.28057
谷	-9.28072
既話	-9.28074
德國	-9.28158
亞洲	-9.28163
太多	-9.28179
老母	-9.28236
果陣	-9.28237
政	-9.28302
治	-9.2832
設	-9.28573
證	-9.28708
奶	-9.28938
屈	-9.28963
@	-9.29045
成立	-9.29117
歸	-9.29161
簽	-9.292
掛	-9.29243
結	-9.29293
廣州	-9.29335
登	-9.29386
吉	-9.29402
姐姐	-9.29443
係有	-9.29613
2021	-9.29665
糖	-9.29821
常	-9.29899
幫佢	-9.29964
詩	-9.29972
亂噏	-9.29988
醫	-9.30151
偉	-9.30154
必	-9.30389
宗	-9.30396
誒	-9.30416
兄弟	-9.30526
▁1	-9.30532
同我	-9.30723
▁c	-9.30739
麥	-9.30787
▁2	-9.30787
程	-9.30819
比你	-9.30898
盛	-9.3096
to	-9.31158
中央	-9.31303
每次	-9.3142
嗌	-9.31681
絲	-9.31918
哈	-9.31923
惡	-9.32085
人都	-9.32137
▁a	-9.32233
功能	-9.32326
素	-9.32478
最終	-9.32497
康	-9.32504
思	-9.32565
錫	-9.32578
無綫	-9.32597
鬱	-9.3264
ig	-9.32777
迷	-9.32829
北京	-9.32844
好有	-9.32855
都話	-9.32882
族	-9.33032
支那	-9.33108
ro	-9.33139
罪	-9.33188
la	-9.33387
真心	-9.33524
手機	-9.33647
集團	-9.33758
▁冇	-9.33794
係咩	-9.33955
屌你老母	-9.34049
99	-9.34239
春	-9.3424
乾	-9.34248
人嘅	-9.34253
靈	-9.34301
ex	-9.3431
前線	-9.34342
視	-9.34376
杯	-9.34449
愈	-9.345
伊	-9.34526
現場	-9.34705
iOS	-9.34793
▁to	-9.34855
甲	-9.34888
背	-9.34958
抗爭	-9.35071
立即	-9.35084
老闆	-9.3514
盃	-9.35198
除左	-9.3522
獨	-9.35249
勢	-9.35558
但我	-9.35559
件事	-9.35608
俾你	-9.35656
》（	-9.35716
目	-9.35731
做咗	-9.35793
ic	-9.35816
24》	-9.35902
29	-9.35927
嘈	-9.35945
亦有	-9.3598
衣	-9.36007
迫	-9.36071
鄭	-9.36103
園	-9.36257
v	-9.36365
』	-9.36498
足球	-9.3655
母	-9.36589
俾佢	-9.36755
質	-9.36847
章	-9.37037
睇嚇	-9.37074
網頁	-9.37078
遊行	-9.37126
批	-9.3713
若	-9.37151
係指	-9.37179
無人	-9.37406
嘩	-9.3755
理解	-9.3755
拆	-9.37568
檔	-9.3771
時期	-9.37814
黑警	-9.37923
有幾	-9.38013
然	-9.38208
苦	-9.38372
唉	-9.38391
資源	-9.38408
斬	-9.38421
就得	-9.38489
產品	-9.38508
告	-9.38578
蛋	-9.38584
冠軍	-9.38599
讓	-9.38606
就唔	-9.38822
睇完	-9.38852
永	-9.3888
預	-9.38886
麗	-9.38988
鋪	-9.39087
全球	-9.39208
據	-9.39282
灣	-9.39312
唐	-9.39383
以下	-9.39402
祖	-9.39485
舉	-9.39628
服	-9.39628
你唔	-9.39655
port	-9.39695
都幾	-9.39718
委員會	-9.39737
對手	-9.39786
人物	-9.39877
微	-9.39879
幫你	-9.39998
世紀	-9.40004
st	-9.40221
根	-9.40229
豪	-9.40245
廠	-9.40275
好啦	-9.40448
塔	-9.40512
功	-9.40514
孫	-9.40553
演	-9.40605
2019	-9.40676
叫我	-9.40725
man	-9.4076
唔敢	-9.40828
標	-9.40865
雅	-9.40873
速	-9.40949
舞	-9.4107
咁講	-9.41081
煮	-9.41133
比佢	-9.41216
各位	-9.41324
莊	-9.41678
立即下載	-9.4171
慘	-9.41925
彩	-9.41963
魔	-9.42127
am	-9.42211
純	-9.42273
nd	-9.4235
雨	-9.42352
鎮	-9.42405
it	-9.42473
宮	-9.42509
陰	-9.4276
網上	-9.42761
工程	-9.42796
es	-9.4283
施	-9.42942
狂	-9.42976
廣	-9.42978
con	-9.43071
500	-9.4317
趕	-9.43177
係好	-9.43196
話佢	-9.43208
j	-9.43264
該	-9.43279
有得	-9.43332
。」「	-9.43357
圓	-9.43453
普	-9.43526
巖	-9.43603
FB	-9.43639
可唔	-9.43663
都唔知	-9.43665
家庭	-9.4368
丁	-9.43795
架啦	-9.43799
5.	-9.43885
個陣	-9.4395
温	-9.44008
偷	-9.44042
呢隻	-9.44101
夏	-9.44116
」、「	-9.4418
暗	-9.44244
伯	-9.44255
秒	-9.44262
濕	-9.44268
裏便	-9.44462
你個	-9.44467
at	-9.44492
土	-9.44493
做嘢	-9.44537
專頁	-9.44607
部分	-9.4467
大量	-9.44704
—	-9.44835
通過	-9.45042
咋	-9.45055
好想	-9.45077
冰	-9.45192
穿	-9.45194
但佢	-9.45227
作品	-9.45308
嘴	-9.4546
叫佢	-9.45531
免費試睇	-9.45685
主動	-9.45761
健	-9.4593
政策	-9.4614
仁	-9.46178
ice	-9.46185
寧	-9.46316
活	-9.46332
age	-9.46334
Z	-9.4651
交通	-9.4655
善	-9.46643
呢位	-9.46766
抵	-9.46839
父母	-9.46869
勇武	-9.46887
良	-9.46936
▁and	-9.46942
員工	-9.47062
儲	-9.47169
洋	-9.47178
密	-9.47178
去咗	-9.47238
加埋	-9.4724
皇帝	-9.47271
產	-9.47366
凍	-9.47425
息	-9.4746
劍	-9.47474
異	-9.47603
弱	-9.47776
un	-9.47809
納	-9.47837
條女	-9.47891
攝影	-9.47913
置	-9.48008
閪	-9.4807
part	-9.48176
係佢	-9.48205
me	-9.4824
革命	-9.4826
陽	-9.48324
平均	-9.4834
榮	-9.48449
社	-9.48517
館	-9.48521
▁T	-9.486
免費	-9.48615
嫁	-9.48636
引	-9.48737
攻擊	-9.48749
咁大	-9.48765
供	-9.48802
許	-9.4886
朱	-9.48873
沖	-9.48905
個月	-9.48997
縮	-9.49006
去做	-9.49029
有限	-9.49112
羣	-9.49156
嚟到	-9.49178
今	-9.49236
艾	-9.49531
做乜	-9.49532
針	-9.4963
露	-9.49648
核	-9.49892
砌	-9.49946
領	-9.49947
至少	-9.49949
串	-9.49981
君	-9.50008
係要	-9.50098
煩	-9.50113
營	-9.50133
動作	-9.50156
佢哋嘅	-9.50192
倫	-9.50225
私	-9.50259
你都	-9.50274
曹操	-9.50428
>	-9.50543
枱	-9.50642
財	-9.50678
問佢	-9.50762
搬	-9.50786
淨	-9.50824
早前	-9.50913
31	-9.50956
傻	-9.51034
畀佢	-9.51044
旗	-9.51175
呢件事	-9.51186
甩	-9.51196
倉	-9.51202
z	-9.51312
出世	-9.51458
源	-9.51558
仲未	-9.51624
技	-9.51634
創	-9.51738
震	-9.51904
▁又	-9.52089
ent	-9.52136
綠	-9.52222
掂	-9.52277
索	-9.52675
㗎啦	-9.52772
鞋	-9.52967
主持	-9.53122
嗮	-9.53152
軟	-9.53192
警方	-9.5323
摸	-9.5325
身上	-9.53265
牆	-9.53265
叔	-9.53315
佢個	-9.53358
碼	-9.53405
印度	-9.53429
heck	-9.5346
簡	-9.53481
偏	-9.53577
包師傅	-9.53678
淡	-9.53799
故	-9.53844
▁P	-9.53979
app	-9.54001
2000	-9.54091
粵拼	-9.54099
當地	-9.54102
又叫	-9.54211
死咗	-9.54239
ion	-9.54242
傑	-9.54254
▁D	-9.54272
覺	-9.54364
ie	-9.54437
胡	-9.54562
希	-9.54635
臨	-9.54699
讚	-9.54779
探	-9.54803
才	-9.55114
和理非	-9.55135
深度報道	-9.55275
BB	-9.55293
深入社區	-9.5536
皇	-9.55517
踢爆權貴	-9.55527
小時	-9.55603
甘	-9.55634
長期	-9.55654
碟	-9.55665
賭	-9.55711
過咗	-9.56055
現時	-9.56115
害	-9.56147
隔	-9.5632
so	-9.56323
啲嘢	-9.56387
系列	-9.56408
市鎮	-9.56504
ar	-9.56671
覆	-9.56823
~	-9.56892
製	-9.56903
as	-9.56914
line	-9.56918
仲話	-9.57093
牀	-9.5715
韓	-9.57219
你就	-9.57268
負	-9.57277
球迷	-9.57428
35	-9.57514
九龍	-9.57529
▁G	-9.57582
臭	-9.57623
呢個係	-9.5766
杜	-9.57756
餘	-9.57849
一場	-9.57873
舖	-9.57941
lo	-9.57955
玉	-9.57976
咗個	-9.58019
幫我	-9.58211
身份	-9.58228
總統	-9.5824
表演	-9.5837
商場	-9.58526
na	-9.58553
訓練	-9.58604
準	-9.58668
都知	-9.58669
頓	-9.58687
2017	-9.58706
咗佢	-9.58761
剪	-9.58773
乜都	-9.58843
食物	-9.58867
Like	-9.58962
留言	-9.59034
玩家	-9.59088
先係	-9.5909
咁就	-9.59091
因此	-9.59108
ight	-9.59448
遲	-9.5949
fans	-9.59524
耳	-9.5957
set	-9.59589
係你	-9.59593
黎講	-9.59749
足球員	-9.59787
萬元	-9.59834
佢同	-9.59856
建築	-9.59909
風險	-9.59952
唔明	-9.60005
又好	-9.60202
俾我	-9.60204
容	-9.6026
莫	-9.60287
IHKG	-9.60332
叫人	-9.60371
係個	-9.60409
2020	-9.60482
税	-9.60509
調查	-9.60673
可惜	-9.60699
篇	-9.60721
酸	-9.60865
大把	-9.60872
鄉	-9.60876
對住	-9.6091
唔撚	-9.60995
▁M	-9.61038
keep	-9.6108
日前	-9.61175
目前	-9.61189
導演	-9.61197
_	-9.61429
出咗	-9.61434
有乜	-9.61449
▁F	-9.61487
立場	-9.61491
2018	-9.61573
咗好多	-9.61634
環	-9.61663
蟲	-9.61719
咩事	-9.61762
mon	-9.61825
佢又	-9.61884
虎	-9.61948
吸	-9.62135
忍	-9.6222
隨	-9.62262
共產黨	-9.6229
咁做	-9.62338
係由	-9.6238
潮	-9.62522
耐	-9.62714
擊	-9.62826
拜	-9.62832
攞到	-9.62905
組合	-9.62916
謝	-9.62929
相關	-9.63022
2016	-9.63147
係度	-9.63162
囖	-9.63168
雄	-9.63183
錄	-9.63202
扣	-9.63312
梅	-9.63325
眾	-9.63507
▁3	-9.63568
臣	-9.63582
裏面	-9.63615
公佈	-9.63684
陪	-9.63818
資	-9.63849
敢	-9.63896
嗱	-9.63958
文宣	-9.64035
no	-9.6409
別	-9.6415
保持	-9.64205
盒	-9.64206
元朗	-9.64232
廣東	-9.6424
噃	-9.64292
勇	-9.64351
做得	-9.64355
教練	-9.6436
特首	-9.64538
過嚟	-9.64561
儀	-9.64569
ube	-9.64571
湖	-9.64596
自動	-9.64641
佛	-9.64641
你想	-9.64801
喜	-9.64879
標準	-9.64883
咬	-9.64949
盧	-9.65041
呢間	-9.65174
大部分	-9.65215
上海	-9.65241
聯賽	-9.65314
300	-9.65342
▁=	-9.65405
復	-9.65454
阻	-9.65542
走去	-9.65599
依個	-9.65625
就冇	-9.65979
媽	-9.66008
先啦	-9.66087
佢都	-9.66246
説話	-9.66307
▁d	-9.66334
唔駛	-9.66372
魯	-9.66383
到佢	-9.66517
打機	-9.66692
6.	-9.66705
避	-9.66717
沉	-9.66746
例	-9.6683
落嚟	-9.66891
川	-9.66914
▁呢度	-9.6695
氏	-9.66972
俄羅斯	-9.67025
上嘅	-9.67037
談	-9.67338
ta	-9.67346
我好	-9.67511
曼	-9.67529
托	-9.67535
打算	-9.67596
啲咩	-9.6765
話要	-9.67673
co	-9.67739
冇咩	-9.678
加拿大	-9.67805
煲	-9.67827
戰爭	-9.67885
年前	-9.67886
無得	-9.67943
訂	-9.67974
蛇	-9.68012
敏	-9.68067
廿	-9.6811
比我	-9.68213
未有	-9.68262
郭	-9.68273
叻	-9.68277
展	-9.68315
都得	-9.68367
果個	-9.68392
英超	-9.68413
為左	-9.68435
][	-9.68614
人民	-9.689
餅	-9.6897
mo	-9.69006
甜	-9.69089
藝人	-9.6909
林鄭	-9.6912
首次	-9.69164
演出	-9.69252
掃	-9.69261
霸	-9.69327
2010	-9.69328
呢次	-9.69425
律師	-9.69451
綫	-9.69479
滑	-9.6952
閘	-9.69755
哋	-9.69812
演唱會	-9.69865
ance	-9.69921
到咗	-9.6995
某啲	-9.70043
忙	-9.70059
球會	-9.70097
洛	-9.70111
歐	-9.70175
The	-9.70232
珠	-9.70369
殘	-9.70508
建立	-9.7065
司	-9.70667
抄	-9.70692
炮	-9.7073
對佢	-9.70767
就喺	-9.70813
冠	-9.70847
▁+	-9.70947
ha	-9.70994
摩	-9.71008
45	-9.71203
狀態	-9.71214
的音效	-9.71241
▁哦	-9.71471
意大利	-9.71541
拍攝	-9.71559
講嘢	-9.71579
助	-9.71601
休息	-9.71624
勞	-9.71778
庫	-9.71886
要做	-9.71947
辦	-9.71961
報道	-9.72057
改善	-9.72074
持	-9.72149
賢	-9.72254
嗯	-9.72355
is	-9.72519
輝	-9.72662
狼	-9.72752
▁re	-9.72785
賊	-9.728
蔡	-9.72836
堆	-9.72892
ra	-9.72912
務	-9.72939
*	-9.72966
ac	-9.72994
豐	-9.731
直播	-9.73106
我又	-9.73119
女友	-9.73209
敵	-9.73242
近年	-9.73353
寄	-9.73428
抹	-9.73514
睇過	-9.73517
ly	-9.73573
共和國	-9.73633
我冇	-9.73696
撰文	-9.73755
止	-9.73798
積	-9.73805
——	-9.73835
泥	-9.73848
條友	-9.73929
隻手	-9.7394
00	-9.73941
相反	-9.73971
唔理	-9.74032
航	-9.74128
▁pro	-9.74195
碌	-9.74217
箱	-9.74301
降	-9.74352
都算	-9.74401
衞	-9.74474
位於	-9.74512
基金	-9.7464
暴	-9.74651
背景	-9.7467
ho	-9.74682
載	-9.7469
府	-9.74726
蘋果專題	-9.74746
㖭	-9.74798
歷	-9.74847
fd	-9.74859
work	-9.74866
痴	-9.7489
及調查組	-9.74945
八方	-9.74959
泛民	-9.75017
男友	-9.75078
▁嘩	-9.75106
婆	-9.75166
連登仔	-9.75172
懶	-9.75356
賴	-9.75398
今季	-9.7541
課	-9.75449
犯	-9.75476
署	-9.75518
▁好啦	-9.75536
2007	-9.75568
免	-9.75678
又會	-9.75733
騎	-9.75785
俊	-9.75814
胸	-9.75916
兜	-9.75948
就好	-9.76026
配合	-9.761
惠	-9.76145
境	-9.76151
堅	-9.76176
唔講	-9.76222
佳	-9.76237
歲嘅	-9.76245
mail	-9.76313
▁de	-9.76528
我有	-9.76626
over	-9.76635
:「	-9.76636
額	-9.76668
像	-9.76698
哥哥	-9.76709
評	-9.76723
敗	-9.76828
你又	-9.76845
$	-9.76872
超級	-9.76917
割	-9.76979
司機	-9.7698
2006	-9.77107
li	-9.77151
諗下	-9.77159
打到	-9.77239
洪	-9.77321
闊	-9.77362
陸	-9.77377
紀錄	-9.77413
做野	-9.77438
證據	-9.77474
廣場	-9.77552
呢條	-9.77561
秀	-9.77693
屌你	-9.77709
sa	-9.77789
2012	-9.77813
窮	-9.77839
大型	-9.77912
要用	-9.77954
之餘	-9.78115
掉	-9.78124
往	-9.78138
判	-9.78156
咁你	-9.78345
官方	-9.78352
徐	-9.78382
ce	-9.78462
膽	-9.78553
西班牙	-9.78555
捐	-9.78631
渣	-9.78648
鍾	-9.78785
貪	-9.78874
望住	-9.79148
中環	-9.792
蓋	-9.79228
紅色	-9.79377
橫	-9.79429
最新	-9.79435
熊	-9.79539
憑	-9.79723
佢會	-9.79732
伏	-9.79781
話係	-9.79786
好多時	-9.79802
曹	-9.79834
off	-9.79914
算係	-9.79972
▁p	-9.79982
成交	-9.80056
植物	-9.80095
支援	-9.80097
噴	-9.80138
撲	-9.80328
feel	-9.80481
增	-9.80488
柏	-9.80514
慶	-9.80582
松	-9.80592
ai	-9.80609
操	-9.80709
項	-9.80751
人數	-9.8078
剛	-9.80784
又冇	-9.80806
2008	-9.80827
浸	-9.80884
厚	-9.80926
劉備	-9.80937
造成	-9.80955
薄	-9.81041
版本	-9.81068
2015	-9.81078
武器	-9.81118
仍	-9.81229
買咗	-9.813
網民	-9.81322
il	-9.81329
里	-9.81358
想要	-9.81378
前日	-9.8138
閃	-9.81402
都係咁	-9.81429
鹹	-9.81537
鼻	-9.81566
趁	-9.8158
癲	-9.8159
會議	-9.81597
令佢	-9.81623
灰	-9.81736
作用	-9.81781
要有	-9.8193
藍絲	-9.82019
折	-9.82081
豆	-9.82218
HK	-9.82284
TVB	-9.82408
妳	-9.82422
存	-9.82426
結構	-9.82435
悶	-9.8251
最佳	-9.82596
實力	-9.82647
唔再	-9.827
諾	-9.82749
限	-9.82791
户	-9.82796
互	-9.82879
撈	-9.82917
▁b	-9.82973
髮	-9.83023
姓	-9.83167
個仔	-9.83235
本土	-9.83251
ia	-9.83287
入到	-9.83375
萬人	-9.83413
唔算	-9.83424
拳	-9.8353
︰	-9.83656
召集	-9.83656
趙	-9.83695
我都係	-9.83712
繼	-9.83788
候	-9.83821
um	-9.83969
做緊	-9.83995
羊	-9.84141
&	-9.84217
進入	-9.8427
諗到	-9.84296
開放	-9.84335
就知	-9.84392
gram	-9.84408
咁耐	-9.84439
席	-9.84446
高層	-9.84446
穩	-9.84569
猛	-9.84604
近日	-9.84763
ma	-9.84922
2014	-9.85014
監	-9.85108
民意	-9.8511
叫你	-9.85116
童	-9.85224
400	-9.85263
呎	-9.85277
入嚟	-9.85356
int	-9.8541
峯	-9.85431
」「	-9.85662
蝦	-9.85746
appl	-9.85756
嚟㗎	-9.85801
駁	-9.85832
滅	-9.85835
帝	-9.85898
唔啱	-9.85898
英雄	-9.85932
填	-9.85943
含	-9.85947
▁K	-9.85967
炸	-9.85975
7.	-9.86003
尖	-9.86262
捱	-9.86437
碎	-9.86441
mi	-9.86558
公主	-9.86573
重點	-9.86593
33	-9.86667
移	-9.86722
變化	-9.86776
平台	-9.86851
變咗	-9.86928
小弟	-9.86953
是	-9.87024
森	-9.8705
add	-9.8705
▁5	-9.87081
多咗	-9.87107
扯	-9.87113
OK	-9.87121
將軍	-9.8717
藏	-9.87197
賽事	-9.8729
呢類	-9.87293
2011	-9.87304
秋	-9.87345
刻	-9.87359
網站	-9.87375
集中	-9.874
導致	-9.87437
辣	-9.87447
無乜	-9.87688
父	-9.8773
鄧	-9.8778
幹	-9.87948
帶住	-9.87978
模式	-9.87986
個心	-9.88004
多人	-9.88059
採訪	-9.88242
掟	-9.883
𠸏	-9.88329
否則	-9.88516
獲得	-9.88567
減少	-9.88636
付出	-9.88651
無限	-9.8869
鏡頭	-9.88752
溝	-9.88766
旺角	-9.88769
具	-9.8878
▁|	-9.88804
有效	-9.88885
▁for	-9.88974
聚	-9.89
敵人	-9.89005
曉	-9.89055
兩隻	-9.89222
褲	-9.89262
雜	-9.89342
搏	-9.89346
5%	-9.89416
仲會	-9.8942
廳	-9.89423
邏輯	-9.89438
連續	-9.89511
致	-9.89529
左個	-9.89668
▁E	-9.89771
終	-9.8978
麻	-9.89817
戀	-9.89878
公里	-9.89929
翼	-9.9006
會喺	-9.90141
都只係	-9.90154
並且	-9.90187
唧	-9.90252
題	-9.90252
2005	-9.90283
京	-9.90306
媒體	-9.90381
宗教	-9.90407
play	-9.90432
頸	-9.90439
？」「	-9.9047
2009	-9.90539
賓	-9.90547
邨	-9.9055
▁g	-9.90552
id	-9.90586
拒絕	-9.90663
挑戰	-9.90822
ity	-9.9083
卷	-9.90866
用咗	-9.90963
鬆	-9.91116
取消	-9.91134
ba	-9.91221
遮	-9.91261
優	-9.91474
你睇	-9.91478
職業	-9.91516
益	-9.91637
$1	-9.91735
32	-9.91778
另一	-9.91829
澤	-9.91839
生存	-9.91854
師傅	-9.91872
各種	-9.91883
宋	-9.91891
back	-9.91898
郡	-9.919
be	-9.9208
丹	-9.92082
mm	-9.92128
洲	-9.92155
當初	-9.92196
無咩	-9.92319
78	-9.92404
奴	-9.92435
去睇	-9.92451
自殺	-9.92512
48	-9.92568
枝	-9.92612
刷	-9.92618
菲	-9.92638
欣	-9.92665
戒	-9.92689
港鐵	-9.92782
術	-9.92797
售	-9.92837
小小	-9.92852
護	-9.92855
狀	-9.92885
嗰邊	-9.92907
巴西	-9.92994
ence	-9.9305
中場	-9.93053
（）	-9.93057
貝	-9.93082
隆	-9.93113
齋	-9.93124
浪	-9.93266
婚	-9.93283
前鋒	-9.93285
係點	-9.93301
end	-9.93315
抱	-9.93321
男女	-9.93417
go	-9.93523
爬	-9.93629
威爾克	-9.93652
力量	-9.9369
唔怕	-9.93694
導	-9.93718
東京	-9.9377
咁撚	-9.93818
噉啊	-9.93835
小説	-9.93865
鐵路	-9.93917
top	-9.9404
獸	-9.94119
再次	-9.94146
井	-9.94154
38	-9.94178
勒	-9.94188
▁係喎	-9.94266
汁	-9.94286
嘅野	-9.94325
回覆	-9.94342
per	-9.94405
韋	-9.94406
竹	-9.94425
唔太	-9.94501
遇	-9.9461
time	-9.94623
留低	-9.94635
得返	-9.9468
窗	-9.94695
陪你	-9.94746
lock	-9.94833
顏色	-9.94856
面積	-9.94895
form	-9.94904
入咗	-9.94915
走咗	-9.94934
脱	-9.94943
2013	-9.94965
動畫	-9.95004
隊友	-9.95035
▁f	-9.95165
冧	-9.95238
的士	-9.9525
出發	-9.95351
馮仁昭	-9.95455
ps	-9.95495
▁4	-9.95501
烏	-9.9556
道德	-9.95575
ur	-9.95637
控	-9.95657
緣	-9.95727
IT	-9.95762
代理	-9.9578
佢有	-9.95788
慳	-9.95789
億元	-9.9585
症	-9.95855
承	-9.95929
au	-9.95964
薩	-9.96218
端	-9.96313
思考	-9.96371
刺	-9.9639
⋯⋯	-9.96393
疫情	-9.96556
錦	-9.96627
巖巖	-9.96667
將佢	-9.96669
畀我	-9.96706
好驚	-9.96731
cut	-9.96776
到你	-9.96873
見佢	-9.96955
仲好	-9.97021
出口	-9.97078
泰國	-9.97164
軍隊	-9.97226
唔止	-9.97232
呢段	-9.97286
PS	-9.97387
輕鬆	-9.97401
航空	-9.97466
ip	-9.97486
▁W	-9.97511
乘客	-9.97521
▁m	-9.97559
號碼	-9.97579
意外	-9.97585
8.	-9.976
浮	-9.97618
咁好	-9.97715
忠	-9.97752
ga	-9.97755
天氣	-9.97839
班人	-9.97858
好唔	-9.97953
▁姐姐	-9.97978
咪又係	-9.98059
畀你	-9.98174
咁多人	-9.98205
任務	-9.9829
涼	-9.98389
q	-9.98428
吊	-9.98437
個女	-9.98442
你有	-9.98472
show	-9.98482
▁R	-9.98623
—）	-9.9863
2003	-9.98652
注	-9.98724
),	-9.9875
1000	-9.98784
op	-9.98851
果時	-9.98863
質疑	-9.98917
五毛	-9.9896
旺	-9.98998
Re	-9.98998
一時	-9.99024
麵	-9.9905
持續	-9.99059
son	-9.99101
推介	-9.9912
36	-9.99132
恆	-9.99167
個鐘	-9.99257
唔做	-9.99274
部機	-9.99324
唔掂	-9.99398
抗	-9.99411
ad	-9.99475
係想	-9.99493
大聲	-9.99613
顧	-9.99773
激	-10.0006
現金	-10.0011
項目	-10.0013
fo	-10.0024
第四	-10.0028
呢樣	-10.0034
續	-10.0034
55	-10.0037
糧	-10.004
face	-10.004
體育	-10.0047
聞	-10.0048
帽	-10.0049
蝕	-10.005
會員	-10.0051
董事	-10.0056
品牌	-10.0065
爽	-10.0067
arch	-10.008
董	-10.0085
有心	-10.0094
唔信	-10.011
疑	-10.0112
▁睇埋	-10.0113
箭	-10.0124
巨	-10.0136
加油	-10.0137
均	-10.014
透露	-10.0141
漫畫	-10.0144
浪費	-10.015
乘	-10.0153
話我	-10.0154
耀	-10.0158
咁快	-10.0165
慧	-10.0166
鳥	-10.0167
就係咁	-10.0169
優惠	-10.0171
邦	-10.0188
兩人	-10.0196
hi	-10.0199
鎖	-10.0201
變左	-10.0203
日文	-10.0204
為主	-10.0212
棍	-10.0223
磨	-10.0227
700	-10.0229
▁t	-10.0232
all	-10.0234
年死	-10.0236
庭	-10.0242
」（	-10.025
腰	-10.026
雙方	-10.0262
截	-10.0263
敬	-10.027
港股	-10.0275
域	-10.0281
入場	-10.0281
驗	-10.0282
蛋糕	-10.0283
紀念	-10.0283
返黎	-10.0288
賤	-10.029
籍	-10.0292
▁睇	-10.0295
list	-10.0299
象	-10.0306
粗	-10.0317
瑞	-10.0322
等佢	-10.0322
aily	-10.0332
痕	-10.0335
一堆	-10.0355
無啦啦	-10.0356
黃色	-10.036
磅	-10.0374
池	-10.0376
AC	-10.0383
側	-10.0383
fb	-10.0385
越南	-10.0388
結束	-10.0389
既事	-10.041
ke	-10.0414
肚	-10.0418
掌	-10.0427
一名	-10.0432
債	-10.0438
都仲	-10.0439
家陣	-10.044
咁啱	-10.0447
怡	-10.0452
瘦	-10.0456
官員	-10.0461
騷	-10.0462
編	-10.0469
協	-10.0477
ri	-10.048
睇返	-10.0483
佢唔	-10.0485
好啲	-10.0487
一向	-10.0488
爆發	-10.0488
罷工	-10.0497
ol	-10.05
mark	-10.0503
咁話	-10.0507
就咁	-10.0511
閒	-10.0518
大戰	-10.0528
你會	-10.0533
漏	-10.0539
洞	-10.054
01	-10.0541
就唔會	-10.0545
ject	-10.0554
變得	-10.057
view	-10.0572
突	-10.058
享受	-10.0587
啟	-10.0587
plan	-10.0588
文件	-10.0589
75	-10.0592
樽	-10.0599
GB	-10.0606
專家	-10.0607
600	-10.061
得唔得	-10.0612
學家	-10.0616
虛	-10.0626
ca	-10.0627
瞓覺	-10.0635
88	-10.0638
紫	-10.0644
新界	-10.0646
hea	-10.0647
昌	-10.065
ine	-10.065
逐	-10.0651
2004	-10.0657
;	-10.0672
嗰日	-10.0682
冇咁	-10.0685
主場	-10.0686
風格	-10.0689
呢就	-10.0689
佢仲	-10.0696
備	-10.0697
鴨	-10.0701
棄	-10.0705
▁"	-10.0707
念	-10.0718
設施	-10.0723
》、《	-10.0726
頁	-10.0726
團體	-10.073
鼓	-10.0732
天下	-10.0733
赤	-10.0734
蓮	-10.0737
累	-10.074
call	-10.074
暖	-10.0744
ers	-10.075
襯	-10.0753
正確	-10.0753
宿	-10.0765
化學	-10.077
賀	-10.0772
但又	-10.078
就叫	-10.078
罰	-10.0786
哩	-10.0788
深圳	-10.079
係用	-10.0792
扭	-10.0794
見到佢	-10.0803
懷	-10.0805
朝早	-10.0806
新加坡	-10.0806
▁H	-10.0813
pe	-10.0826
立即按此	-10.0831
龜	-10.0832
最少	-10.0832
拼音	-10.084
習	-10.084
嗎	-10.0841
嚴	-10.0848
娜	-10.0849
裝修	-10.0854
殼	-10.0857
權力	-10.0861
bo	-10.0867
碗	-10.0868
全國	-10.0872
ot	-10.0877
被人	-10.088
工具	-10.0888
呢班	-10.089
34	-10.0901
議	-10.0905
作出	-10.0908
係冇	-10.091
case	-10.092
嚟架	-10.0925
攪	-10.0931
冇咗	-10.0931
都想	-10.0932
𡃉	-10.0935
0.	-10.0941
交流	-10.0949
食完	-10.0949
玻璃	-10.0957
係啊	-10.096
1999	-10.0961
乳	-10.0965
馬來西亞	-10.0967
新手	-10.0968
劃	-10.0973
壽	-10.0975
待	-10.0985
屍	-10.0992
巨人	-10.0996
凱	-10.1001
莉	-10.1021
98	-10.1021
匿	-10.1025
嗰種	-10.1044
提升	-10.1045
參	-10.105
略	-10.1055
係無	-10.1056
sign	-10.1059
揚	-10.1066
觀察	-10.1072
瓜	-10.1075
高級	-10.1081
灣仔	-10.1085
宇	-10.1085
辛	-10.1104
集會	-10.1105
唔似	-10.111
參選	-10.1113
海外	-10.1117
2022	-10.1119
亮	-10.1132
辭	-10.1132
審	-10.1133
浩	-10.1136
鹽	-10.1136
擔任	-10.1137
盲	-10.1139
用緊	-10.1144
上到	-10.1145
病人	-10.1146
對我	-10.1147
嚟緊	-10.1151
物質	-10.1153
升級	-10.1156
幅	-10.1165
嫌	-10.117
粉絲	-10.1172
柱	-10.1179
▁x	-10.1184
der	-10.1187
捧	-10.1188
廟	-10.119
滿足	-10.1191
徒	-10.1191
羅馬	-10.1201
取代	-10.1209
醜	-10.1217
ate	-10.1225
消	-10.1226
命令	-10.1227
時事	-10.1234
隱	-10.1245
▁N	-10.1246
吖嘛	-10.1249
明星	-10.1259
開發	-10.1262
榜	-10.1267
ty	-10.1272
注意	-10.1273
細胞	-10.1273
腸	-10.128
譯	-10.1281
9.	-10.1282
你有冇	-10.1288
戰鬥	-10.129
想做	-10.1294
濟	-10.1306
馮	-10.1306
全年睇	-10.1309
反正	-10.131
大會	-10.1311
願	-10.1312
姐係	-10.1318
引擎	-10.1325
指出	-10.1325
vel	-10.1326
徵	-10.1328
幕	-10.1331
等我	-10.1334
我唔知	-10.1336
⋯	-10.1339
來自	-10.1343
死亡	-10.1349
晉	-10.1353
▁on	-10.1355
得出	-10.1359
兩邊	-10.1359
不可	-10.1361
青年	-10.1362
一帶	-10.1368
對象	-10.1369
幣	-10.1378
噉就	-10.138
鋼	-10.1384
怨	-10.1385
先知	-10.1389
消失	-10.1391
理性	-10.1393
講野	-10.1393
攰	-10.1394
玲	-10.1403
大埔	-10.1407
忍唔住	-10.1411
測試	-10.1414
97	-10.1422
分化	-10.1426
唔出	-10.1427
邀請	-10.1428
孔明	-10.1435
資格	-10.1438
左佢	-10.1438
撳	-10.1439
故仔	-10.144
被捕	-10.1441
課程	-10.1447
態	-10.1451
撚到	-10.146
有心人撐	-10.1463
蒙	-10.1467
會係	-10.1468
汗	-10.1478
昨日	-10.1484
燕	-10.1486
係到	-10.1486
電郵	-10.1492
資金	-10.1501
黃金	-10.1504
尿	-10.1506
內部	-10.1517
係唔	-10.1523
恒指	-10.1526
os	-10.1535
勸	-10.1537
讀者	-10.1542
剩係	-10.155
皮膚	-10.1559
39	-10.1561
表面	-10.1562
08	-10.1567
顯	-10.1576
呢場	-10.1587
元素	-10.1596
親自	-10.1601
做左	-10.1615
裡面	-10.1616
保安	-10.1618
軍事	-10.1624
睇你	-10.1627
出事	-10.1629
仇	-10.163
振	-10.1633
上車	-10.1636
事後	-10.1651
週一至週	-10.1655
ve	-10.1659
藝	-10.1666
喺呢個	-10.1671
郎	-10.1676
ang	-10.168
有唔少	-10.1698
二十	-10.1712
滾	-10.1717
錶	-10.1718
開咗	-10.1719
奉	-10.1722
要去	-10.1729
會用	-10.1734
佢既	-10.1736
唔會再	-10.1737
btw	-10.1741
病毒	-10.1742
廣播	-10.1749
避免	-10.1752
te	-10.1759
cap	-10.1764
紀	-10.1773
突破	-10.1775
蠢	-10.1775
寺	-10.178
左好多	-10.1781
im	-10.1783
評論	-10.1785
澳	-10.1789
唔準	-10.1792
侵	-10.1794
號綫	-10.1795
模	-10.18
全面	-10.18
不能	-10.1801
議會	-10.1811
令我	-10.1813
領隊	-10.1816
各自	-10.1818
尚	-10.1827
咩嘢	-10.1827
ting	-10.1834
able	-10.1836
揸住	-10.1843
ti	-10.1848
材料	-10.1859
▁有冇	-10.186
卓	-10.1861
中華民國	-10.1868
汽車	-10.1871
嗰隻	-10.1871
▁I	-10.1872
玩具	-10.1877
阻止	-10.1878
日常	-10.1883
方案	-10.1884
ir	-10.1885
休	-10.1887
奪	-10.1889
▁is	-10.1889
▁up	-10.191
英格蘭	-10.191
曆	-10.1919
凡	-10.1921
pt	-10.1924
飲食	-10.1925
近期	-10.193
大人	-10.1931
bb	-10.1932
等到	-10.1934
咩都	-10.1936
老竇	-10.1944
空氣	-10.1949
噉嘅	-10.1949
統	-10.1957
帝國	-10.1959
紋	-10.1964
佢好	-10.1968
果啲	-10.1974
sh	-10.1981
鮮	-10.1982
1,	-10.1982
pm	-10.1988
登記	-10.1991
發揮	-10.1997
作客	-10.2005
月台	-10.2006
知唔知	-10.2011
飽	-10.2013
又點	-10.2013
妹妹	-10.2028
基礎	-10.2029
進攻	-10.2031
yout	-10.2035
自我	-10.2038
95	-10.2039
魔法	-10.2039
荃灣	-10.2043
僕	-10.2043
須	-10.2047
同佢講	-10.2048
ki	-10.2056
週	-10.2057
缺	-10.2058
寒	-10.2058
聯盟	-10.2059
sir	-10.206
嚿	-10.2062
goog	-10.208
罷	-10.208
瘋狂	-10.2097
中嘅	-10.21
決	-10.2101
痴線	-10.2115
謀	-10.2128
匯	-10.2128
樓價	-10.2129
公屋	-10.2134
己	-10.2134
買樓	-10.2135
咁我	-10.2139
晴	-10.2141
好喇	-10.2143
了	-10.2147
擋	-10.2147
僅	-10.2159
IG	-10.216
過左	-10.2162
日期	-10.2165
幼	-10.2166
▁10	-10.2168
華人	-10.2171
▁be	-10.2175
cial	-10.2178
彭	-10.218
潛	-10.2182
2002	-10.219
荷蘭	-10.2191
load	-10.2194
64	-10.2194
棋	-10.2194
事務	-10.2195
蟹	-10.2196
咁既	-10.2197
坑	-10.2197
優勢	-10.22
珍	-10.22
餵	-10.2202
典	-10.2207
聯合	-10.221
like	-10.221
孝	-10.2215
手上	-10.222
65	-10.2225
勢力	-10.2233
委員	-10.2238
Face	-10.2252
宇宙	-10.2256
你咁	-10.2257
銅鑼灣	-10.226
ON	-10.2264
殺人	-10.2277
一對	-10.2278
喺呢度	-10.2279
湧	-10.2282
拎住	-10.2282
1997	-10.2282
sp	-10.2288
pass	-10.2288
萊	-10.2291
巴絲	-10.2291
▁e	-10.2295
佢做	-10.2296
銅	-10.23
Ro	-10.23
需	-10.2302
兆	-10.2312
食咗	-10.2313
會好	-10.2322
防守	-10.2326
link	-10.2327
攬	-10.2332
ung	-10.2339
粵	-10.2342
名單	-10.2344
800	-10.2344
譚	-10.2345
又無	-10.2347
決賽	-10.2347
物業	-10.2358
金屬	-10.2363
發出	-10.2367
呼	-10.2369
68	-10.2369
侯	-10.2376
好多嘢	-10.2381
隊長	-10.2381
ul	-10.2385
85	-10.2387
咀	-10.239
撚左	-10.2394
烏克蘭	-10.2403
其餘	-10.2406
文學	-10.2407
一齣	-10.2414
模型	-10.2425
ount	-10.2429
宋江	-10.2429
韻	-10.2434
簡稱	-10.2435
send	-10.2435
ant	-10.2437
經營	-10.2443
效	-10.2446
▁con	-10.2446
家族	-10.2449
中意	-10.2469
多左	-10.2472
當選	-10.2478
▁喂	-10.2486
roup	-10.2488
ng	-10.2492
欄	-10.2494
來源	-10.2494
疫苗	-10.2499
grad	-10.25
好嘢	-10.2502
睇落	-10.2502
你去	-10.2507
就無	-10.2509
逢	-10.2524
佐	-10.2524
記錄	-10.2529
買左	-10.253
一手	-10.2531
玩到	-10.2543
旁	-10.2546
一味	-10.2548
要睇	-10.255
宜	-10.2553
出左	-10.2555
得咁	-10.256
到我	-10.2561
orry	-10.2562
瑪	-10.2571
live	-10.2576
個時	-10.2577
37	-10.2579
呂	-10.258
and	-10.2583
上嚟	-10.2583
範	-10.2587
sup	-10.2592
發行	-10.2602
國民	-10.2604
tal	-10.2605
體蘋果	-10.261
尊	-10.2614
皇上	-10.2622
琴	-10.2623
iPho	-10.2628
調整	-10.2629
睇波講波	-10.263
架喇	-10.2635
犧牲	-10.2643
祥	-10.2648
爺	-10.2649
想知	-10.2655
正如	-10.2655
偶像	-10.2659
da	-10.266
聲音	-10.2661
涉及	-10.2663
窿	-10.2665
潘	-10.2669
詳情	-10.2671
廢老	-10.2678
呢樣嘢	-10.2678
用家	-10.2679
最大嘅	-10.2681
中華人民	-10.2685
孔	-10.2689
程式	-10.2691
nnel	-10.2694
至今	-10.2695
共同	-10.2697
壯	-10.2704
ner	-10.2706
全新	-10.2707
1）	-10.2708
成件事	-10.2714
次次	-10.2722
你咪	-10.2724
指數	-10.2725
llow	-10.2725
氹	-10.2725
週年	-10.2728
女子	-10.2728
win	-10.2733
the	-10.274
無法	-10.274
銷	-10.274
光復	-10.2747
淺	-10.2749
記憶	-10.2757
ap	-10.2757
社區	-10.2757
末	-10.2766
收皮	-10.2766
嚟嘅	-10.2767
Live	-10.277
策略	-10.2771
唔起	-10.2771
剩	-10.2783
佩	-10.2785
ry	-10.2792
難度	-10.28
我睇	-10.2807
ph	-10.2815
需求	-10.2817
hk	-10.282
攝	-10.2821
▁you	-10.2821
耶	-10.2824
尺	-10.2825
嘢食	-10.2836
替	-10.2842
玩法	-10.2847
年輕	-10.2848
附	-10.2851
飾	-10.2862
到仆街	-10.2864
落車	-10.2864
睇佢	-10.2866
女士	-10.2869
▁Ch	-10.287
係呀	-10.2873
憎	-10.2879
去揾	-10.2885
師父	-10.2889
44	-10.2903
下午	-10.2903
翠	-10.2909
毒撚	-10.2909
炎	-10.2916
但你	-10.2923
威脅	-10.2925
賞	-10.2929
vi	-10.2935
作者	-10.2935
梗	-10.2944
劑	-10.2944
核心	-10.2948
揾佢	-10.295
一支	-10.295
YouT	-10.2951
係最	-10.2951
保留	-10.2955
樓上	-10.2956
出手	-10.2959
What	-10.2961
胎	-10.2968
輸出	-10.2968
team	-10.2969
感染	-10.2971
前晚	-10.2977
ical	-10.2981
預計	-10.2981
連接	-10.2982
放喺	-10.2983
透	-10.2988
俠	-10.2994
tive	-10.2996
frie	-10.2999
博士	-10.3
ary	-10.3001
100%	-10.3001
恨	-10.3002
鏈	-10.3006
臉	-10.3011
嚮	-10.3011
神經	-10.3012
充	-10.3014
ck	-10.3017
街道	-10.3031
若果	-10.3035
嗰班	-10.3037
出道	-10.3037
新嘅	-10.3044
我去	-10.3044
逾	-10.3056
冬	-10.3056
綠色	-10.3059
做乜嘢	-10.3062
裝備	-10.3065
去年	-10.3068
用嘅	-10.3069
災	-10.3076
檢查	-10.3078
條片	-10.3078
旗下	-10.3079
亦都係	-10.3083
$2	-10.3085
薪	-10.3085
更好	-10.3087
裙	-10.3101
乜野	-10.3103
啲錢	-10.3108
土地	-10.311
隻腳	-10.3113
買到	-10.3117
協會	-10.3118
預測	-10.312
用到	-10.3133
TV	-10.3138
誠	-10.3141
各地	-10.3147
CD	-10.3156
家下	-10.316
做好	-10.317
非洲	-10.3172
動力	-10.3174
叉	-10.3174
do	-10.3175
十八	-10.3176
▁6	-10.3178
現身	-10.3182
早排	-10.3189
計算	-10.3191
2001	-10.3197
欠	-10.3197
奧運	-10.3199
偽	-10.3203
Sa	-10.3203
測	-10.3206
兇	-10.3208
大哥	-10.3218
呢樣野	-10.3219
蘇聯	-10.3221
淫	-10.3231
比喻	-10.3233
咁咪	-10.3234
後期	-10.3244
被自殺	-10.3245
矮	-10.3247
潔	-10.3248
De	-10.3249
di	-10.3249
久	-10.325
要揾	-10.3253
反抗	-10.3258
軒	-10.3261
軟件	-10.3264
Co	-10.3267
一面	-10.3268
唔用	-10.328
馬路	-10.3289
文章	-10.329
險	-10.329
畢	-10.3294
能量	-10.33
驚訝	-10.3311
客人	-10.3311
味道	-10.3316
楚	-10.3343
攞咗	-10.3347
警員	-10.3351
新人	-10.3357
歐聯	-10.3359
紐約	-10.336
物件	-10.3362
▁8	-10.3363
早期	-10.3372
做埋	-10.3373
down	-10.3377
蘋果日報	-10.338
伸	-10.3381
貨幣	-10.3384
好高	-10.3391
排名	-10.3391
泉	-10.3395
拋	-10.3396
跳舞	-10.3396
hare	-10.3398
幾百	-10.3399
地址	-10.34
▁O	-10.3402
去左	-10.3414
擠	-10.3421
ning	-10.3424
Goog	-10.3426
42	-10.3426
阿仙奴	-10.3433
提醒	-10.3438
▁Re	-10.344
投入	-10.3441
只見	-10.3442
婆婆	-10.3446
吋	-10.3455
咦	-10.3457
投降	-10.3459
統治	-10.3462
遺	-10.3462
for	-10.3471
約定你	-10.3475
義士	-10.3479
爭議	-10.3491
ord	-10.3495
43	-10.3503
岸	-10.3504
太大	-10.3504
踏	-10.3511
俄	-10.3511
揾人	-10.3513
紮	-10.3515
昨	-10.3517
眼鏡	-10.3523
駛	-10.3524
唔俾	-10.3525
礦	-10.3537
serv	-10.3542
營運	-10.3544
民間	-10.3548
有啲人	-10.355
ru	-10.3553
將軍澳	-10.3554
示	-10.3555
▁V	-10.3555
07	-10.3556
港共	-10.356
係真	-10.3563
首歌	-10.3564
CC	-10.3567
ster	-10.3576
人既	-10.3577
總裁	-10.3577
全港	-10.3577
姆	-10.3579
手段	-10.3581
鑊	-10.3581
老友	-10.3581
淋	-10.3585
Game	-10.3586
歡	-10.3588
軸	-10.3597
一按即睇	-10.3598
但唔	-10.3603
回憶	-10.3607
逆	-10.3612
墨	-10.3618
冇嘢	-10.3618
學者	-10.3618
捉住	-10.3626
兒童	-10.3627
心機	-10.3628
作家	-10.3631
感到	-10.3638
乎	-10.3639
ci	-10.3646
區域	-10.3648
患	-10.3656
▁18	-10.3658
貿易	-10.3659
主流	-10.3662
你既	-10.3666
KBS	-10.3667
前後	-10.367
就去	-10.3671
2）	-10.3673
實現	-10.3677
搖	-10.3677
打得	-10.3678
air	-10.3679
特區	-10.3691
醬	-10.3702
戇鳩	-10.3705
揾個	-10.3708
報警	-10.3709
46	-10.3709
what	-10.371
分子	-10.3715
▁:	-10.3715
唔去	-10.3715
烈	-10.372
列車	-10.3722
尋日	-10.3722
反彈	-10.3725
宣	-10.3728
柴	-10.3733
劇集	-10.3736
撻	-10.3738
結論	-10.3739
滙豐	-10.3747
潤	-10.3748
150	-10.3749
美斯	-10.3751
提名	-10.3751
無事	-10.3759
隧道	-10.376
設定	-10.3763
新版	-10.3764
想揾	-10.3765
In	-10.3766
仗	-10.377
獻	-10.3772
%	-10.3772
Se	-10.3779
間房	-10.3782
癮	-10.3782
藤	-10.3786
坦	-10.379
對你	-10.3794
你班	-10.3799
▁7	-10.3801
講咗	-10.3814
越嚟越	-10.3818
歌曲	-10.382
鼠	-10.3825
液	-10.3832
機械	-10.3834
-1	-10.3834
籌	-10.3836
濃	-10.3837
相同	-10.3841
咁易	-10.3843
凌晨	-10.3847
Lo	-10.3849
順利	-10.3855
失望	-10.3866
爐	-10.3873
放工	-10.3874
丫	-10.3877
最低	-10.3879
藉口	-10.3886
市區	-10.3886
拗	-10.3891
師兄	-10.3895
裂	-10.3897
港女	-10.3898
lee	-10.3899
69	-10.3909
Ma	-10.3913
舒	-10.3913
啪	-10.3914
就連	-10.3914
1990	-10.3915
桶	-10.3915
out	-10.3916
彎	-10.3917
鳳	-10.392
樓市	-10.3925
回報	-10.3932
某個	-10.3932
▁J	-10.3933
留喺	-10.3933
噚日喺	-10.3934
講咩	-10.3935
甚	-10.394
掣	-10.3945
del	-10.3947
date	-10.3949
特徵	-10.3958
ER	-10.3962
ive	-10.3964
ther	-10.3965
66	-10.3971
Sir	-10.3976
ason	-10.3982
重視	-10.3985
揾食	-10.3987
伍	-10.3992
贏咗	-10.3992
哼	-10.3996
治療	-10.4001
供應	-10.4008
預期	-10.401
主任	-10.4025
專輯	-10.4028
隻狗	-10.4029
婦	-10.403
瓦	-10.4031
1%	-10.4033
熱門	-10.4036
對話	-10.4038
合照	-10.4041
間屋	-10.4041
Pro	-10.4046
柔	-10.405
兩者	-10.4052
死人	-10.4055
亦會	-10.4055
袁	-10.4057
朱古力	-10.4057
上陣	-10.4063
櫃	-10.407
大叫	-10.4073
咗啲	-10.4073
做完	-10.408
呼吸	-10.4083
應承	-10.4089
擰	-10.4089
二手	-10.4092
先後	-10.4093
睇番	-10.4096
斜	-10.4097
綁	-10.4098
男子	-10.4099
買家	-10.41
協助	-10.4104
欸	-10.4104
秘密	-10.4104
Ch	-10.4105
會唔	-10.4105
區議會	-10.4107
Win	-10.4108
寸	-10.4114
女神	-10.4114
ts	-10.4114
以嚟	-10.4114
貸款	-10.4116
ian	-10.4121
一大	-10.413
曬啲	-10.413
未知	-10.4131
臨時	-10.4133
順便	-10.4134
相機	-10.4134
我仲	-10.4139
哎吔	-10.4147
暈	-10.415
㗎喎	-10.415
殺咗	-10.4152
兩種	-10.4161
技巧	-10.417
丸	-10.4172
妮	-10.4173
粵語拼音	-10.4179
乙	-10.418
少女	-10.4181
駐	-10.4185
莎	-10.4194
▁or	-10.4201
我只係	-10.4202
呢句	-10.4202
ist	-10.4205
cha	-10.4207
AR	-10.4207
09	-10.4213
雪糕	-10.4215
保證	-10.422
睇埋	-10.422
找	-10.4221
混	-10.4221
好多野	-10.4224
魂	-10.4226
食嘢	-10.4231
So	-10.4234
都叫	-10.4235
指定	-10.4237
戰術	-10.4238
佢啲	-10.424
貢獻	-10.4243
時事直擊	-10.4245
熄	-10.4246
講明	-10.4247
委	-10.4248
77	-10.425
統一	-10.4252
後悔	-10.4253
黃店	-10.4261
操作	-10.4263
冇曬	-10.4263
攤	-10.4263
只得	-10.4263
我唔想	-10.4267
姑	-10.4268
我無	-10.4271
場面	-10.4271
一粒	-10.4274
聲稱	-10.4275
都唔識	-10.4279
跨	-10.428
中華	-10.4288
Day	-10.4289
籠	-10.4291
高達	-10.4296
㩒	-10.4297
現在	-10.43
程序	-10.4303
名港警爆	-10.4304
荒	-10.4304
都仲係	-10.4306
農	-10.4317
呢套	-10.4317
鋒	-10.432
Le	-10.4323
▁w	-10.4326
祝	-10.4326
企喺	-10.4328
mode	-10.4337
首都	-10.4338
交代	-10.4342
雀	-10.4343
揾錢	-10.4344
坐喺	-10.4346
尋	-10.4365
齊齊	-10.4369
啤啤	-10.437
land	-10.4372
Bo	-10.4376
符	-10.438
團隊	-10.438
穎	-10.4385
tra	-10.4386
對抗	-10.4387
入黎	-10.4387
塵	-10.4394
本人	-10.4395
屋苑	-10.4396
柳	-10.4397
居然	-10.4405
五年	-10.4408
盾	-10.441
精選	-10.4412
大師	-10.4418
high	-10.4418
分類	-10.4421
再加	-10.4422
買入	-10.4427
抖	-10.4428
影到	-10.443
資本	-10.4433
編號	-10.4433
搽	-10.4433
哎呀	-10.4436
敏感	-10.444
奈	-10.4442
47	-10.4443
太空	-10.4449
嘥	-10.4453
沽	-10.4455
飲酒	-10.4458
其後	-10.4464
加強	-10.4466
大台	-10.4466
崇	-10.4468
囡囡	-10.4469
今場	-10.4471
ill	-10.4472
我唔會	-10.4476
你老母	-10.4477
學學會	-10.4479
體驗	-10.4479
嚟自	-10.4479
身為	-10.448
sion	-10.4484
南韓	-10.4486
憲	-10.4491
最強	-10.4493
秦	-10.4495
勝利	-10.4504
one	-10.4505
code	-10.451
採用	-10.4512
你知	-10.4517
鬼佬	-10.4518
好勁	-10.4518
廣州市	-10.4519
經理	-10.4522
建制派	-10.4523
儀式	-10.4525
sell	-10.4527
妙	-10.4529
湊	-10.4531
呢部	-10.4533
性嘅	-10.4533
藍色	-10.4539
邦民	-10.4544
擔	-10.4545
亦唔	-10.4545
收費	-10.4548
上黎	-10.455
符號	-10.4551
訪	-10.4551
巧	-10.4554
落地	-10.4557
全民	-10.4558
lu	-10.4559
延	-10.4561
打完	-10.4564
eg	-10.4566
觸	-10.4569
對比	-10.457
撞到	-10.4571
頻	-10.4573
後者	-10.4583
身材	-10.4584
坐低	-10.4592
96	-10.4593
係唔會	-10.4598
住佢	-10.4601
3）	-10.4601
券	-10.4603
ka	-10.4603
ica	-10.4606
造型	-10.4615
data	-10.4616
得佢	-10.4622
報導	-10.4626
way	-10.4628
▁X	-10.4636
教學	-10.464
出身	-10.4642
05	-10.4647
醫護	-10.4647
喝	-10.465
稿	-10.465
團結	-10.465
棒	-10.4652
ー	-10.4656
樓梯	-10.4657
狀況	-10.4658
揸車	-10.466
進化	-10.4662
左丁山	-10.4663
打擊	-10.4666
採	-10.468
高登	-10.4683
駕	-10.4684
結局	-10.4686
赫	-10.469
take	-10.4693
第五	-10.4697
棟	-10.4701
é	-10.4702
負面	-10.4703
06	-10.4704
實行	-10.4711
雙手	-10.4715
壇	-10.4716
你知唔知	-10.4727
est	-10.4728
呢個站	-10.4729
規劃	-10.4731
享	-10.4735
▁嗰	-10.4736
...」	-10.4737
碧	-10.4742
2%	-10.4745
珊	-10.4747
序	-10.4749
冇錢	-10.4751
麪	-10.4758
芳	-10.4758
care	-10.476
户口	-10.4764
冷靜	-10.4765
不少	-10.4766
唔要	-10.4767
幻想	-10.4773
話唔	-10.4775
逃	-10.4775
古代	-10.4778
皇馬	-10.478
呼籲	-10.478
巴塞	-10.478
art	-10.4781
鹿	-10.4782
錯誤	-10.4787
到場	-10.4788
琳	-10.479
只能	-10.4793
篤	-10.4797
mb	-10.4801
充滿	-10.4801
利物浦	-10.4804
加盟	-10.4807
惹	-10.4809
有冇人	-10.4811
消防	-10.4814
一千	-10.4818
對家	-10.4821
播出	-10.4824
ower	-10.4826
匹	-10.4826
食得	-10.4827
護士	-10.4829
49	-10.4831
他	-10.4833
肺	-10.4834
顏	-10.4835
謙	-10.4836
幾十	-10.4841
嘚	-10.4841
3%	-10.4842
有次	-10.4844
吹水	-10.4846
你做	-10.4852
主力	-10.486
賠	-10.4861
左膠	-10.4863
盈	-10.4864
乃	-10.4869
帶埋	-10.4871
成份	-10.4873
76	-10.4875
三十	-10.4876
Mo	-10.488
放心	-10.4882
落後	-10.4883
▁>	-10.4887
變到	-10.4887
舉辦	-10.4889
基於	-10.4895
爆炸	-10.4896
×	-10.49
人氣	-10.49
多年	-10.4901
否認	-10.4903
球星	-10.4905
煲呔	-10.4906
喉	-10.4908
菌	-10.4912
被告	-10.4914
pf	-10.4916
地理	-10.4919
國王	-10.4923
唔介意	-10.4923
果然	-10.4926
做錯	-10.4928
釐	-10.4931
算啦	-10.4933
落黎	-10.4935
死左	-10.494
120	-10.4944
泊	-10.4946
自私	-10.4962
十六	-10.4962
隨住	-10.4964
跪	-10.4969
陶	-10.4972
扶	-10.4973
曼城	-10.4974
困	-10.4982
PE	-10.4992
心諗	-10.4992
美元	-10.4993
▁飾	-10.4994
總部	-10.4995
類型	-10.4999
乖	-10.5001
▁&	-10.5002
呆	-10.5003
嚟做	-10.501
啲乜嘢	-10.5014
佢對	-10.5014
係睇	-10.5017
辭職	-10.5019
出場	-10.5022
隨便	-10.5023
咁多年	-10.5029
口號	-10.5041
股東	-10.5045
1582	-10.5049
班狗	-10.505
渡	-10.5054
ton	-10.5055
霍	-10.5058
哎	-10.506
揾我	-10.5061
醉	-10.5063
購	-10.5071
Po	-10.5071
嘅説話	-10.5072
疊	-10.5076
亡	-10.5076
領域	-10.5077
sapp	-10.5078
業績	-10.5081
弊	-10.5083
就用	-10.5085
諗緊	-10.5093
Mac	-10.5093
親中派	-10.5093
pa	-10.5094
疏	-10.5101
無錯	-10.5101
La	-10.5101
攬炒	-10.5103
儒畧曆	-10.5111
打咗	-10.5113
話你	-10.5113
積極	-10.5114
策	-10.5118
練習	-10.5119
少咗	-10.512
Li	-10.5123
眉	-10.5126
夫人	-10.5128
堡	-10.513
AI	-10.5131
好啊	-10.5136
OT	-10.5138
責	-10.514
咁高	-10.5142
嚇到	-10.5143
幾句	-10.5146
ni	-10.5147
學術	-10.5147
吞	-10.5149
佔領	-10.5155
駕駛	-10.5157
關鍵	-10.5162
劇本	-10.5162
你仲	-10.5165
孖	-10.5165
住喺	-10.5168
危	-10.5168
拔	-10.5168
沈	-10.517
話喇	-10.5171
min	-10.5172
怒	-10.5177
佢啦	-10.5178
入口	-10.5178
半島	-10.5179
揮	-10.518
清潔	-10.5185
喺佢	-10.5185
bi	-10.5186
專門	-10.5188
層樓	-10.5189
價格	-10.519
物體	-10.519
撥	-10.5193
農曆	-10.5193
IN	-10.5195
等人	-10.52
lv	-10.52
打手	-10.5202
Sam	-10.5202
難以	-10.5205
識睇	-10.5212
拎到	-10.5213
衞生	-10.5215
呢到	-10.5218
始	-10.5222
1998	-10.5225
芝	-10.5225
拍片	-10.5228
額我畧曆	-10.5229
遭	-10.5233
窩	-10.5236
泳	-10.5236
嘔	-10.5237
io	-10.5238
手術	-10.5242
rade	-10.5245
相似	-10.5245
fa	-10.5245
娛果	-10.5247
頻道	-10.5248
反送中	-10.5248
wo	-10.5249
巴黎	-10.5254
ard	-10.5255
當佢	-10.5256
桂	-10.5263
徑	-10.5264
吾	-10.5265
聰	-10.5265
你好	-10.5266
殿	-10.5268
公元	-10.5268
期待	-10.5273
巡	-10.5274
磚	-10.5282
▁內文	-10.5284
文明	-10.5285
em	-10.5285
ress	-10.5286
好正	-10.5287
四年	-10.5288
綜合	-10.5289
海洋	-10.5296
cm	-10.5298
法文	-10.5299
模特兒	-10.5304
東亞	-10.5305
事物	-10.5309
基因	-10.5319
黑人	-10.532
PO	-10.5326
04	-10.5327
脈	-10.5327
武力	-10.5327
停止	-10.533
查詢	-10.5335
趣	-10.534
擺明	-10.5341
玩完	-10.5344
隊波	-10.5346
黐	-10.5347
而佢	-10.535
唔住	-10.5354
東北	-10.5354
▁唔知	-10.5355
性質	-10.5356
FC	-10.5361
．	-10.5366
om	-10.5367
唔計	-10.5375
Kong	-10.5377
！」「	-10.5383
平日	-10.5384
豐富	-10.5384
影片	-10.5384
ture	-10.5387
全身	-10.5389
禾	-10.5394
FF	-10.5398
tg	-10.5398
性感	-10.54
係嘞	-10.5404
富豪	-10.5408
王子	-10.5408
Do	-10.5413
vo	-10.5414
麻麻	-10.5416
觀塘	-10.5418
atch	-10.5419
ound	-10.5425
焦	-10.5426
註冊	-10.5426
6%	-10.543
▁se	-10.5433
學歷	-10.5449
！！！	-10.5453
Al	-10.5453
個啲	-10.5454
尻	-10.5455
得起	-10.5456
fit	-10.5457
入左	-10.546
初期	-10.5463
onal	-10.5464
睇戲	-10.5466
上便	-10.5467
固定	-10.5469
gree	-10.5473
AN	-10.5479
咩嚟架	-10.5482
不時	-10.5487
1980	-10.5492
引入	-10.5494
技能	-10.5497
ab	-10.55
發明	-10.5504
物種	-10.5505
焗	-10.5506
with	-10.5508
講左	-10.551
物理	-10.5513
百萬	-10.5517
全程	-10.5519
措施	-10.5523
明年	-10.5524
圖書館	-10.5526
RE	-10.5531
ear	-10.5534
染	-10.5539
滴	-10.5541
特定	-10.5547
歧視	-10.5548
摺	-10.5549
grou	-10.555
86	-10.5552
窄	-10.5553
MP	-10.5554
睇得	-10.5559
用黎	-10.5561
五大訴求	-10.5563
年輕人	-10.5567
魏	-10.5571
兩句	-10.5573
字母	-10.5574
騰	-10.5578
物資	-10.5582
冚	-10.5584
［	-10.559
▁9	-10.5591
講句	-10.5601
真相	-10.5602
輸咗	-10.5603
可愛	-10.5603
絲打	-10.561
］	-10.5611
推廣	-10.5617
凌	-10.562
MV	-10.5621
游水	-10.5622
流動	-10.5624
會令	-10.5627
設備	-10.5631
場地	-10.5635
常見	-10.5637
警隊	-10.5637
承諾	-10.564
捕	-10.5641
190	-10.5642
mar	-10.5649
但都	-10.5653
：1	-10.566
妖	-10.5663
強烈	-10.5666
飾演	-10.5666
可可	-10.5679
基督教	-10.5679
領導	-10.5682
誤	-10.5687
Car	-10.5689
聽聞	-10.569
泛	-10.5691
襲擊	-10.5692
刑	-10.5693
應付	-10.5694
十萬	-10.5699
諸	-10.5702
果種	-10.5703
公路	-10.5705
犬	-10.5714
sub	-10.5714
尋晚	-10.5716
弱智	-10.5721
▁響呢日	-10.5722
喺曬	-10.5724
温度	-10.5724
試嚇	-10.5725
建制	-10.5727
問到	-10.5728
▁l	-10.5728
睇得出	-10.5729
唔關	-10.573
佈	-10.573
聰明	-10.5734
琪	-10.5738
搣	-10.5738
MA	-10.5742
梁振英	-10.5743
打針	-10.5744
出到	-10.5744
day	-10.5745
遷	-10.5746
開工	-10.5749
可見	-10.5755
佢冇	-10.5755
太后	-10.5762
dom	-10.5762
涉	-10.5766
開門	-10.5767
化妝	-10.5768
證實	-10.5769
憂	-10.5771
03	-10.5776
霧	-10.5777
局長	-10.5782
姑娘	-10.5782
介	-10.5792
92	-10.5796
韋小寶話	-10.5796
帶領	-10.58
橙	-10.5801
繩	-10.5801
符合	-10.5802
康熙	-10.5802
▁me	-10.5804
當係	-10.5805
走左	-10.5807
係會	-10.5812
ko	-10.5812
67	-10.5816
ban	-10.5822
：《	-10.5822
契	-10.5823
街頭	-10.5824
訊息	-10.5824
必定	-10.5826
固	-10.5827
佢就話	-10.5831
59	-10.5837
般	-10.5839
Hong	-10.5847
tory	-10.5849
4%	-10.585
Jo	-10.5852
把聲	-10.5855
一啲都唔	-10.5856
荷	-10.5859
！！	-10.5861
金鐘	-10.5862
屌鳩	-10.5862
武漢肺炎	-10.5865
撤	-10.5867
有線	-10.5878
領袖	-10.5884
殺死	-10.5887
著名	-10.5893
sy	-10.5897
軌	-10.5898
部隊	-10.59
8%	-10.5902
by	-10.5903
啲野	-10.5903
轆	-10.5903
想睇	-10.5908
urce	-10.5915
選民	-10.5916
頂唔順	-10.5916
幸	-10.5918
崗	-10.5923
地面	-10.5925
嘆	-10.5929
籃球	-10.593
原子	-10.593
違反	-10.5932
癌	-10.5934
條命	-10.5935
育	-10.5936
總理	-10.5936
慈善	-10.5939
Post	-10.5942
筒	-10.5944
AL	-10.5946
人馬	-10.5946
忌	-10.5947
迎	-10.5951
▁俊俊	-10.5955
未能	-10.5955
南京	-10.5955
56	-10.5961
信任	-10.5963
入波	-10.5967
多多	-10.5974
岀	-10.5977
嘿	-10.5978
free	-10.5978
唔比	-10.5978
上番	-10.5982
ag	-10.5984
揾返	-10.5987
On	-10.5988
再用	-10.5988
打仗	-10.599
妻	-10.5992
車身	-10.5996
龍門	-10.6001
女星	-10.6007
PC	-10.6011
起嚟	-10.6012
無用	-10.6013
全場	-10.6029
大清	-10.6035
我哋嘅	-10.6038
傳真	-10.6039
專登	-10.604
拼	-10.6043
檢	-10.6044
理據	-10.6052
就嚟	-10.6053
噚晚	-10.6056
ak	-10.6057
pat	-10.6057
裡	-10.6059
籃	-10.6063
一致	-10.6064
0000	-10.6073
押	-10.6075
就走	-10.6076
呈	-10.6077
訊	-10.6077
蕭	-10.6079
智能	-10.6082
冒	-10.6086
-2	-10.6089
博物館	-10.609
唞	-10.6092
慣	-10.6092
運輸	-10.6093
捉到	-10.6097
嘅新	-10.6102
從而	-10.6102
不知	-10.6115
過黎	-10.6119
客户	-10.6121
教會	-10.6121
蔣	-10.6121
生仔	-10.6123
請你	-10.6124
架喎	-10.6132
輯	-10.6133
94	-10.6134
$3	-10.6136
閉	-10.6137
毛澤東	-10.6139
中原	-10.614
片段	-10.614
但就	-10.6141
傳説	-10.6145
壁	-10.6145
加速	-10.6152
跡	-10.6152
口水	-10.6153
下晝	-10.6155
ou	-10.6155
快速	-10.6157
sApp	-10.6157
確定	-10.6159
聲明	-10.6159
57	-10.616
人民幣	-10.6161
ure	-10.6161
訴求	-10.6162
吐	-10.6165
柯	-10.6168
岡	-10.617
ales	-10.6176
的樂聲	-10.6176
亂咁	-10.6179
遞	-10.6183
老鼠	-10.6186
茲	-10.6191
入球	-10.6194
笑聲	-10.6196
嶺	-10.6196
▁0	-10.6197
示範	-10.6211
fin	-10.6213
過佢	-10.6221
vers	-10.6223
帳	-10.6224
壹	-10.6231
愛爾蘭	-10.6232
強姦	-10.6242
毫無	-10.6244
聲調	-10.6245
一眾	-10.6245
暴動	-10.6247
重點係	-10.6251
acc	-10.6253
啲乜	-10.6253
▁off	-10.6262
ange	-10.627
勾	-10.6272
ut	-10.6278
唔畀	-10.6282
設有	-10.6282
包裝	-10.6283
輕輕	-10.6288
呢啲嘢	-10.6293
一輪	-10.6294
假期	-10.63
簽名	-10.6312
平民	-10.6314
7%	-10.6315
表情	-10.6316
唔倒	-10.6317
提早	-10.6321
後備	-10.6322
test	-10.6323
發動	-10.6324
▁佢地	-10.6324
打壓	-10.6326
鴻	-10.6328
1993	-10.6329
行街	-10.6333
一生	-10.6333
好嬲	-10.6334
確保	-10.6343
ding	-10.6349
桃	-10.6358
主張	-10.6361
且	-10.6365
▁呢啲	-10.6367
罵	-10.6371
情侶	-10.6379
stem	-10.6383
隔籬	-10.6385
跌咗	-10.6385
腿	-10.6386
上身	-10.6388
58	-10.6395
係為咗	-10.6397
）：	-10.6397
收集	-10.6399
就係要	-10.64
重量	-10.6402
去買	-10.6404
港獨	-10.6406
CO	-10.6408
功夫	-10.6411
咪撚	-10.6412
釘	-10.6413
肌	-10.6415
際	-10.6415
哇	-10.6419
效力	-10.6423
蒙古	-10.6425
轄	-10.643
勤	-10.6433
咗去	-10.6434
喺邊	-10.6435
年尾	-10.6441
寨	-10.6441
碰	-10.6442
撚曬	-10.6442
阻住	-10.6444
喪	-10.6445
對應	-10.6446
眼中	-10.6447
好攰	-10.6451
玄	-10.6453
展覽	-10.6454
比錢	-10.6457
ue	-10.6459
渠	-10.646
中立	-10.6462
到咁	-10.6462
播放	-10.6465
你呀	-10.6466
唔知佢	-10.6466
用户	-10.6473
用左	-10.6474
藉	-10.6488
誤會	-10.6489
遜	-10.6491
▁||	-10.6492
移動	-10.6493
Miss	-10.6495
MB	-10.6495
落雨	-10.6496
廣東省	-10.6497
1995	-10.6497
帥	-10.6498
full	-10.6499
果班	-10.6501
郵	-10.6502
每月	-10.6506
▁我地	-10.6507
着住	-10.6516
盡快	-10.6522
呢點	-10.6522
▁The	-10.6522
書嘅	-10.6523
學識	-10.6526
經理人	-10.6527
上台	-10.653
72	-10.6536
當晚	-10.654
新鮮	-10.6541
網友	-10.6543
今屆	-10.6545
啩	-10.655
va	-10.6555
行咗	-10.6558
個腦	-10.6558
瑞典	-10.6562
ina	-10.6566
予	-10.6566
our	-10.6566
朝鮮	-10.6567
律	-10.6568
咳	-10.657
後嚟	-10.6573
宏	-10.6579
申	-10.6581
愛國	-10.6582
夾硬	-10.6589
恢復	-10.6599
商量	-10.6599
塘	-10.6605
攬住	-10.6607
膜	-10.6609
Be	-10.661
挑	-10.6611
襲	-10.6618
升幅	-10.6623
相比	-10.6625
Me	-10.6628
1989	-10.6637
年初	-10.6641
II	-10.6644
往往	-10.6646
胃	-10.6649
les	-10.6649
都唔敢	-10.6664
啞	-10.6665
上咗	-10.6668
上季	-10.667
令你	-10.6671
協議	-10.6674
分佈	-10.6678
警告	-10.6679
爸	-10.6686
入侵	-10.6696
緩	-10.6699
!!	-10.6699
轟	-10.6701
石油	-10.6701
陵	-10.6709
在場	-10.6714
uber	-10.6715
實用	-10.6723
1996	-10.6726
AM	-10.6728
▁St	-10.6731
獅子	-10.6733
顧問	-10.6733
肝	-10.6733
1991	-10.6739
損	-10.6741
奸	-10.6743
港台	-10.6745
SE	-10.6748
建設	-10.6749
你啊	-10.6749
編輯	-10.675
Btw	-10.675
廚	-10.6754
都係用	-10.6758
變相	-10.6763
弓	-10.6764
餸	-10.6766
hone	-10.6769
To	-10.6769
形態	-10.6771
祭	-10.6772
太子	-10.6776
表明	-10.6776
差佬	-10.6776
Geor	-10.6776
走勢	-10.6782
911	-10.6785
很	-10.6786
->	-10.6787
㗎嘛	-10.6788
六四	-10.6789
ss	-10.6792
規模	-10.6792
獅	-10.6794
dows	-10.6797
月底	-10.6802
皆因	-10.6802
候選人	-10.6803
得太	-10.6805
維修	-10.6807
pre	-10.681
89	-10.6821
1994	-10.6823
嚟啦	-10.6824
63	-10.6825
菲律賓	-10.6828
揭	-10.6828
攞嚟	-10.6832
ee	-10.6833
wa	-10.6836
職位	-10.6838
41	-10.6839
係乜	-10.6839
台北	-10.6839
net	-10.6842
講起	-10.6844
釋	-10.6847
取得	-10.6849
要靠	-10.6851
人去	-10.6861
日至	-10.6861
證券	-10.6864
港島	-10.6867
芒	-10.6869
皇家	-10.6869
住宅	-10.6879
艦	-10.6883
代替	-10.6883
國會	-10.6883
唔覺	-10.6883
改為	-10.6886
cent	-10.6895
規	-10.6896
su	-10.6901
劫	-10.6902
ley	-10.6906
▁st	-10.6908
盆	-10.6908
瑞士	-10.6908
毀	-10.6909
驚喜	-10.6909
制裁	-10.6911
ja	-10.6912
依加	-10.6913
Ga	-10.6914
緊急	-10.6916
唔聽	-10.6917
思維	-10.692
勿	-10.6925
不論	-10.6929
ish	-10.693
劈	-10.6931
ream	-10.6933
醫學	-10.6933
條仔	-10.6937
銷售	-10.6937
雙眼	-10.6938
52	-10.6939
樂隊	-10.6942
津	-10.6945
腹	-10.6945
聯合國	-10.6948
lack	-10.6948
^	-10.6951
好差	-10.6955
材	-10.696
集合	-10.6961
戈	-10.6969
鷹	-10.6969
▁你睇	-10.697
▁r	-10.6974
▁只係	-10.6978
埃	-10.6983
逸	-10.6983
包含	-10.6983
都唔想	-10.6987
重建	-10.6991
聯邦	-10.6999
年後	-10.7002
bar	-10.7002
打死	-10.7002
we	-10.7003
交換	-10.7007
kg	-10.7013
並非	-10.7014
ron	-10.7014
智慧	-10.7015
hy	-10.7017
撒	-10.7017
榮譽	-10.7018
大事	-10.7019
5000	-10.7027
Go	-10.7031
囝囝	-10.7031
型號	-10.7034
ness	-10.7045
900	-10.7045
CH	-10.7045
咁諗	-10.7049
縱	-10.7051
指揮	-10.7052
唔怪得	-10.7053
ST	-10.7056
吩咐	-10.7059
大幅	-10.7061
rump	-10.7063
印尼	-10.7064
玩得	-10.7064
到個	-10.7065
街市	-10.707
hu	-10.7071
1992	-10.7075
ise	-10.7076
高位	-10.7084
死嘅人	-10.7087
IC	-10.7089
弗	-10.7091
俗	-10.7094
歐美	-10.7099
54	-10.7099
一隊	-10.7102
上帝	-10.7107
獵	-10.7108
POST	-10.7112
嘅作品	-10.7114
出色	-10.7116
足本收睇	-10.7116
閣	-10.7125
人人都	-10.7126
深入	-10.7127
喀	-10.7127
係喇	-10.7133
封信	-10.7133
自爆	-10.7142
搭車	-10.7143
展開	-10.7143
band	-10.7151
自行	-10.7155
陀	-10.7158
拖住	-10.7159
Mi	-10.7163
你冇	-10.7163
一代	-10.7165
數目	-10.7171
唔切	-10.7171
入行	-10.7172
late	-10.7172
佢想	-10.7174
膊頭	-10.7176
有一	-10.7176
安慰	-10.7178
不妨	-10.7181
唔食	-10.7181
▁咁你	-10.7181
發起	-10.7182
週日	-10.7185
頒獎禮	-10.7187
聽完	-10.7187
森林	-10.7195
月初	-10.7198
介意	-10.7198
好友	-10.7201
車廂	-10.7201
02	-10.7204
睇咗	-10.7205
統計	-10.7209
車路士	-10.7214
寫咗	-10.7217
溢價	-10.7219
場波	-10.7223
幾千	-10.7224
自稱	-10.7225
bra	-10.7225
催	-10.7228
：1.	-10.723
在於	-10.7233
早就	-10.7234
收視	-10.724
▁12	-10.7241
原名	-10.7248
源自	-10.725
主辦	-10.725
穩陣	-10.7254
我做	-10.7255
階	-10.7255
pres	-10.7257
）；	-10.7261
An	-10.7267
社交	-10.7268
抬	-10.727
興奮	-10.7278
91	-10.7281
暫	-10.7293
個波	-10.7296
鳴	-10.7297
綱	-10.73
cept	-10.7305
上司	-10.7305
極端	-10.7307
義工	-10.7308
log	-10.731
禍	-10.731
諗嚇	-10.7313
！[	-10.7315
苑	-10.7315
確診	-10.7316
搜	-10.7318
對付	-10.7319
論壇	-10.7321
歌詞	-10.7324
國語	-10.7325
打扮	-10.7325
繼承	-10.7325
tran	-10.7326
桑	-10.7331
碳	-10.7332
二百	-10.7334
集中營	-10.7334
-[	-10.7335
超人	-10.7335
屏	-10.7337
擦	-10.7337
擒	-10.7339
心口	-10.7339
呢一	-10.7339
生態	-10.7343
租金	-10.7344
肥仔	-10.7345
MI	-10.7345
五十	-10.7348
嘅名	-10.7353
咪就係	-10.7354
十個	-10.7355
柒頭	-10.7358
達成	-10.7358
我啊	-10.7359
依啲	-10.7359
lass	-10.7363
二人	-10.7365
罐	-10.7366
葬	-10.7366
反擊	-10.7368
熙	-10.7371
小巴	-10.7373
你睇下	-10.7376
今集	-10.7377
想買	-10.7377
大樓	-10.7382
pr	-10.7386
無咁	-10.7388
共識	-10.7392
廣泛	-10.7394
2,	-10.7396
淚	-10.7399
左我	-10.7401
將啲	-10.7404
iuTV	-10.7405
cc	-10.7405
差啲	-10.7406
未夠	-10.7407
玩下	-10.7407
稱為	-10.7412
附送	-10.7415
節奏	-10.7415
表態	-10.7416
喜歡	-10.7416
揾咗	-10.7418
筋	-10.7419
三日	-10.7421
戰線	-10.7421
貌	-10.7423
看	-10.7423
大細	-10.7424
旅客	-10.7426
艾倫	-10.7429
lin	-10.7429
專心	-10.743
▁Pro	-10.7431
個市	-10.7435
▁Ma	-10.7436
芬	-10.7437
子彈	-10.7439
房屋	-10.7442
賽後	-10.7445
只係想	-10.745
大臣	-10.7452
阿根廷	-10.7457
gi	-10.7459
退出	-10.7461
吻	-10.7463
起咗	-10.747
樣野	-10.7472
有所	-10.7477
人會	-10.7478
衝擊	-10.7483
借錢	-10.7483
翁	-10.7485
海軍	-10.7487
晏	-10.7497
93	-10.7499
最快	-10.75
梳	-10.7501
十三	-10.7503
樂壇	-10.7504
難怪	-10.7505
of	-10.7509
79	-10.751
感動	-10.7516
出世嘅人	-10.7522
品種	-10.7523
▁not	-10.7526
▁In	-10.7526
少啲	-10.7528
厭	-10.753
ver	-10.7536
10.	-10.754
呢件	-10.7541
其次	-10.7542
ick	-10.7543
啖	-10.7546
埋佢	-10.7548
揾工	-10.7554
確認	-10.7555
助理	-10.7555
想去	-10.7558
ah	-10.7559
得你	-10.7559
寬	-10.7559
SP	-10.756
…」	-10.756
指住	-10.7563
睇睇	-10.7569
御	-10.757
外交	-10.7571
正選	-10.7572
三大	-10.7573
件衫	-10.7576
要等	-10.7577
62	-10.7578
km	-10.7579
傳播	-10.7581
ell	-10.7582
佢講	-10.7584
亨	-10.7584
We	-10.7584
車仔	-10.7585
監製	-10.7586
少左	-10.7587
。。。	-10.759
試睇按此	-10.7592
都係要	-10.7593
版免費	-10.7595
姬	-10.7599
yo	-10.7606
和尚	-10.761
健身	-10.7612
淑	-10.7614
青春	-10.7619
我都唔	-10.7619
晨	-10.7624
下降	-10.7625
BNO	-10.7626
刊	-10.7627
John	-10.7627
朵	-10.7631
SA	-10.7633
ei	-10.7637
譜	-10.7641
Man	-10.7644
到去	-10.7645
都唔得	-10.7646
銘	-10.7649
詠	-10.7649
熟悉	-10.7649
以外	-10.765
運用	-10.765
額外	-10.7652
無視	-10.7654
分為	-10.7654
行李	-10.7655
開口	-10.7655
ff	-10.7655
erry	-10.7659
夠曬	-10.7661
ris	-10.7663
miss	-10.7664
高官	-10.7668
file	-10.767
BA	-10.767
埋單	-10.7675
ser	-10.7677
unch	-10.7678
經紀	-10.768
國民黨	-10.7681
loop	-10.7681
夾埋	-10.7684
噏	-10.7686
午	-10.7687
shop	-10.769
説	-10.7693
細節	-10.7694
形勢	-10.7696
入境	-10.7698
有利	-10.7698
溶	-10.7699
舞台	-10.77
把口	-10.7703
read	-10.7703
哨	-10.7703
課金	-10.7706
希臘	-10.7708
美股	-10.7712
轉身	-10.7713
上位	-10.7714
pi	-10.7716
得番	-10.7718
姨	-10.7719
盡力	-10.772
避開	-10.7721
機制	-10.7721
Con	-10.7724
亭	-10.773
漲	-10.773
單純	-10.7732
埋啲	-10.7733
伴	-10.7734
妝	-10.7739
我求大俠	-10.7739
書院	-10.7741
營養	-10.7744
兔	-10.7744
促	-10.7744
孤	-10.7749
埋去	-10.775
阿拉伯	-10.7755
踢波	-10.7758
前者	-10.7758
弟	-10.7761
財經	-10.7762
閂	-10.7763
都識	-10.7768
包圍	-10.777
再去	-10.777
put	-10.7773
3000	-10.7774
FA	-10.7776
tern	-10.7777
page	-10.7777
磁	-10.7779
後便	-10.778
迪士尼	-10.7783
處於	-10.7784
港豬	-10.7784
淘寶	-10.7785
card	-10.7785
dy	-10.7787
芝士	-10.779
ram	-10.779
中資	-10.779
本港	-10.7792
會長	-10.7793
隻貓	-10.7793
總監	-10.7794
迴	-10.7794
一家	-10.7795
傳聞	-10.7799
最早	-10.7803
weet	-10.7804
述	-10.7806
定位	-10.781
收錢	-10.7821
key	-10.7833
樸	-10.7842
此外	-10.7843
……」	-10.7844
▁Y	-10.7844
適	-10.7847
米蘭	-10.7847
媒	-10.7849
越多	-10.7851
艇	-10.7854
學名	-10.7854
都係想	-10.7854
平安	-10.7855
嘅官網	-10.7856
時裝	-10.7857
王國	-10.7859
笑住話	-10.7861
大堂	-10.7861
人講	-10.7869
廉	-10.7877
也	-10.7878
咩叫	-10.7879
深水埗	-10.7879
咗我	-10.7883
base	-10.7883
oo	-10.7884
想點	-10.7885
gu	-10.7886
CA	-10.7886
反駁	-10.789
而喺	-10.7891
king	-10.7894
護照	-10.7895
融	-10.7897
社工	-10.7898
嘅相	-10.7899
run	-10.79
士兵	-10.7905
設立	-10.7908
鑽	-10.791
生果	-10.791
▁so	-10.7915
氣候	-10.7915
等嘅	-10.7916
望下	-10.7916
按此下載	-10.7916
–	-10.7916
邪	-10.7917
自治	-10.7917
町	-10.792
執法	-10.7925
波波	-10.7927
穴	-10.7928
250	-10.7929
循環	-10.793
做下	-10.7936
規矩	-10.7938
Hi	-10.7939
▁po	-10.7942
公子	-10.7946
向上	-10.7948
華華	-10.795
出嘅	-10.7952
一架	-10.7953
4）	-10.7956
問你	-10.7957
港大	-10.7958
ft	-10.7958
四大	-10.7958
US	-10.797
蒂	-10.7978
天主教	-10.7984
頂住	-10.7984
必然	-10.799
黃絲	-10.7993
Call	-10.7993
參觀	-10.7993
贏到	-10.7997
回合	-10.8001
1988	-10.8002
特性	-10.8004
齡	-10.8006
武功	-10.8007
個種	-10.8009
娛聞	-10.8012
大把人	-10.8012
持有	-10.8012
傻仔	-10.8012
孫權	-10.8018
叔叔	-10.8018
月尾	-10.8019
混亂	-10.8023
▁h	-10.8028
El	-10.8029
180	-10.8029
一於	-10.803
現任	-10.8031
南部	-10.8031
下載	-10.8036
偏偏	-10.8039
我對	-10.8045
優先	-10.8045
叫聲	-10.8047
見到有	-10.8055
眼淚	-10.8055
感謝	-10.8055
▁no	-10.8055
合併	-10.8056
雯	-10.8059
走人	-10.8063
全日	-10.8063
2023	-10.8065
丞相	-10.8068
撩	-10.8068
累積	-10.807
喬	-10.8075
又再	-10.8076
輸入	-10.8078
za	-10.8078
──	-10.8082
八達通	-10.8082
距	-10.8083
資助	-10.8085
讀完	-10.8085
出過	-10.8089
現價	-10.8091
佢地係	-10.8091
呢班人	-10.8092
一方	-10.8092
知佢	-10.8097
食品	-10.8097
用過	-10.8099
漫	-10.81
唔巖	-10.8102
老人	-10.8104
戰士	-10.8105
唔睇	-10.8109
良心	-10.8111
正義	-10.8112
神秘	-10.8114
我都有	-10.8117
復出	-10.8121
召	-10.8124
條街	-10.8129
翔	-10.8129
蒸	-10.8131
給	-10.8136
老虎	-10.8139
理念	-10.8141
都係得	-10.8142
oint	-10.8148
NBA	-10.8148
標題	-10.8151
會比	-10.8152
唇	-10.8152
用來	-10.8153
如此	-10.8154
蒲	-10.816
等緊	-10.8161
tyle	-10.8162
2)	-10.8166
張飛	-10.8169
惟	-10.817
帶兵	-10.8171
藝員	-10.8173
小組	-10.8176
GO	-10.8181
1:	-10.8183
十四	-10.8185
昂	-10.8187
睡	-10.8187
分裂	-10.8188
慈	-10.819
似係	-10.8191
係邊	-10.8194
晚上	-10.8196
粒鐘	-10.8197
佢地既	-10.8198
種族	-10.8203
呎價	-10.8203
呻	-10.8204
捷	-10.8204
蜜	-10.8205
dis	-10.8211
eng	-10.8216
決心	-10.8223
物品	-10.823
婚禮	-10.8231
hall	-10.8234
一旦	-10.8235
74	-10.8238
上場	-10.8244
坊	-10.8248
82	-10.8254
612	-10.8256
地震	-10.8256
▁U	-10.8258
gen	-10.826
嗰嗰	-10.826
心目中	-10.8262
雖	-10.8265
唔開	-10.8265
呢架	-10.8266
say	-10.8269
721	-10.827
交畀	-10.8273
掌握	-10.8273
rate	-10.8279
恭喜	-10.8283
Lu	-10.8285
▁la	-10.8286
早啲	-10.83
年間	-10.8304
新車	-10.8306
刻意	-10.831
慌	-10.8311
買嘢	-10.8318
帕	-10.8319
同班	-10.832
齒	-10.8323
煎	-10.8327
10%	-10.833
St	-10.8333
查實	-10.8333
客觀	-10.8336
保守	-10.8338
DVD	-10.8339
漢字	-10.8343
定期	-10.8344
cont	-10.8345
一層	-10.8346
送畀	-10.8347
逐漸	-10.8347
res	-10.8354
靈魂	-10.8355
年底	-10.8359
PR	-10.836
now	-10.8364
上水	-10.8366
少年	-10.8367
開幕	-10.8367
以色列	-10.8369
環球	-10.8373
點幾	-10.8389
▁De	-10.8391
stan	-10.8395
驅	-10.8398
旅	-10.84
配音員	-10.8401
質量	-10.8405
回答	-10.8412
笠	-10.8414
開個	-10.8421
舉行嘅	-10.8425
支共	-10.8425
拉丁字母	-10.8427
裝置	-10.8431
前排	-10.8432
ward	-10.8433
稀	-10.8438
//	-10.8439
野都	-10.8448
創立	-10.8449
牧	-10.845
拍戲	-10.8455
咁多位	-10.8459
瀄	-10.846
佛教	-10.8461
▁man	-10.8466
熱刺	-10.847
好鬼	-10.8473
吸收	-10.8474
更大	-10.8475
萬蚊	-10.8476
駿	-10.8483
咁解	-10.8483
民眾	-10.8483
▁大件事	-10.8484
無左	-10.8484
貧	-10.8485
AT	-10.8488
皆	-10.8489
好冇	-10.849
緊係	-10.8492
一身	-10.8493
外形	-10.8497
OS	-10.8501
結合	-10.8514
="	-10.8515
違	-10.8518
福建	-10.8518
天生	-10.8519
雞蛋	-10.8519
展示	-10.8523
全家	-10.8523
等你	-10.8529
行程	-10.853
愛你	-10.8533
襪	-10.8539
又想	-10.854
師奶	-10.854
Chri	-10.8543
TA	-10.8545
si	-10.8549
打工	-10.855
女王	-10.8557
1)	-10.8559
焦點	-10.8562
眼前	-10.8565
場合	-10.8565
73	-10.857
IP	-10.8572
歐盟	-10.8572
野食	-10.8574
帶嚟	-10.8576
諮詢	-10.8578
No	-10.8578
澄清	-10.8581
飛行	-10.8586
悦	-10.8586
呢份	-10.859
演藝	-10.8594
罩	-10.8599
嚟喇	-10.86
班友	-10.8605
得個	-10.8607
脆	-10.8609
上映	-10.8611
要打	-10.8614
就夠	-10.8615
平等	-10.862
ense	-10.8621
麵包	-10.8622
改名	-10.8623
凳	-10.8624
even	-10.8625
凸	-10.8628
向前	-10.8628
皇后	-10.8628
泡	-10.8629
想法	-10.8632
當局	-10.8632
▁Se	-10.8632
1970	-10.8635
行山	-10.8637
屙	-10.8638
放咗	-10.8638
Twit	-10.8639
兄	-10.8639
差異	-10.8641
一睇	-10.8641
53	-10.8643
Ar	-10.8644
71	-10.8646
溪	-10.8647
twit	-10.865
畜	-10.8651
掩	-10.8652
望到	-10.8652
有新	-10.8652
▁out	-10.8655
放學	-10.8655
前途	-10.8655
十足	-10.8656
票房	-10.8656
通車	-10.8658
產業	-10.8659
發聲	-10.8659
▁11	-10.866
ker	-10.8668
好痛	-10.8669
ted	-10.8672
Sup	-10.8675
呢張	-10.8677
同路人	-10.8681
▁app	-10.8682
降低	-10.8683
box	-10.8685
條數	-10.8687
裕	-10.869
mk	-10.869
呀嘛	-10.8694
數值	-10.8696
年至	-10.8697
我都唔知	-10.8698
冇諗過	-10.8706
irst	-10.8707
AD	-10.8709
巷	-10.871
變數	-10.8711
污	-10.8711
mp	-10.8717
得喇	-10.8717
疑似	-10.8719
尖沙咀	-10.8721
UP	-10.8721
87	-10.8723
操控	-10.8723
零售	-10.8723
父親	-10.8723
苗	-10.8724
樣嘢	-10.8724
‧	-10.8725
估到	-10.8726
註	-10.8731
水準	-10.8731
減肥	-10.8732
・	-10.8733
噢	-10.8734
經已	-10.8735
乸	-10.8742
訴	-10.8744
十大	-10.8745
嚹	-10.875
▁呢隻	-10.8754
透明	-10.8758
und	-10.876
知你	-10.876
唔捨得	-10.8761
哈利	-10.8762
道路	-10.8763
job	-10.8763
娶	-10.8765
訊號	-10.8765
Ha	-10.8767
Di	-10.8767
然而	-10.8767
先再	-10.8768
連結	-10.8769
﹐	-10.8772
整到	-10.8773
▁i	-10.8775
通道	-10.8776
～」	-10.8776
吳三桂	-10.8777
模擬	-10.8778
AV	-10.8778
互動	-10.878
到期	-10.8781
培	-10.8782
糕	-10.8782
室內	-10.8786
camp	-10.8787
説服	-10.8789
分配	-10.879
Mar	-10.8791
各大	-10.8793
開槍	-10.8795
即場	-10.8798
宴	-10.8799
幻	-10.8805
複	-10.8807
唔驚	-10.8808
歡喜	-10.8808
comp	-10.881
會將	-10.881
Cha	-10.8812
獨特	-10.8812
DC	-10.8813
ong	-10.8813
zi	-10.8815
就問	-10.8815
強大	-10.8819
用力	-10.8824
約莫	-10.8829
遲早	-10.8829
批准	-10.8829
防止	-10.883
一番	-10.8835
傳出	-10.8836
用返	-10.8839
打破	-10.8842
機器	-10.8846
付	-10.8846
擊敗	-10.8847
For	-10.8848
公會	-10.8849
ten	-10.8854
大市	-10.8854
惟有	-10.8854
同阿	-10.8855
ies	-10.8863
阿爺	-10.8864
預咗	-10.8865
常用	-10.8868
nder	-10.8868
月中	-10.8871
劣	-10.8876
外賣	-10.8876
突出	-10.8877
褸	-10.8877
傭	-10.888
呢處	-10.8884
抱住	-10.8888
都做	-10.8891
#2	-10.8893
笨	-10.8893
用咩	-10.8894
心水	-10.8895
開左	-10.8897
dia	-10.8902
睇左	-10.8905
引發	-10.8906
織	-10.8907
番工	-10.8907
做得好	-10.891
默	-10.891
▁ex	-10.8913
Ra	-10.8914
跌到	-10.8917
LE	-10.8921
構	-10.8924
五百	-10.8926
挖	-10.8928
承受	-10.893
廖	-10.8931
大獎	-10.8931
作戰	-10.8933
上述	-10.8933
短期	-10.8935
羽	-10.8941
轉移	-10.8946
走啦	-10.8947
住個	-10.895
牽	-10.895
鋪頭	-10.8954
事主	-10.8955
輪到	-10.8956
黎緊	-10.8959
放鬆	-10.896
一塊	-10.896
幾隻	-10.8961
精英	-10.8965
接收	-10.8966
•	-10.8966
首相	-10.8966
信仰	-10.8967
兩場	-10.8968
sc	-10.8979
陸續	-10.8983
而我	-10.8984
TO	-10.8985
中堅	-10.8987
貓貓	-10.8991
會再	-10.8992
van	-10.8992
jo	-10.8993
總站	-10.8997
1-	-10.8997
暗示	-10.8998
▁as	-10.9
況	-10.9003
AP	-10.9003
贊助	-10.9005
lan	-10.9005
唯	-10.9008
好叻	-10.9009
六年	-10.901
公關	-10.9016
巾	-10.902
簿	-10.9024
夥	-10.9026
ID	-10.9026
瀨	-10.9027
嚟睇	-10.9028
裏頭	-10.9028
高手	-10.9029
頌	-10.903
姚	-10.903
用品	-10.9032
奏	-10.9033
61	-10.9038
保養	-10.9039
棚	-10.9039
㗎咋	-10.904
編劇	-10.904
認知	-10.9043
恰	-10.9045
bit	-10.9046
9%	-10.9046
打人	-10.9048
意志	-10.9051
體力	-10.9053
寵	-10.9059
要買	-10.906
跑車	-10.9064
mac	-10.9064
具有	-10.907
返佢	-10.907
畀錢	-10.9071
墓	-10.9072
唔入	-10.9073
利亞	-10.9073
ll	-10.9074
依賴	-10.9075
HD	-10.9076
有意	-10.9077
主導	-10.9077
屌人	-10.9079
tor	-10.9081
▁j	-10.9081
chur	-10.9082
小事	-10.9083
勉強	-10.9085
敲	-10.9085
用得	-10.9095
放入	-10.9095
自身	-10.9096
點先	-10.9097
推翻	-10.9098
無野	-10.91
慾	-10.91
而言	-10.9102
入市	-10.9103
良好	-10.9104
冇左	-10.9104
衞星	-10.9106
食野	-10.9106
次次都	-10.9107
LA	-10.911
秘	-10.9111
單身	-10.9111
下跌	-10.9112
ling	-10.9113
會被	-10.9114
十字	-10.9114
偉大	-10.9115
命名	-10.9116
婉	-10.9117
size	-10.9122
用手	-10.9125
11.	-10.9126
名人	-10.9129
效應	-10.9132
語氣	-10.9134
選區	-10.9134
act	-10.9136
ug	-10.9139
信用卡	-10.9141
工會	-10.9143
上有	-10.9146
輩	-10.9147
偈	-10.9148
短片	-10.9149
from	-10.9151
frd	-10.9163
夫婦	-10.9168
any	-10.9169
滋	-10.9172
抗議	-10.9173
red	-10.9174
教堂	-10.9176
幕後	-10.9177
議題	-10.9178
江湖	-10.918
下一代	-10.9182
▁Z	-10.9183
Ex	-10.9184
鈴	-10.9184
唔難	-10.9186
昇	-10.9189
star	-10.919
咭	-10.9192
歎	-10.9194
風俗	-10.9197
小型	-10.9201
我咪	-10.9208
#1	-10.921
機票	-10.921
ger	-10.9211
比個	-10.9212
兼且	-10.9212
又唔會	-10.9212
3-92	-10.9213
hard	-10.9213
︰262	-10.9215
普選	-10.9217
du	-10.9217
乜撚野	-10.9218
辯	-10.9223
薑	-10.9228
學到	-10.9235
我最	-10.9235
由佢	-10.9236
食過	-10.9236
話曬	-10.9239
去玩	-10.9239
Ca	-10.9242
反感	-10.9244
▁do	-10.9245
返啲	-10.9249
ire	-10.9253
都有啲	-10.9253
總結	-10.9253
第六	-10.9253
各國	-10.9255
土耳其	-10.9255
蝴蝶	-10.9255
肩	-10.9256
佢亦	-10.9259
貞	-10.9259
佢要	-10.9259
管治	-10.9261
教你	-10.9261
西貢	-10.9264
IS	-10.9265
ana	-10.9266
Mich	-10.9266
有乜嘢	-10.9268
伊朗	-10.9272
入便	-10.9273
餓	-10.9275
天后	-10.9277
亦冇	-10.9279
就當	-10.928
役	-10.9282
呂布	-10.9283
OR	-10.9285
tore	-10.9287
按照	-10.929
唔想再	-10.9293
咗幾	-10.9301
幾萬	-10.9301
我哋要	-10.9305
pect	-10.9306
仲唔	-10.9307
燃	-10.9312
撚咗	-10.9314
EN	-10.9323
6）	-10.9323
佐治	-10.9324
果邊	-10.9326
名義	-10.9328
二千	-10.9328
崩	-10.9331
有種	-10.9331
之處	-10.9331
被迫	-10.9337
攞住	-10.9337
青衣	-10.9344
tro	-10.9347
向住	-10.9348
視乎	-10.935
葛	-10.935
ract	-10.9351
專用	-10.9351
▁擺	-10.9352
豪宅	-10.9355
督	-10.9355
身家	-10.9357
商人	-10.936
▁by	-10.9363
援	-10.9365
ds	-10.9367
佢哋喺	-10.937
51	-10.9371
恭	-10.9373
tvb	-10.9376
萬一	-10.9378
人多	-10.9381
畀啲	-10.9383
駒	-10.9383
領先	-10.9384
機關	-10.9385
黑暗	-10.9389
俗稱	-10.9391
cal	-10.9394
係種	-10.9396
▁n	-10.9396
售價	-10.9397
琦	-10.9397
中途	-10.9398
法案	-10.9398
得過	-10.9399
途	-10.94
發言	-10.9402
DSE	-10.9403
聯署	-10.9407
Mon	-10.9409
唔大	-10.9413
if	-10.9413
SS	-10.9417
拘捕	-10.9418
year	-10.9421
唔返	-10.9422
太監	-10.9423
熱狗	-10.9423
活躍	-10.9424
嘅時尚美	-10.9426
上前	-10.9426
掘	-10.9427
框	-10.9428
Can	-10.9429
逢週五隨	-10.9432
duct	-10.9434
唔差	-10.9436
▁但我	-10.9437
俾啲	-10.9438
忽	-10.9441
天水圍	-10.9443
1986	-10.9445
ME	-10.9445
Ka	-10.9445
後衞	-10.9447
篇文	-10.9451
1987	-10.9451
三次	-10.9453
ze	-10.9454
一大堆	-10.9455
鍵	-10.9455
TG	-10.9463
sta	-10.9463
Fi	-10.9463
MC	-10.9465
行得	-10.9468
出動	-10.9472
舟	-10.9473
nt	-10.9474
西甲	-10.9475
北部	-10.9475
發售	-10.9477
缺乏	-10.9478
本報訊	-10.948
放大	-10.9481
武肺	-10.9483
UN	-10.9484
真人	-10.9486
▁人地	-10.9486
奔	-10.9489
緊嘅	-10.9491
早已派完	-10.9492
想同	-10.9495
檢討	-10.9495
委會	-10.9497
恐懼	-10.9498
ob	-10.9499
​	-10.9499
馬會	-10.9509
墮	-10.9513
$4	-10.9516
稱呼	-10.9516
法治	-10.952
我用	-10.9523
丘	-10.953
主持人	-10.9531
|	-10.9532
千蚊	-10.9535
三百	-10.9536
口味	-10.9536
沿	-10.954
殖民地	-10.9541
hold	-10.9545
HO	-10.9548
畀佢哋	-10.9549
孭	-10.9553
輿論	-10.9558
超越	-10.9558
相片	-10.9559
忠告	-10.9563
九成	-10.9566
行車	-10.9567
巢	-10.9572
貫	-10.9574
小人	-10.9574
戰略	-10.958
」；	-10.9581
天使	-10.9582
咒	-10.9587
見你	-10.9587
脾氣	-10.9591
生涯	-10.9591
就由	-10.9592
大件事	-10.9592
外界	-10.9595
密碼	-10.9598
CE	-10.9599
新歌	-10.96
國安法	-10.9601
斑	-10.9601
港元	-10.9604
嘅錢	-10.9605
鼎	-10.9605
墨西哥	-10.9607
MS	-10.961
Or	-10.9616
都喺	-10.9618
啤酒	-10.962
紅磡	-10.9622
並唔	-10.9622
side	-10.9623
題材	-10.9623
尼亞	-10.9624
減低	-10.9625
而成	-10.9625
北角	-10.9627
性能	-10.9628
廷	-10.963
芯	-10.9631
率領	-10.9636
豬肉	-10.9636
▁16	-10.9637
豹	-10.9639
追到	-10.964
以至	-10.965
更有	-10.9653
原先	-10.9658
母親	-10.9659
天真	-10.9661
鞭	-10.9662
嚴格	-10.9662
飄	-10.9663
重大	-10.9665
擺喺	-10.9671
制服	-10.9672
NG	-10.9673
仲想	-10.9676
that	-10.9678
平方公里	-10.9678
佢先	-10.968
厲害	-10.9681
爛咗	-10.9688
同佢地	-10.969
我地要	-10.9691
革	-10.9693
主演	-10.9696
公投	-10.9696
女歌手	-10.9697
禁區	-10.9698
確	-10.9703
競選	-10.9706
最撚	-10.9708
已有	-10.9709
ui	-10.971
古典	-10.9711
並無	-10.9712
回復	-10.9713
AA	-10.9714
守護	-10.9714
kill	-10.9715
自問	-10.9715
LO	-10.9716
開到	-10.9716
個別	-10.9717
斥	-10.9717
▁ma	-10.9719
炳	-10.972
浪漫	-10.9722
尹	-10.9723
嚟啊	-10.9724
來港	-10.9724
大賽	-10.9727
葵	-10.9728
幾位	-10.9728
原理	-10.9733
北韓	-10.9736
改咗	-10.9736
ual	-10.9737
強制	-10.9737
2:	-10.9739
辦公室	-10.9739
登場	-10.9742
鶴	-10.9742
區內	-10.9742
同行	-10.9743
ven	-10.9743
地區嘅	-10.9744
RO	-10.9747
1985	-10.9748
打左	-10.9749
▁com	-10.9751
委任	-10.9752
潮流	-10.9754
預左	-10.9755
銷量	-10.9755
武松	-10.9764
盜	-10.9765
支那人	-10.9766
霞	-10.9766
條約	-10.9766
居屋	-10.9767
唸	-10.9767
低調	-10.9767
sor	-10.9771
極度	-10.9772
層面	-10.9775
地獄	-10.9776
凝	-10.9777
當堂	-10.9777
批鬥	-10.9779
浦	-10.9779
袍	-10.9779
購物	-10.978
把握	-10.9781
濫	-10.9782
勻	-10.9784
披	-10.9785
嗰間	-10.9786
解放軍	-10.9791
陽光	-10.9797
嘅第	-10.9799
梓	-10.9802
商台	-10.9803
情報	-10.9805
笑容	-10.9806
搞事	-10.9808
時段	-10.9809
大規模	-10.9811
都唔洗	-10.9811
大讚	-10.9812
睇波	-10.9812
同佢哋	-10.9814
萬鎊	-10.9816
愁	-10.9817
Th	-10.982
教師	-10.9824
方呎	-10.9824
企係	-10.9826
再者	-10.9828
挺	-10.9829
發佈	-10.9833
賬	-10.9834
出生	-10.9837
ea	-10.9843
仲喺	-10.9844
死者	-10.9845
外表	-10.9848
構成	-10.9849
佢只係	-10.9851
tri	-10.9854
總會	-10.9855
滙	-10.9856
my	-10.9856
扎	-10.9861
酒吧	-10.9862
檢測	-10.9863
聽下	-10.9863
梯	-10.9864
3)	-10.9865
▁連	-10.9865
有排	-10.9865
手腳	-10.9866
嶽	-10.9869
基地	-10.987
欽	-10.987
邊到	-10.9872
Chi	-10.9875
機身	-10.9879
陣營	-10.9882
羣島	-10.9883
wi	-10.9883
曝光	-10.9884
熱血	-10.9886
蜀	-10.9889
落場	-10.9889
嘅歌	-10.9889
食左	-10.9896
國泰	-10.99
對待	-10.9903
𠻹	-10.9905
卒	-10.9905
奶共	-10.9905
嗰位	-10.9907
共產	-10.9912
小行星	-10.9914
ware	-10.9915
球證	-10.9915
▁co	-10.9916
七年	-10.9918
梨	-10.9918
▁go	-10.9919
邊隻	-10.992
den	-10.9921
mer	-10.9921
定律	-10.9925
好事	-10.9927
邊啲	-10.9935
整合	-10.9939
甜品	-10.9943
soft	-10.9944
曳	-10.9946
炸彈	-10.9947
做返	-10.9948
上載	-10.9948
維基百科	-10.995
quot	-10.9951
用於	-10.9953
利是	-10.9961
落實	-10.9962
波蘭	-10.9963
漿	-10.9966
超市	-10.9966
四圍	-10.9966
週三	-10.9968
污染	-10.9969
檔案	-10.9978
哲	-10.9979
石頭	-10.9981
侍	-10.9985
擲	-10.9987
DE	-10.9988
CPU	-10.999
Tom	-10.9992
pop	-10.9992
內置	-10.9992
Mark	-10.9995
深刻	-10.9995
出戰	-10.9996
獨裁	-10.9997
中咗	-10.9998
杏	-10.9998
水貨	-10.9998
你用	-11.0001
挨	-11.0002
跑步	-11.0004
多幾	-11.0005
都算係	-11.0005
椅	-11.0008
暫停	-11.0008
局局長	-11.0008
1984	-11.0009
購買	-11.0012
360	-11.0013
ory	-11.0017
50%	-11.0021
大阪	-11.0022
姜	-11.0023
一批	-11.0023
$5,0	-11.0026
我都想	-11.0029
被指	-11.0029
▁Mo	-11.003
女藝人	-11.003
參賽	-11.0032
1.5	-11.0033
每日都	-11.0034
▁好喇	-11.0035
脱離	-11.0036
??	-11.0047
大膽	-11.0047
海鮮	-11.0048
he	-11.0049
帶來	-11.0051
子女	-11.0053
米高	-11.0058
落咗	-11.0059
眼見	-11.0064
咁睇	-11.0065
架嘛	-11.0068
oi	-11.0069
Air	-11.0071
猛咁	-11.0075
山頂	-11.0076
去打	-11.0076
bug	-11.0078
冇野	-11.008
兩名	-11.0081
散户	-11.0085
議席	-11.0085
喱	-11.0085
大軍	-11.0087
謂	-11.0087
dr	-11.0088
起步	-11.0091
爺爺	-11.0095
埃及	-11.0096
腎	-11.0097
新城	-11.0098
緋聞	-11.0099
budg	-11.0099
背脊	-11.0099
▁v	-11.01
你啲	-11.0106
cam	-11.0109
報名	-11.0109
term	-11.0109
睇樓	-11.0109
種類	-11.011
20%	-11.0112
英語	-11.0112
拍賣	-11.0115
啟用	-11.012
金牌	-11.0122
西南	-11.0122
收皮啦	-11.0122
旦	-11.0124
史上	-11.0125
tech	-11.0126
lick	-11.0126
1/	-11.0128
白痴	-11.013
激動	-11.0131
講大話	-11.0132
孟	-11.0139
合唱	-11.0144
家用	-11.015
中午	-11.0151
1982	-11.0151
總經理	-11.0152
忘	-11.0153
性別	-11.0154
對白	-11.0154
勁多	-11.0154
SM	-11.0155
肺炎	-11.0158
rror	-11.0159
為人	-11.0159
吼	-11.0162
hr	-11.0164
故此	-11.0165
腐	-11.0166
其間	-11.0166
av	-11.017
搞到我	-11.0174
頂級	-11.0174
對外	-11.0175
firm	-11.0176
sem	-11.0177
竇	-11.0178
閲讀	-11.0184
全力	-11.0185
尤	-11.0185
客氣	-11.0186
ow	-11.0187
睇緊	-11.0187
哀	-11.0188
係以	-11.019
都唔撚	-11.0191
悲	-11.0195
爵	-11.0202
槓桿率	-11.0204
嘅樣	-11.0208
市值	-11.0211
一集	-11.0211
▁你話	-11.0212
廿年	-11.0217
腫	-11.0224
裝飾	-11.0226
典型	-11.0227
時刻	-11.0227
耳機	-11.0228
部署	-11.0228
中期	-11.0228
鋭	-11.023
商品	-11.0236
專注	-11.0237
呢啲係	-11.0237
差距	-11.024
二來	-11.0241
扮演	-11.0241
Play	-11.0242
娘	-11.0246
比佢地	-11.0248
信息	-11.0251
話咩	-11.0256
響度	-11.0256
揼	-11.0256
續約	-11.0256
spec	-11.0258
▁註	-11.026
睇書	-11.0263
量度	-11.0264
按揭	-11.0265
︰「	-11.0268
談判	-11.0269
贈	-11.027
蜂	-11.0271
週一	-11.0274
頭盔	-11.0274
址	-11.0275
發射	-11.0276
撤回	-11.0277
揾你	-11.0282
賜	-11.0282
長度	-11.0283
中產	-11.0283
懲罰	-11.0285
lor	-11.0286
爆料	-11.0286
他人	-11.0287
學費	-11.0288
RT	-11.0289
否定	-11.0289
霖	-11.0291
ouch	-11.0292
傾下	-11.0292
公安	-11.0292
reen	-11.0292
輔助	-11.0293
畢竟	-11.03
主線	-11.0301
恐	-11.0301
電車	-11.0303
極之	-11.0303
就話喇	-11.0303
南海	-11.0304
會去	-11.0307
亦都有	-11.0308
缸	-11.0308
1983	-11.031
轉變	-11.0318
消耗	-11.0318
GAME	-11.0322
盟	-11.0323
入到去	-11.0323
擁	-11.0325
ms	-11.0326
跟本	-11.0327
無錢	-11.033
來回	-11.0331
mini	-11.0334
喺嗰度	-11.0334
bank	-11.0334
andy	-11.0337
居住	-11.0337
綜藝	-11.0337
臭閪	-11.0338
咗唔少	-11.0338
糊	-11.0338
命運	-11.034
long	-11.0342
選手	-11.0342
提取貸款	-11.0345
討厭	-11.0346
途中	-11.0347
扒	-11.0348
發音	-11.0348
打交	-11.0348
冇耐	-11.0349
傷口	-11.0359
高達港幣	-11.036
提及	-11.0364
hing	-11.0365
長官	-11.0366
簽約	-11.0366
又得	-11.0367
rt	-11.0368
Bar	-11.0368
宅	-11.037
高質	-11.0371
脂	-11.0372
差人	-11.0373
眼神	-11.0378
足英台	-11.0378
送咗	-11.0379
ub	-11.0379
扁	-11.038
帖	-11.038
洗腦	-11.0382
實施	-11.0383
可即場獲	-11.0384
che	-11.0385
永久	-11.0388
make	-11.0389
hort	-11.0389
著數	-11.0392
同情	-11.0393
三千	-11.0395
唔落	-11.0399
提過	-11.0401
極都	-11.0404
唔熟	-11.0404
腔	-11.0405
英波	-11.0407
上街	-11.0409
警署	-11.041
記載	-11.0411
恒生	-11.0411
350	-11.0415
工程師	-11.0418
並冇	-11.0421
▁我都	-11.0422
了解	-11.0422
主權	-11.0423
八婆	-11.0425
拒	-11.0426
粥	-11.0427
一餐	-11.0428
EL	-11.0429
颱風	-11.0429
鵬	-11.043
】：	-11.0433
紐	-11.0433
黨鐵	-11.0434
big	-11.0436
誰	-11.0436
CS	-11.0437
能源	-11.0441
情節	-11.0442
抌	-11.0443
裔	-11.0443
解散	-11.0446
整理	-11.0447
電池	-11.0448
婷	-11.0453
阮	-11.0454
港交所	-11.0454
林鄭月娥	-11.0455
鵝	-11.0456
証	-11.0456
84	-11.0457
妃	-11.0457
EX	-11.0457
分數	-11.0458
重覆	-11.046
殊	-11.0463
唔抵	-11.0464
不得	-11.0465
中山	-11.0466
十七	-11.047
間唔中	-11.0474
窒	-11.0476
轉會	-11.0476
瓣	-11.0477
ji	-11.0478
拍咗	-11.0481
崎	-11.0483
加多	-11.0483
詐	-11.0485
番個	-11.0486
張牀	-11.0488
Net	-11.0489
與其	-11.049
百姓	-11.0492
感激	-11.0494
代價	-11.05
You	-11.0502
映	-11.0502
你聽	-11.0505
咁勁	-11.0507
剝	-11.0508
MK	-11.051
萬港元	-11.0513
寫嘅	-11.0514
佛曆	-11.0515
下年	-11.0516
犯罪	-11.0516
爪	-11.0517
沒	-11.0518
三位	-11.052
查詢及	-11.0521
外人	-11.0521
傅	-11.0522
爆相爆片	-11.0522
有傳	-11.0522
未到	-11.0523
廢話	-11.0525
漁	-11.0527
嫂	-11.0528
優點	-11.0528
加息	-11.0534
昭	-11.0534
刪	-11.0537
揀咗	-11.0537
悠	-11.0537
但要	-11.0539
金額	-11.0541
佢哋係	-11.0542
函數	-11.0549
ping	-11.0552
：319	-11.0557
八年	-11.0558
憤怒	-11.0562
我都好	-11.0566
維園	-11.0572
閏	-11.0574
番黎	-11.0576
6568	-11.0577
配音	-11.0577
修改	-11.0578
收市	-11.058
無數	-11.0581
HA	-11.0583
先叫	-11.0583
83	-11.0584
6383	-11.0585
精靈	-11.0586
錢梗要還	-11.0587
債人牌照	-11.0588
).	-11.0592
咗喇	-11.0593
尖沙嘴	-11.0594
sha	-11.0596
哭	-11.0598
親身	-11.0599
做個	-11.0599
眾人	-11.0603
中介放	-11.0607
+1	-11.0608
軍師	-11.0609
車車	-11.061
個班	-11.0613
odel	-11.0617
總係	-11.0622
𨋢	-11.0624
eung	-11.0625
個客	-11.0628
射手	-11.0628
底線	-11.063
get	-11.0631
話事	-11.0631
問過	-11.0632
彤	-11.0633
流浪	-11.0633
出自	-11.0633
廁	-11.0635
無關	-11.0635
繁	-11.0636
開波	-11.0637
粒子	-11.0637
薯	-11.0638
幾間	-11.0641
概	-11.0646
裸	-11.0648
嬌	-11.0648
得幾	-11.065
卸	-11.0651
由細到大	-11.0652
喺北京	-11.0654
四川	-11.0656
▁Co	-11.0657
繁殖	-11.0657
KOL	-11.066
uk	-11.066
分散	-11.0662
捲	-11.0663
手下	-11.0664
有多	-11.0664
馬德里	-11.0665
唔妥	-11.0667
部車	-11.0667
昆	-11.0669
war	-11.067
2024	-11.0671
僧	-11.0672
器官	-11.0673
飲水	-11.0675
花生	-11.0675
憤	-11.0679
斟	-11.0681
囚牢之疆	-11.0683
髮型	-11.0683
gent	-11.0684
又多	-11.0686
見識	-11.0688
▁mo	-11.069
慎	-11.0691
隻眼	-11.0691
釋放	-11.0691
約翰	-11.0692
番學	-11.0692
救命	-11.0697
冊	-11.0698
舍	-11.0698
運行	-11.0699
一把	-11.0699
屌佢	-11.0701
作曲	-11.0701
留係	-11.0702
個價	-11.0704
原價	-11.0705
Pepp	-11.0712
那	-11.0715
足協	-11.0715
銀包	-11.0715
植	-11.0716
斗	-11.0717
版權	-11.072
月前	-11.0722
階級	-11.0723
奶奶	-11.0724
食屎	-11.0728
non	-11.0728
明確	-11.0736
％	-11.0739
專頁揭開	-11.074
地域	-11.0741
平面	-11.0742
arry	-11.0743
生咗	-11.0746
姦	-11.0747
邪惡面紗	-11.0749
再睇	-11.0749
風景	-11.075
撚住	-11.075
主打	-11.0753
長者	-11.0753
兩大	-11.0755
牛奶	-11.0756
▁咩嚟架	-11.0756
託	-11.0756
驚呼聲	-11.0756
玩過	-11.0756
露出	-11.0757
我聽	-11.0758
港澳	-11.076
Vi	-11.0761
出力	-11.0763
顯得	-11.0766
得住	-11.0767
越黎越	-11.0769
馬上	-11.077
Star	-11.0771
無敵	-11.0771
12.	-11.078
ever	-11.0781
要唔要	-11.0781
嗚	-11.0781
窮人	-11.0783
舌	-11.0783
00▲！	-11.0785
紹	-11.0786
don	-11.0789
擇	-11.079
時機	-11.079
SO	-11.0791
誕	-11.0795
樂器	-11.0797
ism	-11.0804
ay	-11.0807
實體	-11.0807
戴住	-11.0808
隻字	-11.0809
睇曬	-11.0814
唔知係	-11.0814
甸	-11.0816
對眼	-11.0817
唔過	-11.0818
樂觀	-11.082
1960	-11.0823
週期	-11.0824
留返	-11.0825
ins	-11.0829
麟	-11.083
新地	-11.0831
望住我	-11.0836
筆錢	-11.0838
嘅啫	-11.0839
催淚彈	-11.0839
泛指	-11.0841
之時	-11.0842
Sony	-11.0844
間接	-11.0845
食肆	-11.0846
為佢	-11.0848
佢都係	-11.0849
戲劇	-11.085
將於	-11.0851
騙	-11.0853
低位	-11.0856
低過	-11.0857
慮	-11.0864
濕鳩	-11.0864
要諗	-11.0865
跌落	-11.0866
煉	-11.0869
人才	-11.0869
謙謙	-11.087
一黎	-11.0873
▁1.	-11.0874
為例	-11.0877
擴大	-11.088
氣體	-11.0881
喪屍	-11.0881
▁$	-11.0882
評估	-11.0882
晶	-11.0883
百幾	-11.0885
xx	-11.0886
ship	-11.0887
羣眾	-11.0888
好在	-11.0889
▁we	-11.0889
連任	-11.089
熱鬧	-11.089
説明	-11.0891
官網	-11.0892
毅	-11.0893
重慶	-11.0896
人人	-11.0899
茂	-11.0899
sing	-11.0901
全年	-11.0902
洗唔洗	-11.0902
公元前	-11.0904
預告	-11.0906
整咗	-11.0906
長江	-11.091
狠	-11.091
衫衫	-11.0915
障礙	-11.0916
想食	-11.0919
高速	-11.0922
gra	-11.0923
馬來	-11.0923
RA	-11.0925
層次	-11.0929
過後	-11.0932
上任	-11.0934
波衫	-11.0935
極權	-11.0935
慕	-11.0938
戰場	-11.0938
跟進	-11.094
埋嚟	-11.0942
斤	-11.0943
贏得	-11.0948
都夠	-11.0949
可行	-11.095
氧	-11.0952
中聯辦	-11.0954
過到	-11.0954
液體	-11.0954
一兩	-11.0955
ud	-11.0956
追究	-11.0959
欲	-11.0959
剩低	-11.0959
匙	-11.0961
ple	-11.0965
爹哋	-11.0967
串字	-11.0967
頹	-11.097
崔	-11.0972
授	-11.0972
報仇	-11.0973
績	-11.0977
賈	-11.0978
販	-11.098
ler	-11.0987
whi	-11.0987
天皇	-11.0988
製成	-11.0988
上連登	-11.0989
呢個就係	-11.099
公義	-11.0993
大批	-11.0998
最有	-11.0998
禮貌	-11.0998
煮飯	-11.0999
減價	-11.1001
週末	-11.1003
身份證	-11.1004
ttle	-11.1005
盞	-11.1008
▁唔得	-11.1012
各個	-11.1013
唔走	-11.1014
穆	-11.1015
痴撚線	-11.1015
配搭	-11.1017
Ti	-11.1021
是非	-11.1021
ming	-11.1024
堤	-11.1025
毫	-11.1025
81	-11.1027
來往	-11.1032
防疫	-11.1032
到極	-11.1034
簡直	-11.1035
完結	-11.1036
承擔	-11.1036
沙士	-11.1039
墊	-11.1049
上環	-11.1052
佔中	-11.1053
鬚	-11.1053
分店	-11.1054
col	-11.1054
打緊	-11.1056
天地	-11.1061
New	-11.1063
轉咗	-11.1068
新疆	-11.107
Qu	-11.107
誓	-11.1075
1979	-11.1076
▁at	-11.1077
答你	-11.108
農業	-11.1084
歌迷	-11.1088
cess	-11.1091
十九	-11.1091
到爆	-11.1092
千幾	-11.1093
▁咦	-11.1097
放手	-11.1099
視覺	-11.1101
王朝	-11.1101
話想	-11.1102
空中	-11.1103
dse	-11.1104
無辜	-11.1108
漆	-11.111
但冇	-11.111
tain	-11.1116
屎忽	-11.1118
▁節慶	-11.1119
徽	-11.1119
TE	-11.1119
十月	-11.1122
只係得	-11.1125
scri	-11.1126
情感	-11.1128
坡	-11.1131
瑤	-11.1132
過多	-11.1132
cho	-11.1134
港幣	-11.1137
軌道	-11.1137
上落	-11.1138
韓文	-11.1139
cu	-11.1141
緬甸	-11.1142
混合	-11.1143
隨即	-11.1145
執導	-11.1149
fu	-11.115
妍	-11.1151
紛紛	-11.116
束	-11.1162
間中	-11.1163
同性戀	-11.1165
殺到	-11.1173
再見	-11.1176
鯨	-11.1178
派人	-11.1178
潛水	-11.1179
比人屌	-11.118
食煙	-11.1183
長大	-11.1183
聽咗	-11.1184
1981	-11.1187
than	-11.119
收咗	-11.119
乜嗰	-11.1194
點半	-11.1195
4:	-11.1195
強國	-11.1195
turn	-11.1195
做嘅嘢	-11.1197
狙擊	-11.1203
tu	-11.1204
sk	-11.1206
Ho	-11.1206
迎接	-11.1208
大道	-11.1211
NA	-11.1211
消化	-11.1211
燥	-11.1212
大啲	-11.1213
▁Ro	-11.1213
二世	-11.1215
稍	-11.1216
bu	-11.1217
ING	-11.122
有隻	-11.1221
gg	-11.1221
一啖	-11.1221
有網民	-11.1222
出任	-11.1222
主播	-11.1225
教訓	-11.123
熱情	-11.1231
第七	-11.1231
奴隸	-11.1232
標籤	-11.1234
tom	-11.124
CL	-11.124
不會	-11.1242
行星	-11.1242
突發	-11.1244
德文	-11.1246
肚餓	-11.1248
fact	-11.1248
頒	-11.1249
畀咗	-11.1254
lect	-11.1255
ball	-11.126
一項	-11.1261
通脹	-11.1261
CCTV	-11.1266
Wing	-11.1266
Gu	-11.1267
gym	-11.1269
MO	-11.1269
出賣	-11.127
old	-11.1272
呀媽	-11.1274
機率	-11.1277
對上	-11.1278
打工仔	-11.1278
悔	-11.128
雲南	-11.1281
ring	-11.1281
美洲	-11.1283
會選舉	-11.1287
就想	-11.1288
封鎖	-11.1289
從此	-11.1296
狄	-11.1297
上山	-11.1297
出軌	-11.1298
上週	-11.1299
腸仔	-11.1301
呢兩	-11.1301
得快	-11.1301
話唔定	-11.1305
aa	-11.1306
藥物	-11.1307
陪佢	-11.1307
擾	-11.1308
安心	-11.1314
美麗	-11.1321
玩啦	-11.1323
room	-11.1324
敦	-11.1324
獄	-11.1325
柄	-11.1326
顧客	-11.1328
ouse	-11.1329
都比	-11.1336
崩潰	-11.1336
1200	-11.1337
打過	-11.1339
飛揚	-11.1339
吹奏	-11.134
core	-11.1341
Fa	-11.1341
閲	-11.1342
商界	-11.1343
咩話	-11.1343
誇	-11.1345
開車	-11.1347
日報	-11.1349
天王	-11.1349
得好好	-11.1352
返咗	-11.1354
幼稚園	-11.1356
着數	-11.1356
範疇	-11.1359
西裝	-11.1359
次數	-11.136
其它	-11.1361
前景	-11.1361
櫻	-11.1363
▁->	-11.1366
果度	-11.1367
增值	-11.1367
▁呢個呢	-11.1368
飲品	-11.137
嶺南	-11.1372
rese	-11.1376
會否	-11.1377
學位	-11.1378
Ne	-11.1379
消滅	-11.1379
一款	-11.1381
天文	-11.1385
營業	-11.1387
大跌	-11.1388
gb	-11.1389
○	-11.1389
細則約束	-11.1389
遇上	-11.1398
ctor	-11.14
獎金	-11.1404
▁it	-11.1406
遣	-11.1407
head	-11.1412
青少年	-11.1416
勞動	-11.1418
錄影	-11.142
邱	-11.1421
GE	-11.1426
單野	-11.1427
眼光	-11.1429
▁sc	-11.1432
閃亮	-11.1439
術語	-11.1439
異性	-11.144
●	-11.1441
觀念	-11.1443
小威	-11.1444
武裝	-11.1445
索性	-11.1447
inte	-11.1447
evel	-11.1447
論點	-11.1447
指控	-11.1448
安裝	-11.1449
醒目	-11.145
一系列	-11.1452
主公	-11.1456
打波	-11.1456
受條款及	-11.1457
Ed	-11.1457
鄰	-11.1458
隨機	-11.1458
etc	-11.146
2.0	-11.1462
2.5	-11.1462
落街	-11.1463
斯特	-11.1463
都揾	-11.1463
ber	-11.1465
▁唔洗	-11.1469
大致	-11.1471
騎士	-11.1477
辰	-11.1485
猜	-11.149
士多	-11.1492
抵死	-11.1497
不幸	-11.1497
ash	-11.1497
彥	-11.1497
Part	-11.1499
收尾	-11.1499
捧場	-11.1499
上週五	-11.1499
▁are	-11.1499
有兩	-11.1501
拍檔	-11.1502
open	-11.1504
創辦人	-11.151
asso	-11.1512
演技	-11.1517
乜事	-11.1517
走廊	-11.1521
番去	-11.1523
GT	-11.153
vs	-11.1531
羣體	-11.1532
澄	-11.1533
抗爭者	-11.1537
fer	-11.154
呢行	-11.1542
話畀	-11.1542
擘	-11.1543
要搞	-11.1546
解答	-11.1549
ny	-11.1549
識唔識	-11.1549
都係由	-11.155
幾撚	-11.1551
會變	-11.1551
一啲嘢	-11.1552
火箭	-11.1553
愈來愈	-11.1553
貨車	-11.1554
北海道	-11.1559
算唔算	-11.1562
Step	-11.1562
差不多	-11.1562
或以上	-11.1562
果隻	-11.1566
有三	-11.1569
主觀	-11.157
碧鹹	-11.1574
同阿剌伯	-11.1574
話人	-11.1576
討	-11.158
司馬	-11.158
軍人	-11.1583
buy	-11.1584
芷	-11.1585
我未	-11.1585
發脾氣	-11.159
君主	-11.1594
偶	-11.1595
4000	-11.1595
188	-11.1596
靖	-11.1597
use	-11.1598
國籍	-11.1601
reg	-11.1604
闖	-11.1604
神奇	-11.1605
奮	-11.1605
係靠	-11.1612
温柔	-11.1614
暢	-11.1616
就越	-11.1619
派對	-11.162
個邊	-11.1622
級數	-11.1624
本事	-11.1624
一眼	-11.1625
can	-11.1629
資深	-11.163
開通	-11.1632
時空	-11.1633
!!!	-11.1636
助手	-11.1638
這	-11.1641
審查	-11.1642
車輛	-11.1644
飛去	-11.1646
人仔	-11.1646
食藥	-11.1648
徹底	-11.1649
名詞	-11.1656
座位	-11.1657
外資	-11.1661
鍊	-11.1661
▁2.	-11.1661
士氣	-11.1664
相關嘅	-11.1665
如下	-11.1666
一見到	-11.1668
見人	-11.1669
ral	-11.1669
修訂	-11.1671
住先	-11.1672
體系	-11.1672
南北	-11.1673
勞工	-11.1675
唔買	-11.1678
TS	-11.1678
兩公婆	-11.1679
射入	-11.1679
首期	-11.1682
進度	-11.1682
結他	-11.1684
卜	-11.1684
▁響呢年	-11.1684
海岸	-11.1685
患者	-11.1695
SH	-11.1699
著住	-11.1703
痾	-11.1705
以外嘅	-11.1706
屌柒	-11.1707
boss	-11.1708
四十	-11.1709
司馬懿	-11.1711
習近平	-11.1711
news	-11.1711
句子	-11.1711
採取	-11.1713
週二	-11.1714
噉你	-11.1714
天然	-11.1715
拍劇	-11.1717
可謂	-11.1723
隊伍	-11.1725
look	-11.1725
們	-11.1727
spin	-11.1727
chi	-11.173
帆	-11.173
→	-11.1731
8）	-11.1731
有錯	-11.1735
幾何	-11.1735
心得	-11.1736
ries	-11.1739
温書	-11.1739
年到	-11.1739
足總	-11.1741
ray	-11.1742
pan	-11.1742
女權	-11.1746
好返	-11.1748
淘汰	-11.1748
衡	-11.1748
出糧	-11.1749
都市	-11.1752
攻略	-11.1752
--	-11.1753
截至	-11.1753
SI	-11.1756
二戰	-11.1756
姿	-11.1761
▁So	-11.1762
落水	-11.1763
喺網上	-11.1765
咁遠	-11.1766
sur	-11.1768
電器	-11.177
打氣	-11.1771
頗	-11.1774
中東	-11.1774
唔打	-11.1775
係全	-11.1776
Davi	-11.1777
民陣	-11.1779
比如	-11.1781
機械人	-11.1781
擬	-11.1785
▁史	-11.1786
ney	-11.1791
賭場	-11.1791
脂肪	-11.1795
入門	-11.1796
dmin	-11.1796
mic	-11.1797
冒險	-11.1797
臂	-11.1799
墟	-11.18
坤	-11.18
ye	-11.1801
2-3	-11.1801
tter	-11.1801
hd	-11.1802
mart	-11.1807
Col	-11.1816
流傳	-11.1816
東湧	-11.1818
蕩	-11.1818
-0	-11.1823
＋	-11.1827
咁多嘢	-11.1828
卑	-11.1829
天橋	-11.1831
黃大仙	-11.1831
嗰條	-11.1833
鑑	-11.1834
口中	-11.1839
恥笑	-11.1841
滯	-11.1842
大小	-11.1842
任命	-11.1842
錢買	-11.1842
風扇	-11.1843
年份	-11.1846
撚哂	-11.1849
佢諗	-11.185
望一望	-11.1851
唔認	-11.1852
美軍	-11.1857
上左	-11.1858
南亞	-11.1859
港姐	-11.1862
據講	-11.1863
車展	-11.1869
ide	-11.1871
inal	-11.1873
上限	-11.1875
打下	-11.1878
max	-11.1879
▁Me	-11.1886
暴徒	-11.1886
校園	-11.1887
Na	-11.1888
鎖匙	-11.189
藍屍	-11.189
撚柒	-11.1891
mast	-11.1897
用嚟做	-11.1898
ES	-11.1901
紀年	-11.1905
無耐	-11.1906
簡介	-11.1907
新機	-11.191
tt	-11.1911
啊嘛	-11.1913
太古	-11.1916
輔	-11.1916
失蹤	-11.1918
每股	-11.1918
mess	-11.1921
現今	-11.1922
察	-11.1923
迎新	-11.1924
nect	-11.1925
喇叭	-11.1928
圈子	-11.1931
▁佢係	-11.1933
風水	-11.1934
hand	-11.1937
有料	-11.1937
耐性	-11.1937
隻馬	-11.1938
網址	-11.194
煞	-11.1941
部長	-11.1942
阿姐	-11.1942
字眼	-11.1943
我唔識	-11.1946
樓豬	-11.1946
join	-11.195
剷	-11.1951
各有	-11.1953
let	-11.1954
小食	-11.1958
▁Le	-11.1963
請咗	-11.1964
buff	-11.1971
條頸	-11.1971
公升	-11.1972
招呼	-11.1975
踢爆	-11.1975
茅	-11.1976
再度	-11.1978
裁	-11.1978
茄	-11.198
環節	-11.1985
變返	-11.1985
儲存	-11.1985
嫩	-11.1986
ply	-11.1987
▁set	-11.1988
▁di	-11.1991
兵馬	-11.1994
達哥	-11.1994
氧化	-11.1994
纏	-11.1995
黎做	-11.1996
▁而係	-11.1996
踏入	-11.1997
俊俊	-11.1999
兩隊	-11.2
變身	-11.2002
聽佢	-11.2002
激烈	-11.2007
頻率	-11.2007
壽司	-11.2007
紅軍	-11.2011
難民	-11.2013
ics	-11.2016
晚晚	-11.2017
去完	-11.202
抽水	-11.2021
pack	-11.2021
幢	-11.2022
亞軍	-11.2026
三國	-11.2028
電流	-11.2028
呢單	-11.2028
吹到	-11.2029
領土	-11.2031
喺奧斯坦	-11.2033
銀紙	-11.2036
單一	-11.2037
方言	-11.2038
總督	-11.2039
仕	-11.2046
嘉欣	-11.2046
PA	-11.2047
手續	-11.2049
有咁多	-11.205
教主	-11.2052
唔受	-11.2054
-10	-11.2055
拉斯	-11.2055
尼大區嘅	-11.2055
啤	-11.2057
助攻	-11.2058
門將	-11.2059
警犬	-11.2061
咁巖	-11.2061
Chan	-11.2062
人都有	-11.2066
抹黑	-11.2068
若然	-11.2068
武漢	-11.207
完咗	-11.207
一線	-11.2075
銜	-11.2076
唐人	-11.2076
屍體	-11.2078
開花	-11.2079
寫到	-11.208
服裝	-11.2081
ific	-11.2082
▁ch	-11.2083
dead	-11.2083
tail	-11.2084
hool	-11.2084
▁呢段	-11.2085
一分	-11.2087
玩緊	-11.2088
創業	-11.2089
聚集	-11.2091
朝廷	-11.2092
箍	-11.2092
獎賞	-11.2093
打贏	-11.2093
啡	-11.2094
要走	-11.2095
幾錢	-11.2095
你呢個	-11.2096
識到	-11.2096
雪櫃	-11.2099
▁Ho	-11.21
賽車	-11.2103
公元係	-11.2104
low	-11.2104
深度	-11.2106
棉	-11.2109
BS	-11.211
控股	-11.211
立會	-11.211
上訴	-11.2112
sci	-11.2113
雙兒	-11.2114
動漫	-11.2119
喇嘛	-11.212
祿	-11.2124
繁忙	-11.2125
袖	-11.2126
東西	-11.2127
酒樓	-11.2127
睇嗰	-11.2128
柏林	-11.213
關仁	-11.213
明日	-11.2132
VI	-11.2133
氫	-11.2133
高中	-11.2137
大使	-11.2139
fe	-11.2141
允	-11.2142
六十	-11.2142
容量	-11.2143
跪低	-11.2145
唔易	-11.2146
我叫	-11.2151
巫	-11.2151
less	-11.2152
改編	-11.2153
獎項	-11.2155
sal	-11.2158
更高	-11.2161
咪得囉	-11.2166
授權	-11.2167
身高	-11.2169
嗰次	-11.2169
個肚	-11.2171
3:	-11.2172
ns	-11.2172
印刷	-11.2174
蘇格蘭	-11.2174
望落	-11.2175
煤	-11.2176
唔鬱	-11.2176
鎮壓	-11.2177
長毛	-11.2177
彌	-11.2178
免疫	-11.2179
有巴打	-11.218
膏	-11.2181
生得	-11.2181
規格	-11.2184
籌款	-11.2187
One	-11.2193
族羣	-11.2193
stat	-11.2193
招牌	-11.2194
AS	-11.2194
向下	-11.2196
def	-11.2197
把刀	-11.2197
疾病	-11.2199
英皇	-11.2199
note	-11.2202
足足	-11.2206
常見嘅	-11.2208
蟻	-11.2208
高啲	-11.221
馬騮	-11.2211
正係	-11.2212
lab	-11.2215
分解	-11.2216
月份	-11.2217
睇怕	-11.2217
搬去	-11.2219
▁cha	-11.222
因而	-11.2221
再做	-11.2221
美容	-11.2221
㗎咩	-11.2222
sung	-11.2223
匿埋	-11.2224
▁快啲	-11.2224
拜仁	-11.2229
嘅力量	-11.223
men	-11.2231
劏	-11.2232
業界	-11.2232
加價	-11.2237
一球	-11.224
躍	-11.2241
意味	-11.2245
極大	-11.2254
OL	-11.2255
失控	-11.2256
‎	-11.2257
ii	-11.2257
King	-11.2257
破產	-11.2258
民國	-11.2263
水晶	-11.2267
吠	-11.2268
飲茶	-11.2268
尼斯	-11.2269
鑽石	-11.227
外便	-11.2272
▁vs	-11.2275
淵	-11.2276
新一代	-11.2277
事前	-11.2277
引用	-11.2278
伴侶	-11.2278
帶咗	-11.2278
塗	-11.2283
提起	-11.2284
ran	-11.2285
止蝕	-11.2286
諷刺	-11.2287
樣衰	-11.2288
嵐	-11.229
辱	-11.2291
再揾	-11.2291
ya	-11.2292
見到你	-11.2292
艙	-11.2293
手勢	-11.2296
由頭到尾	-11.2297
手臂	-11.2298
立體	-11.2299
就係想	-11.2301
清朝	-11.2302
黎到	-11.2303
匪	-11.2304
呃人	-11.2307
ake	-11.2307
cus	-11.2311
份人	-11.2312
life	-11.2312
咁我就	-11.2312
風向	-11.2315
af	-11.2321
▁17	-11.2322
儒	-11.2323
有字	-11.2324
球季	-11.2324
陣容	-11.2325
一行	-11.2325
",	-11.2326
唔只	-11.2329
1978	-11.233
握	-11.2331
就黎	-11.2334
灑	-11.2334
加州	-11.2336
gear	-11.2336
聯繫	-11.2341
Wi	-11.2341
去食	-11.2342
掹	-11.2342
祖國	-11.2343
灘	-11.2344
陷	-11.2345
領導人	-11.2346
uck	-11.2346
帶出	-11.2348
阿珂	-11.2348
Ta	-11.2349
cond	-11.2349
買完	-11.235
comm	-11.2353
漂	-11.2353
皓	-11.2353
願望	-11.2354
reat	-11.2357
OP	-11.2358
新疆明日	-11.2359
天才	-11.2363
改名做	-11.2366
山東	-11.2372
微博	-11.2372
》24	-11.2374
有病	-11.2377
傲	-11.2378
坪	-11.2378
一刀	-11.2378
標誌	-11.2381
乞	-11.2384
盡在	-11.2384
有咩事	-11.2385
Show	-11.2386
騰訊	-11.2386
私隱	-11.2386
接駁	-11.2388
遊樂場	-11.2397
不利	-11.2398
藍店	-11.2398
。2.	-11.24
IA	-11.2404
叮	-11.2406
連忙	-11.2406
荊州	-11.2409
user	-11.2409
你會唔會	-11.2409
廣西	-11.241
有啲嘢	-11.241
大户	-11.2413
女兒	-11.2413
一腳	-11.2414
放過	-11.2414
poly	-11.2415
▁利申	-11.2416
潭	-11.2416
貨品	-11.2417
一單	-11.2422
dge	-11.2423
興建	-11.2423
診	-11.2426
$5	-11.2428
簡直係	-11.2431
遺產	-11.2432
last	-11.2434
施政	-11.2434
原始	-11.2434
0:00	-11.2435
….	-11.2435
HR	-11.2435
無意	-11.2437
都唔明	-11.2437
Pa	-11.2438
叫佢做	-11.2439
曱甴	-11.2439
完場	-11.244
年成立	-11.244
毛巾	-11.2444
icro	-11.2445
屋邨	-11.2446
乜鳩	-11.2454
engi	-11.2455
財富	-11.2457
輕易	-11.246
賠償	-11.2462
綿	-11.2463
精彩	-11.2463
收藏	-11.2464
洩	-11.2468
參賽者	-11.2474
班仆街	-11.2475
good	-11.2476
身形	-11.2476
唔玩	-11.2477
贏波	-11.2477
按摩	-11.2477
人性	-11.2484
做事	-11.2484
繞	-11.2484
請佢	-11.2485
我地既	-11.2488
嘅聲音	-11.249
夠鐘	-11.2491
指標	-11.2492
巿	-11.2492
iu	-11.2494
途徑	-11.2496
中銀	-11.2496
ref	-11.2498
協調	-11.2499
耗	-11.25
外地	-11.2501
黑白	-11.2502
九巴	-11.2504
向來	-11.2504
邁	-11.2505
套劇	-11.2505
賣點	-11.2507
,500	-11.2508
姜維	-11.251
講既	-11.251
我只	-11.2511
Fo	-11.2512
村民	-11.2514
意甲	-11.2517
早年	-11.2517
區選	-11.2522
新增	-11.2525
果日	-11.2527
起源	-11.253
bl	-11.2533
光環	-11.2533
訂閲	-11.2534
讀緊	-11.2535
名叫	-11.2537
行緊	-11.254
逃走	-11.2543
▁wat	-11.2543
做既野	-11.2546
chat	-11.2546
兩粒	-11.2548
從事	-11.2548
vis	-11.2551
city	-11.2552
侵犯	-11.2554
蝗	-11.2555
率先	-11.2558
Will	-11.256
筍	-11.2563
$6	-11.2563
▁mon	-11.2569
誠意	-11.2569
pp	-11.257
copy	-11.257
小孟	-11.2571
tim	-11.2571
hit	-11.2572
fi	-11.2573
或致電	-11.2573
無線	-11.2573
隱藏	-11.2576
Cent	-11.2576
落成	-11.2577
GA	-11.2581
下令	-11.2581
瑩	-11.2582
》《	-11.2583
tag	-11.2585
捐錢	-11.2585
究	-11.2585
丟	-11.2586
張卡	-11.2588
早上	-11.2589
涉嫌	-11.2597
半夜	-11.26
大熱	-11.2605
係假	-11.2608
療	-11.2608
Off	-11.2608
延長	-11.2609
My	-11.261
大股東	-11.2612
最愛	-11.2616
港紙	-11.2616
▁sy	-11.2616
呢家	-11.2616
大橋	-11.2618
成身	-11.2619
芙	-11.2619
咁靚	-11.2619
檸檬	-11.2621
Inst	-11.2622
美好	-11.2622
呵	-11.2623
交界	-11.2624
gan	-11.2624
撤退	-11.2624
培養	-11.2626
炭	-11.2626
大選	-11.2626
豪華	-11.2628
美食	-11.263
0.5	-11.263
前往	-11.263
引致	-11.263
主管	-11.2631
名稱	-11.2632
熱帶	-11.2632
單嘢	-11.2633
BC	-11.2636
分成	-11.2637
安樂	-11.2637
▁sup	-11.2637
道具	-11.2645
好多時都	-11.2646
反省	-11.2647
葡	-11.2647
諾貝爾	-11.2648
廸	-11.2648
呢首歌	-11.2649
寫得	-11.2651
古怪	-11.2653
main	-11.2655
我地就	-11.2658
被動	-11.2659
馬場	-11.2661
密度	-11.2663
咁多野	-11.2666
就係你	-11.2669
呢篇	-11.267
食住	-11.2672
打敗	-11.2673
未呀	-11.2675
初步	-11.2676
周瑜	-11.2677
-3	-11.2679
首席	-11.268
大班	-11.2682
ize	-11.2683
蠻	-11.2683
即日	-11.2687
循	-11.2689
Sta	-11.2694
偷食	-11.2695
我心諗	-11.2698
逃避	-11.2699
fake	-11.2702
ite	-11.2706
我地係	-11.2707
猶	-11.2707
host	-11.2708
nn	-11.2708
賽前	-11.2709
car	-11.2709
一口氣	-11.271
叛	-11.271
朗尼	-11.2714
心中	-11.2716
laim	-11.2717
捐款	-11.272
han	-11.2723
係乜嘢	-11.2726
重未	-11.2733
世代	-11.2734
丹麥	-11.2735
val	-11.2735
無曬	-11.2737
推行	-11.2737
普及	-11.274
懵	-11.2741
換咗	-11.2741
同盟	-11.2743
忽略	-11.2744
詹	-11.2745
TR	-11.2747
你同我	-11.2747
旭	-11.2749
1950	-11.2749
每一	-11.2751
帶有	-11.2751
公道	-11.2752
嚇親	-11.2753
白白	-11.2754
你條	-11.2755
ik	-11.2755
ls	-11.2755
下月	-11.2755
噉話	-11.2757
ita	-11.2757
延伸	-11.2757
勁過	-11.2761
Ju	-11.2765
逃犯	-11.2765
建造	-11.2765
弦	-11.2767
最受	-11.2767
睇片	-11.2768
體諒	-11.2769
大韓民國	-11.2769
號喺	-11.277
漸	-11.277
之上	-11.2771
噉講	-11.2771
楂住	-11.2771
稍為	-11.2773
發洩	-11.2775
心思	-11.2776
落山	-11.2778
本土派	-11.2781
天空	-11.2782
影像	-11.2783
想唔想	-11.2783
正路	-11.2786
最勁	-11.2788
單獨	-11.2789
重温	-11.279
bio	-11.279
西部	-11.2791
麪包	-11.2793
推進	-11.2796
豆腐	-11.2797
信號	-11.2797
FIFA	-11.2799
都有好多	-11.28
追擊	-11.2801
三四	-11.2802
一見	-11.281
隨後	-11.281
份量	-11.2812
洗手	-11.2813
唔知你	-11.2814
佢哋會	-11.2815
和諧	-11.2817
億港元	-11.2818
TC	-11.282
救人	-11.2821
公立	-11.2824
二年	-11.2825
▁Be	-11.2826
個天	-11.2828
出售	-11.283
rn	-11.283
本報	-11.2831
衣服	-11.2832
嗲	-11.2832
ara	-11.2833
▁你要	-11.2834
que	-11.2835
靈活	-11.2836
縫	-11.2836
成果	-11.2837
前輩	-11.2838
ula	-11.2838
表白	-11.2839
ey	-11.2841
防暴	-11.2842
正在	-11.2845
好多都係	-11.2849
身處	-11.285
一開	-11.2852
愈黎愈	-11.2853
mate	-11.2853
ren	-11.2853
菊	-11.2856
扔	-11.2856
鍋	-11.2858
戀愛	-11.286
駛唔駛	-11.286
脹	-11.286
出局	-11.2861
DQ	-11.2863
上手	-11.2863
law	-11.2869
特點	-11.2869
RI	-11.2869
主意	-11.2872
走向	-11.2873
sult	-11.2878
廢事	-11.2879
寫字樓	-11.2882
ef	-11.2886
填海	-11.2886
uc	-11.2886
游	-11.2891
LL	-11.2894
Inte	-11.2897
高清	-11.2901
都冇得	-11.2905
遙	-11.2907
囊	-11.2908
馬力	-11.2908
義務	-11.2908
cred	-11.2908
好識	-11.2913
信念	-11.2914
我就係	-11.2915
想用	-11.2916
flix	-11.2917
丙	-11.2917
word	-11.2917
正股	-11.2919
無知	-11.292
鏟	-11.2921
屏幕	-11.2922
退役	-11.2925
ham	-11.2925
張圖	-11.2925
分行	-11.2926
ju	-11.2927
Dis	-11.2928
融入	-11.2929
蓉	-11.2931
在內	-11.2932
佢又話	-11.2933
Jack	-11.2933
轉去	-11.2933
送中	-11.2938
傳奇	-11.294
波斯	-11.2941
唔曬	-11.2942
跟手	-11.2942
拎返	-11.2945
樑	-11.2947
羅剎	-11.2947
聽住	-11.2952
襟	-11.2953
Hu	-11.2957
中年	-11.2957
屠	-11.2959
初選	-11.2959
有野	-11.2965
南非	-11.2967
1976	-11.2967
扭曲	-11.2969
only	-11.2973
虧	-11.2975
商店	-11.2976
row	-11.2981
星加坡	-11.2981
有班	-11.2983
幫忙	-11.2985
▁唔駛	-11.2987
變做	-11.2988
又唔想	-11.2988
偏向	-11.2989
代言人	-11.299
行下	-11.2991
培訓	-11.2991
諗過	-11.2995
一季	-11.2995
CK	-11.2997
人格	-11.2998
第啲	-11.2998
皇宮	-11.3
另有	-11.3005
懂	-11.3005
林沖	-11.3007
足以	-11.3007
趯	-11.3007
KE	-11.3011
簽咗	-11.3012
倩	-11.3014
據知	-11.3019
消防員	-11.3019
SC	-11.3019
袁紹	-11.3022
her	-11.3024
buil	-11.3025
逳	-11.3026
之際	-11.3026
體能	-11.3031
關公	-11.3033
oc	-11.3033
玫瑰	-11.3034
民生	-11.3035
Yo	-11.3036
°	-11.3037
啜	-11.304
攻打	-11.3041
懷孕	-11.3041
ial	-11.3041
剛剛	-11.3042
匹馬	-11.3048
都係靠	-11.3048
九龍灣	-11.3049
pic	-11.305
酬	-11.3053
買野	-11.3053
運氣	-11.3053
▁tra	-11.3054
轉數快	-11.3055
誘	-11.3057
噉做	-11.3057
but	-11.3059
黃埔	-11.306
Fans	-11.3061
cctv	-11.3062
宵	-11.3063
會對	-11.3064
世盃	-11.3064
薛	-11.3064
創辦	-11.3066
cord	-11.3067
住咗	-11.3069
Su	-11.307
心急	-11.307
巴閉	-11.3071
動機	-11.3071
熊貓	-11.3072
節日	-11.3072
四月	-11.3073
Cap	-11.3073
上週六	-11.3075
背心	-11.3075
rap	-11.3076
源於	-11.3076
決策	-11.3078
一事	-11.308
女團	-11.3084
陪我	-11.3086
做出	-11.3086
紅館	-11.3086
西洋	-11.3088
▁per	-11.3088
趙雲	-11.3088
等級	-11.309
轉換	-11.309
▁day	-11.3093
▁Po	-11.3093
俄國	-11.3095
嫁啦	-11.3095
狗狗	-11.3096
譴責	-11.3097
流血	-11.3101
伸手	-11.3103
前便	-11.3104
國歌	-11.3106
怪物	-11.3107
濱	-11.3109
電力	-11.3109
自已	-11.311
坦言	-11.3113
卦	-11.3113
比利時	-11.3118
收錄	-11.3119
LV	-11.3121
長實	-11.3122
追蹤	-11.3122
■	-11.3126
嘅狀態	-11.3126
收返	-11.3127
睇唔起	-11.3128
預先	-11.3133
𠻺	-11.3133
運算	-11.3134
只限	-11.3136
珠江	-11.3137
遺憾	-11.3138
漢語	-11.314
海關	-11.314
pl	-11.3142
辯論	-11.3142
咁款	-11.3147
<	-11.3148
汪	-11.3148
接力	-11.315
丈	-11.315
監獄	-11.3151
到左	-11.3151
防線	-11.3152
神話	-11.3153
地底	-11.3154
一流	-11.3155
號到	-11.3156
竟	-11.3156
1-2	-11.3157
高鐵	-11.3158
奴才	-11.3162
鄭秀文	-11.3165
有嘢	-11.3166
所屬	-11.3166
停留	-11.3172
升咗	-11.3172
自拍	-11.3177
笪	-11.318
蹤	-11.3181
係好事	-11.3182
物理學	-11.3182
聚會	-11.3183
▁–	-11.3185
斧	-11.3186
樣樣	-11.3188
All	-11.319
適當	-11.3192
星星	-11.3192
呢款	-11.3192
type	-11.3193
地步	-11.3195
請人	-11.3196
基層	-11.32
重返	-11.3205
車位	-11.3206
Ja	-11.3207
唔知咩	-11.3208
垂	-11.3208
走曬	-11.321
見到個	-11.3211
聽歌	-11.3214
旋	-11.3214
連儂牆	-11.3219
一律	-11.3219
新客	-11.322
字詞	-11.322
初時	-11.322
好低	-11.3221
eo	-11.3222
九龍城	-11.3223
自此	-11.3225
馬主	-11.3226
都係睇	-11.3227
呢本	-11.3228
情人節	-11.3229
第十	-11.323
零件	-11.3231
噸	-11.3233
1949	-11.3235
猶太人	-11.3236
咁差	-11.3237
SD	-11.3241
一招	-11.3241
畫質	-11.3243
▁can	-11.3246
你見	-11.3247
Ba	-11.3247
星座	-11.3248
wor	-11.3248
ient	-11.3248
bert	-11.3248
幾種	-11.3249
tin	-11.3249
中港	-11.3251
包容	-11.3252
就見到	-11.3253
同期	-11.3253
會出	-11.3253
浴	-11.3255
正當	-11.3256
一野	-11.3256
太耐	-11.3257
呢支	-11.3258
160	-11.3262
呢啲人	-11.3262
門票	-11.3264
掙扎	-11.3265
愈嚟愈	-11.3265
大笑	-11.3266
係為左	-11.3267
focu	-11.327
嘅簡稱	-11.327
發電	-11.3272
牢	-11.3273
hen	-11.3274
ep	-11.3274
腺	-11.3275
拍過	-11.3277
自願	-11.3281
30%	-11.3281
都仲未	-11.3282
侍衞	-11.3282
年起	-11.3282
嘅身份	-11.3283
世上	-11.3284
心臟	-11.3287
高等	-11.3289
傳送	-11.3289
金像獎	-11.329
風暴	-11.3292
RAM	-11.3293
沛	-11.3294
賣咗	-11.3294
演繹	-11.3298
過身	-11.33
法定	-11.3301
bye	-11.3302
峽	-11.3304
吖嗎	-11.3305
發言人	-11.3306
詳	-11.3309
CEO	-11.3312
▁攷	-11.3314
logy	-11.3317
得架	-11.3322
行貨	-11.3322
瑟	-11.3323
無理	-11.3326
成晚	-11.3327
勝出	-11.3328
PM	-11.3328
底褲	-11.3328
研發	-11.3329
釣	-11.333
咁難	-11.333
Alex	-11.3331
cor	-11.3333
奧林匹克	-11.3333
私樓	-11.3334
場比賽	-11.3337
lic	-11.3337
撕	-11.3337
揾啲	-11.3338
權益	-11.3339
抗拒	-11.3342
什	-11.3344
舞台劇	-11.3346
勳	-11.3347
仰	-11.3349
西環	-11.3351
咩事啊	-11.3354
XX	-11.3354
面試	-11.3355
演唱	-11.3355
831	-11.3356
喉嚨	-11.3359
保存	-11.336
答應	-11.3361
震撼	-11.3361
話俾	-11.3364
越大	-11.3365
過關	-11.3365
學會	-11.3367
軚	-11.3369
貴族	-11.3371
學人	-11.3371
勇士	-11.3371
娛	-11.3371
嘅成員	-11.3372
路口	-11.3372
一秒	-11.3374
科幻	-11.3376
▁ac	-11.3376
客運	-11.3377
101	-11.3378
物料	-11.3379
會計	-11.3379
重話	-11.338
coun	-11.3383
聽落	-11.3383
天文台	-11.3386
EC	-11.3388
乜你	-11.3389
13.	-11.3389
講嚇	-11.339
壞咗	-11.3391
潛力	-11.3394
半日	-11.3396
槽	-11.3397
嘅球員	-11.3397
職務	-11.3397
砂	-11.3398
我好想	-11.34
推出嘅	-11.3402
局面	-11.3403
五千	-11.3404
送到	-11.3404
mber	-11.3406
肇	-11.3407
打卡	-11.3411
ek	-11.3413
仲未計	-11.3419
我幫你	-11.3421
鮑	-11.3422
重申	-11.3423
AMD	-11.3424
合適	-11.3426
好忙	-11.3427
fing	-11.3427
加咗	-11.3429
拎左	-11.3431
同類	-11.3431
Pet	-11.3432
冇人會	-11.3433
唔撚係	-11.3437
限定	-11.3437
幸運	-11.344
先進	-11.3441
elly	-11.3442
冤	-11.3443
die	-11.3444
週四	-11.3445
▁欸	-11.3445
行家	-11.3446
係錯	-11.3447
半場	-11.3448
推到	-11.3449
小明	-11.3449
睇中	-11.345
有大量	-11.3451
will	-11.3454
握手	-11.3455
ust	-11.3462
比亞	-11.3463
睇相	-11.3463
乃係	-11.3465
覺醒	-11.3473
圖像	-11.3473
▁→	-11.3474
芬蘭	-11.3476
生理	-11.3476
周邊	-11.3477
過癮	-11.3479
郊	-11.3483
ipho	-11.3483
狗仔	-11.3486
come	-11.3488
蕉	-11.3489
排除	-11.3489
web	-11.3489
咁多錢	-11.3489
咩呀	-11.3492
吃	-11.3494
stra	-11.3495
亦無	-11.3496
去咗邊	-11.3496
譽	-11.3497
走得	-11.3497
手袋	-11.3501
雙重標準	-11.3503
笑到	-11.3504
贊	-11.3504
mu	-11.3505
出曬	-11.3507
災難	-11.3508
某人	-11.351
屬下	-11.3512
巴塞隆拿	-11.3513
cert	-11.3514
lay	-11.3519
封面	-11.3519
嬲到	-11.3519
診所	-11.352
萬幾	-11.352
多得	-11.352
〉	-11.3522
細心	-11.3524
例外	-11.3525
ally	-11.3526
有冇諗過	-11.3527
伯伯	-11.3527
Cor	-11.3528
脾	-11.3529
奕	-11.3531
ross	-11.3531
脷	-11.3534
車牌	-11.3534
學下	-11.3539
遮住	-11.354
絕望	-11.354
扇	-11.3542
財產	-11.3544
捨	-11.3549
除此	-11.355
處女	-11.3554
龔	-11.356
況且	-11.3561
▁Con	-11.3562
飲食男女	-11.3562
營寨	-11.3564
本質	-11.3564
從未	-11.3566
coin	-11.3567
害死	-11.3569
numb	-11.357
利潤	-11.357
ys	-11.3576
body	-11.3577
分區	-11.3578
揾番	-11.3579
合成	-11.3579
理財	-11.3581
又唔知	-11.3582
不要	-11.3583
應對	-11.3583
單單	-11.3585
修例	-11.3585
主教	-11.3586
大頭	-11.3587
殖民	-11.3589
接手	-11.359
...「	-11.3592
男主	-11.3593
東吳	-11.3594
抑鬱	-11.3594
蛋白質	-11.3596
En	-11.3597
海峽	-11.3597
滙控	-11.3598
白雲	-11.3598
pap	-11.36
裏面嘅	-11.3603
教我	-11.3604
上門	-11.3605
停咗	-11.3608
騎師	-11.361
▁但佢	-11.361
咯喎	-11.3611
葱	-11.3614
歪	-11.3614
好撚多	-11.3615
大王	-11.3615
三月	-11.3618
魅力	-11.362
你快啲	-11.362
夕	-11.3621
河南	-11.3621
個體	-11.3622
隻股	-11.3622
pin	-11.3626
瓊	-11.3627
趨勢	-11.3628
Char	-11.3629
▁Cha	-11.363
選出	-11.3631
pool	-11.3632
99《	-11.3633
綽姿	-11.3633
本月	-11.3635
鋼琴	-11.3637
TB	-11.3638
茵	-11.3638
終極	-11.3639
仿	-11.364
回收	-11.3647
NO	-11.3648
Sp	-11.3648
起好	-11.365
點點點	-11.365
交通工具	-11.3652
肥婆	-11.3653
Dr	-11.3653
在意	-11.3654
輸左	-11.3655
女方	-11.3656
卡拉	-11.3657
太高	-11.3658
海嘯	-11.3658
號至	-11.3659
模糊	-11.366
唔高	-11.3664
Ben	-11.3666
呢堆	-11.367
鋁	-11.3673
urse	-11.3675
NE	-11.3676
笑言	-11.3676
仇恨	-11.3681
同步	-11.3681
個身	-11.3684
名為	-11.3684
珠寶	-11.3685
威力	-11.3687
揾下	-11.3687
雖則	-11.369
大灣區	-11.369
枉	-11.3692
流通	-11.3692
Paul	-11.3693
your	-11.3694
1975	-11.3694
男士	-11.3695
二三	-11.3696
出路	-11.3696
幾條	-11.3696
▁Li	-11.3697
識咗	-11.3697
ael	-11.3697
He	-11.3697
死得	-11.37
▁HK	-11.3703
支撐	-11.3703
姨姨	-11.3704
保住	-11.3707
上演	-11.3714
龍頭	-11.3714
pc	-11.3715
謎	-11.3716
喻	-11.3717
家屬	-11.3717
fan	-11.3718
攞返	-11.372
食緊	-11.3722
羨慕	-11.3723
賺到	-11.3724
鹹濕	-11.3724
煩惱	-11.3725
議會選舉	-11.3726
logi	-11.373
字頭	-11.3732
抵抗	-11.3735
指責	-11.3743
lie	-11.3745
icon	-11.3747
銀河	-11.3748
威廉	-11.3749
我老母	-11.375
瑜	-11.375
區選舉	-11.3751
Pi	-11.3752
模仿	-11.3758
畫家	-11.3763
等地	-11.3764
棠	-11.3766
強勢	-11.3768
水喉	-11.3769
哩啲	-11.3769
入手	-11.377
▁Com	-11.377
據聞	-11.3772
隊員	-11.3773
▁acc	-11.3774
唔成	-11.3774
最平	-11.3775
▁he	-11.3776
遺傳	-11.3777
怪獸	-11.3778
艘	-11.378
即睇	-11.3781
重組	-11.3781
分做	-11.3782
跟隨	-11.3782
短短	-11.3783
幾十萬	-11.3783
▁Man	-11.3784
elle	-11.3785
ens	-11.3787
兒子	-11.3789
奪得	-11.3789
佢哋話	-11.3799
過度	-11.3799
兩張	-11.38
}	-11.3802
好曬	-11.3802
蝶	-11.3802
保羅	-11.3811
傻閪	-11.3811
強化	-11.3814
介入	-11.3819
食材	-11.382
瘋	-11.382
wifi	-11.3822
見我	-11.3825
衡量	-11.3826
南華	-11.3826
蠟	-11.3829
同場	-11.3829
霜	-11.383
Bu	-11.383
zz	-11.3831
阻力	-11.3832
ino	-11.3832
home	-11.3832
130	-11.3832
都唔算	-11.3834
天台	-11.3834
富士	-11.3835
輸畀	-11.3836
你幫我	-11.3836
用作	-11.3837
卵	-11.3841
諸葛亮	-11.3841
斌	-11.3843
到尾	-11.3844
昆蟲	-11.3844
對腳	-11.3845
有力	-11.3847
羅斯	-11.3847
cs	-11.3848
亦唔會	-11.3849
色彩	-11.3849
確係	-11.385
錯咗	-11.3852
敍	-11.3852
都冇咩	-11.3852
競	-11.3855
飲咗	-11.3856
某種	-11.3861
▁fa	-11.3864
689	-11.3866
延續	-11.3867
大雨	-11.3869
整數	-11.3876
一組	-11.3878
Bra	-11.3879
巨大	-11.388
商家	-11.388
１	-11.3881
糧食	-11.3884
佩服	-11.3884
打入	-11.3884
中招	-11.3884
接住	-11.3888
疑問	-11.3888
比左	-11.3889
二月	-11.3889
110	-11.389
都有得	-11.3891
市價	-11.3891
桿	-11.3892
lift	-11.3893
過得	-11.3894
450	-11.3895
pace	-11.3898
一二	-11.3903
果下	-11.3905
帶動	-11.3907
{	-11.3908
奧地利	-11.391
ute	-11.3913
維基	-11.3914
3.5	-11.3915
港府	-11.3916
以免	-11.3916
見到我	-11.3917
嫲嫲	-11.3917
流出	-11.3917
西鐵	-11.3918
東部	-11.3921
門檻	-11.3922
東區	-11.3922
咪話	-11.3923
並喺	-11.3927
rd	-11.3927
悟	-11.3928
▁咁就	-11.3928
市長	-11.393
搞咗	-11.3931
粵劇	-11.3932
777	-11.3932
拍到	-11.3934
粉嶺	-11.3934
Per	-11.3938
核彈	-11.3939
黏	-11.3939
站廳	-11.3939
走咗去	-11.3941
一篇	-11.3942
廂	-11.3943
一轉	-11.3945
午餐	-11.3947
佐敦	-11.395
唔夾	-11.395
巨星	-11.3952
預埋你	-11.3955
字幕	-11.3955
城門	-11.3956
細菌	-11.3956
摘	-11.3957
啲水	-11.3963
▁咁我	-11.3963
nic	-11.3963
文書	-11.3964
amp	-11.3965
收貨	-11.3966
葵涌	-11.3968
濤	-11.397
百貨	-11.3971
大雄	-11.3971
都冇人	-11.3972
珍珠	-11.3974
deal	-11.3974
搞到佢	-11.3974
億美元	-11.3975
▁un	-11.3975
壺	-11.3977
温泉	-11.3977
APP	-11.398
復活	-11.398
風波	-11.3981
IM	-11.3982
守住	-11.3983
追住	-11.3986
一成	-11.3986
古仔	-11.399
ator	-11.399
車手	-11.3992
6000	-11.3993
雕	-11.3993
恐嚇	-11.3995
西藏	-11.3995
人體	-11.3996
樓盤	-11.3996
捉鬼	-11.4
圍爐	-11.4003
頒獎典禮	-11.4004
首府	-11.4004
屁	-11.4004
apps	-11.4006
月餅	-11.4009
賽馬	-11.4011
樖	-11.4015
急急	-11.4016
卧	-11.4021
再加埋	-11.4023
傷者	-11.4024
赴	-11.4024
好憎	-11.4026
猴	-11.4028
陛下	-11.4029
清算	-11.4031
era	-11.4031
康復	-11.4033
入圍	-11.4033
一首	-11.4036
評分	-11.4037
馬鞍山	-11.4037
咗咁耐	-11.4039
刃	-11.404
遠遠	-11.404
鍵盤	-11.4041
佢唔會	-11.4044
完左	-11.4048
可靠	-11.4049
帶頭	-11.4049
做足	-11.4052
999	-11.4054
姿勢	-11.4054
ass	-11.4055
疾	-11.4059
出錢	-11.4062
oard	-11.4063
1977	-11.4065
負評	-11.4065
興起	-11.4068
落力	-11.4073
loud	-11.4076
rout	-11.4078
貿	-11.4079
追問	-11.4084
公公	-11.4086
激進	-11.4087
湘	-11.4087
佢地會	-11.4088
ier	-11.4092
py	-11.4092
皇室	-11.4093
boot	-11.4094
唔排除	-11.4096
噉𠻺	-11.4097
提示	-11.4098
日線	-11.4098
Sha	-11.4099
好漢	-11.41
紙巾	-11.4101
大嶼山	-11.4102
無力	-11.4103
▁dis	-11.4105
得獎	-11.4106
海報	-11.4106
hz	-11.4107
this	-11.411
reak	-11.411
ions	-11.4113
▁↔	-11.4113
拱	-11.4114
嬴	-11.4116
受惠	-11.4117
bal	-11.4117
再問	-11.4118
Ant	-11.4118
反共	-11.4118
舉起	-11.4118
彪	-11.4119
▁Uni	-11.412
耍	-11.4121
USB	-11.4123
彼此	-11.4124
多餘	-11.4125
lf	-11.4126
咪得	-11.4126
行開	-11.4126
你唔會	-11.4126
Jame	-11.4126
valu	-11.4128
喲	-11.4128
very	-11.4131
佢仲話	-11.4132
Che	-11.4134
1945	-11.4134
惜	-11.4135
嚟咗	-11.4135
喺街	-11.4136
收得	-11.4136
ox	-11.4137
白人	-11.4137
路人	-11.4138
壞事	-11.4139
▁你唔	-11.4139
都無用	-11.4141
iPad	-11.4141
離場	-11.4141
積分	-11.4142
已知	-11.4143
出於	-11.4145
見證	-11.4149
三隻	-11.4151
前進	-11.4152
條款	-11.4153
一至	-11.4153
上天	-11.4155
維多利亞	-11.4155
1974	-11.4155
不明	-11.4157
佢老母	-11.416
心跳	-11.4162
讀音	-11.4167
極速	-11.4168
入院	-11.4169
心意	-11.417
少量	-11.4172
PD	-11.4172
落台	-11.4173
8/20	-11.4175
new	-11.4176
週六	-11.4177
起義	-11.4179
張枱	-11.4181
visa	-11.4181
14.	-11.4182
用語	-11.4182
車頭	-11.4183
ix	-11.4185
▁Ha	-11.4185
idea	-11.4185
款式	-11.4187
▁He	-11.4189
出得	-11.4189
難聽	-11.419
坦克	-11.4193
飲完	-11.4194
遍	-11.4194
專訪	-11.4194
War	-11.4195
搞唔掂	-11.4197
每晚	-11.4198
乜乜乜	-11.4199
下半場	-11.42
緯	-11.4205
lag	-11.4205
癱瘓	-11.4205
我驚	-11.4205
):	-11.4208
祖先	-11.421
按此	-11.4211
啱曬	-11.4212
rus	-11.4212
北極	-11.4213
Ki	-11.4216
撚樣	-11.4217
手掌	-11.4218
have	-11.4218
爵士	-11.4221
謀殺	-11.4222
改成	-11.4224
促進	-11.4226
qua	-11.4227
exp	-11.4228
一蚊	-11.4229
晚餐	-11.423
生死	-11.423
李逵	-11.4231
大部分人	-11.4231
進修	-11.4232
鴨脷洲	-11.4233
拉咗	-11.4234
徹	-11.4237
一共	-11.4237
▁|-	-11.4237
密切	-11.4239
大勝	-11.424
trol	-11.4241
有啲咩	-11.4242
美聯	-11.4245
轉車	-11.4247
人心	-11.4247
1973	-11.4248
細細	-11.4248
分支	-11.4249
Worl	-11.4251
漸漸	-11.4254
彼	-11.4256
貼士	-11.4258
向佢	-11.4259
文法	-11.426
召喚	-11.4261
個心諗	-11.4261
校友	-11.4262
廢柴	-11.4262
人流	-11.4263
1972	-11.4268
灰色	-11.4268
去街	-11.427
選票	-11.4277
回頭	-11.4281
想玩	-11.4285
Temp	-11.4288
碩	-11.4289
股權	-11.4289
離地	-11.429
收左	-11.429
拯救	-11.4292
僱主	-11.4293
咋嘛	-11.4294
亦可	-11.4295
老屈	-11.4295
嘞噃	-11.4296
尼馬	-11.4296
心事	-11.4298
限量	-11.4299
視為	-11.4301
緒	-11.4301
禪	-11.4305
大仔	-11.4307
轉型	-11.4309
有齊	-11.4309
七個	-11.4311
潛在	-11.4312
楊千嬅	-11.4312
tv	-11.4313
融合	-11.4313
體積	-11.4314
用盡	-11.4316
特價	-11.4319
文物	-11.4321
輪流	-11.4322
入夥	-11.4323
Jess	-11.4324
▁Sc	-11.4326
趕走	-11.4327
mat	-11.4328
滲透	-11.4328
拎起	-11.433
朗拿度	-11.4334
func	-11.4337
trai	-11.4341
quit	-11.4344
所需	-11.4344
輕微	-11.4345
解放	-11.4346
未啊	-11.4353
帶風向	-11.4354
挪威	-11.4356
中左	-11.4357
再嚟	-11.4359
ocal	-11.4359
lear	-11.436
風雲	-11.4361
有無人	-11.4366
弊喇	-11.4368
弘	-11.4369
每次都	-11.4369
貢	-11.4369
幽默	-11.4372
日軍	-11.4372
點心	-11.4373
埋黎	-11.4374
防禦	-11.4376
天津	-11.4379
黎睇	-11.4379
戒指	-11.4379
覆蓋	-11.4382
嗰段	-11.4383
May	-11.4384
逐步	-11.4385
王爺	-11.4386
講嘅嘢	-11.4389
pick	-11.4389
入貨	-11.4392
疲	-11.4392
Ｄ	-11.4395
粉紅色	-11.4397
三萬	-11.4398
rr	-11.4399
塞車	-11.44
動詞	-11.4403
詩人	-11.4408
近代	-11.441
拎去	-11.4413
（23	-11.4415
陷入	-11.4415
懸	-11.4417
被視為	-11.4418
Jenn	-11.4419
體重	-11.4421
城牆	-11.4423
儲蓄	-11.4423
一共有	-11.4427
揮手	-11.4429
咁叻	-11.443
詞語	-11.4432
疑惑	-11.4433
鳳凰	-11.4434
一開波	-11.4435
有助	-11.4436
呢招	-11.4436
親密	-11.4436
躁	-11.4441
場景	-11.4442
啟動	-11.4442
加料	-11.4444
辨	-11.4446
㗎嘞	-11.4447
人選	-11.4451
當事人	-11.4452
送去	-11.4453
行先	-11.4454
奧斯卡	-11.4454
濫用	-11.4455
pay	-11.4456
完善	-11.4459
佔士	-11.4462
▁你又	-11.4464
場內	-11.4464
：132	-11.4465
籤	-11.4467
內閣	-11.4473
局勢	-11.4475
▁Int	-11.4475
九年	-11.4476
散熱	-11.4477
斯文	-11.4477
qui	-11.4477
冥	-11.4479
oper	-11.448
獎勵	-11.4483
乜嘢啊	-11.4486
道門	-11.4488
tic	-11.449
艷	-11.4495
Love	-11.4497
鄭中基	-11.4498
症狀	-11.4498
擅長	-11.45
碑	-11.4501
儲錢	-11.4502
EM	-11.4504
主體	-11.4506
店員	-11.4506
抽到	-11.4511
周街	-11.4511
脊	-11.4513
死啦	-11.4514
常常	-11.4514
元年	-11.4519
1500	-11.452
收益	-11.452
一嚿	-11.4523
番啲	-11.4526
係黃曆	-11.4526
mily	-11.4527
roll	-11.4534
usic	-11.4537
出兵	-11.4538
院長	-11.4539
修正	-11.4541
睇黎	-11.4544
捉咗	-11.4547
撚完	-11.4547
Big	-11.4554
老屎忽	-11.4557
步驟	-11.4559
一心	-11.4559
tate	-11.4559
首爾	-11.4559
古時	-11.4559
功能組別	-11.456
cost	-11.4561
虹	-11.4561
衍生	-11.4562
幹預	-11.4563
iss	-11.4566
置業	-11.4566
演講	-11.4567
司徒	-11.4569
走佬	-11.4569
強度	-11.4575
滲	-11.4578
多兩	-11.4579
天光	-11.458
更多人	-11.458
Book	-11.4581
碩士	-11.4585
tone	-11.4586
南區	-11.4587
SSD	-11.4588
向後	-11.4591
國腳	-11.4591
親王	-11.4593
記招	-11.4594
清醒	-11.4596
削	-11.4596
打法	-11.4596
六七	-11.4597
好熟	-11.4598
一幕	-11.4599
讀到	-11.4599
娃	-11.46
阿富汗	-11.46
虛擬	-11.4603
指令	-11.4604
榜首	-11.4605
打爆	-11.4605
輸波	-11.4608
急升	-11.4608
側邊	-11.4609
坐車	-11.4611
影視	-11.4614
辦事處	-11.4618
啓	-11.4619
ajor	-11.4619
Gen	-11.4624
屌到	-11.4625
攻勢	-11.4628
唔放	-11.4628
刮	-11.4631
到不得了	-11.4631
▁Pa	-11.4632
下場	-11.4632
跣	-11.4633
＞	-11.4633
唔關事	-11.4635
又指	-11.4636
首個	-11.4636
ager	-11.4638
mirr	-11.464
基金會	-11.4641
對鞋	-11.4642
對立	-11.4644
考生	-11.4646
理佢	-11.4648
行出	-11.4648
洛杉磯	-11.465
nese	-11.465
aw	-11.4654
相應	-11.4655
-6	-11.466
新股	-11.4661
刊出	-11.4665
探索	-11.4666
度假	-11.4667
咖喱	-11.4671
狗公	-11.4673
權威	-11.4674
話你知	-11.4676
鈞	-11.4679
DJ	-11.4679
sure	-11.468
番鹼	-11.4684
lot	-11.4685
籌備	-11.4687
大律師	-11.4687
無諗過	-11.4688
寫成	-11.4689
Ri	-11.469
導師	-11.4691
執著	-11.4692
簽證	-11.4692
鬥爭	-11.4694
草地	-11.4695
鬧佢	-11.4695
校服	-11.4697
一杯	-11.47
肥佬黎	-11.4701
出黎既	-11.4702
誤導	-11.4705
利率	-11.4705
hina	-11.4707
書包	-11.4708
覽	-11.4711
chok	-11.4711
夫妻	-11.4713
清場	-11.4714
羣組	-11.4719
泊車	-11.472
穀	-11.4721
舞蹈	-11.4721
汶	-11.4721
知我	-11.4723
ium	-11.4725
全體	-11.4725
種種	-11.4726
發掘	-11.4728
呢期	-11.4728
戥	-11.4729
衷	-11.473
San	-11.4731
部位	-11.4732
reet	-11.4732
自卑	-11.4735
ISBN	-11.4736
viu	-11.4736
try	-11.4737
嘅部分	-11.4737
北區	-11.4738
南邊	-11.4738
測量	-11.4738
Ver	-11.4739
櫈	-11.4739
rive	-11.474
啲相	-11.4741
寡	-11.4741
理事	-11.4742
嗰晚	-11.4744
婦女	-11.4748
nk	-11.4749
再打	-11.4752
rank	-11.4753
金獎高達	-11.4756
imp	-11.4759
邊境	-11.476
柴灣	-11.4762
格式	-11.4763
00▲	-11.4767
又驚	-11.4768
改造	-11.4769
ough	-11.4771
係人都知	-11.4771
你問	-11.4771
陪住	-11.4771
生長	-11.4772
兩成	-11.4773
鋸	-11.4775
甫	-11.4778
eu	-11.478
神通王	-11.478
cup	-11.478
政區	-11.4782
行啦	-11.4783
副作用	-11.4784
首播	-11.4785
全職	-11.4786
ave	-11.4787
陸軍	-11.4787
外來	-11.4787
iver	-11.4788
眾多	-11.479
▁皓臻	-11.4791
故意	-11.4792
凈	-11.4792
執到	-11.4793
TI	-11.4794
Free	-11.4794
氣温	-11.4795
填詞	-11.4797
1961	-11.4798
一幅	-11.4799
答我	-11.48
fund	-11.4801
囚	-11.4803
nce	-11.4804
黨員	-11.4807
第八	-11.4808
供樓	-11.4808
反思	-11.4808
搞咗個	-11.481
溝女	-11.481
商務	-11.4813
最長	-11.4813
fc	-11.4814
車廠	-11.4815
誌	-11.4816
和你	-11.482
個袋	-11.482
較為	-11.4821
City	-11.4821
茨	-11.4821
搜尋	-11.4825
派出	-11.4825
tel	-11.4826
在港	-11.4826
房間	-11.4827
天地會	-11.4828
乘機	-11.483
高低	-11.4831
荷李活	-11.4831
rew	-11.4831
udio	-11.4832
美帝	-11.4832
噶	-11.4833
你喺度	-11.4834
cr	-11.4836
做成	-11.4837
悉	-11.4839
ame	-11.4841
勇敢	-11.4841
缺一不可	-11.4843
罪名	-11.4844
錄得	-11.4845
瞬間過	-11.4845
微微	-11.4846
$100	-11.4846
（11	-11.485
UR	-11.4851
你諗下	-11.4853
常識	-11.4858
諗諗	-11.4858
親手	-11.4858
撫	-11.4862
貸款額	-11.4863
優秀	-11.4863
迎戰	-11.4864
just	-11.4865
$3,5	-11.4866
老爺	-11.4866
呢日	-11.4869
好感動	-11.487
iam	-11.487
heap	-11.4871
迷你	-11.4872
入屋	-11.4877
平價	-11.4878
Sc	-11.4878
▁si	-11.4884
火燒	-11.4885
八卦	-11.4886
笑住	-11.4886
港產片	-11.4887
架咩	-11.4888
實習	-11.4889
SL	-11.489
飯食	-11.4893
拉埋	-11.4898
打後	-11.4899
基建	-11.4902
政改	-11.4906
走啊	-11.4906
1967	-11.4906
||	-11.4906
排第	-11.4913
利息	-11.4913
lace	-11.4918
出擊	-11.4919
嘅動作	-11.4919
yn	-11.4923
後代	-11.4924
花名	-11.4925
叫雞	-11.4926
剔	-11.4926
潮州	-11.4926
掂到	-11.4927
RM	-11.4927
認錯	-11.4929
芭	-11.493
聯想	-11.4931
歌唱	-11.4931
認證	-11.4932
補選	-11.4932
好啱	-11.4934
趨	-11.4938
父子	-11.4939
最細	-11.4939
港隊	-11.4939
大圍	-11.494
母語	-11.4941
火山	-11.4942
但由於	-11.4942
註定	-11.4943
微笑	-11.4946
演變	-11.4947
企圖	-11.4947
展出	-11.4949
幾遠	-11.495
奧斯	-11.4951
site	-11.4953
可信	-11.4955
拍得	-11.4956
隻輪	-11.4958
唔愛	-11.4958
集資	-11.4959
9:00	-11.496
edia	-11.4962
medi	-11.4964
愚	-11.4968
ella	-11.4969
入房	-11.4971
餵你	-11.4973
啱唔啱	-11.4975
求婚	-11.4975
着咗	-11.4978
呢刻	-11.498
三種	-11.4982
講咁多	-11.4982
撇	-11.4983
喺內地	-11.4983
Pat	-11.4985
幅度	-11.4985
淮	-11.4985
加快	-11.4986
佑	-11.4989
騎馬	-11.4989
領養	-11.4991
鬱手	-11.4991
DNA	-11.4991
而被	-11.4991
sim	-11.4992
旋轉	-11.4994
正經	-11.4994
瓶	-11.4995
出埋	-11.4997
開騷	-11.4998
準則	-11.5004
不及	-11.5006
巨型	-11.5006
rec	-11.5011
認可	-11.5013
兩件	-11.5014
Sy	-11.5014
bus	-11.5019
傻鳩	-11.5021
男方	-11.5025
3-4	-11.5028
張家輝	-11.5029
170	-11.503
支付	-11.5033
拉丁	-11.5033
你有無	-11.5035
浙江	-11.5035
齣	-11.5037
份子	-11.5041
迪斯	-11.5043
撲野	-11.5043
cour	-11.5044
揾埋	-11.5046
好多錢	-11.5049
使者	-11.5051
落手	-11.5052
管制	-11.5052
鎊	-11.5053
莫斯科	-11.5055
四五	-11.5056
情人	-11.5057
逗	-11.5058
令佢哋	-11.5059
既錢	-11.5061
好感	-11.5061
你可唔	-11.5061
曾蔭權	-11.5063
Fu	-11.5063
寫信	-11.5065
指導	-11.5067
強勁	-11.5067
嗰套	-11.5072
搓	-11.5073
教徒	-11.5074
lia	-11.5076
wts	-11.5077
皺	-11.5078
know	-11.5078
一覽	-11.5079
香蕉	-11.5087
咩野	-11.5089
月亮	-11.5089
拜登	-11.509
名校	-11.5091
targ	-11.5091
前提	-11.5092
話嘞	-11.5093
4)	-11.5094
起飛	-11.5095
起新	-11.5096
反問	-11.5097
都照	-11.5098
砲	-11.5103
咁細	-11.5107
娥	-11.5107
龍珠	-11.5108
啲狗	-11.5109
$10	-11.5112
阿松	-11.5113
cash	-11.5113
舒適	-11.5113
而加	-11.5116
嘅標準	-11.5117
chan	-11.5117
長官選舉	-11.5119
江蘇	-11.512
拎咗	-11.5121
大帝	-11.5121
俾佢地	-11.5122
蛋白	-11.5126
九龍塘	-11.5127
死後	-11.5127
妥	-11.5127
doub	-11.5127
跑道	-11.5128
主演嘅	-11.5131
posi	-11.5132
CI	-11.5132
棲	-11.5133
長沙灣	-11.5133
喺中環	-11.5135
轉行	-11.5135
纜	-11.5135
登陸	-11.5135
!」	-11.5136
gin	-11.5137
JR	-11.5139
會唔會係	-11.5139
釣魚	-11.514
新劇	-11.5142
場所	-11.5143
唔再係	-11.5143
8000	-11.5144
Up	-11.5144
做手術	-11.5145
大增	-11.5146
自主	-11.5148
山寨	-11.5149
sw	-11.5149
勝在	-11.515
留守	-11.5152
可疑	-11.5152
攝影師	-11.5155
fg	-11.5155
000	-11.5156
挾	-11.5158
原有	-11.5158
錯過	-11.5162
受訪	-11.5164
雨傘	-11.5164
自家	-11.5165
名氣	-11.5165
全長	-11.5169
我都冇	-11.517
伊拉克	-11.517
酒精	-11.5175
地帶	-11.5175
直路	-11.5176
Sh	-11.5176
個場	-11.5177
學界	-11.5179
新片	-11.5181
lang	-11.5181
研	-11.5181
貪污	-11.5182
boar	-11.5182
執政	-11.5182
價位	-11.5182
講述	-11.5184
廊	-11.5185
眼睛	-11.5185
140	-11.5186
▁Ba	-11.5187
fect	-11.5188
閃電	-11.5189
彈性	-11.519
朋	-11.5191
零食	-11.5191
好熱	-11.5192
少過	-11.5192
咁貴	-11.5194
LI	-11.5195
先係最	-11.5195
遵	-11.5197
人羣	-11.5198
萍	-11.5198
成效	-11.5201
一哥	-11.5202
呢單嘢	-11.5203
未見	-11.5206
馬匹	-11.5208
請求	-11.5209
講解	-11.5211
原創	-11.5211
靚靚	-11.5211
枱面	-11.5212
itch	-11.5212
club	-11.5212
1969	-11.5212
▁係囉	-11.5213
美心	-11.5213
多啲人	-11.5214
高潮	-11.5214
hot	-11.5215
事故	-11.5216
秤	-11.5216
戀情	-11.5218
sen	-11.522
鄰居	-11.5221
好怕	-11.5223
BTW	-11.5224
壹週刊	-11.5224
得黎	-11.5225
渴	-11.5226
較高	-11.5226
割席	-11.5227
成隻	-11.5228
近乎	-11.5229
腩	-11.5229
淘	-11.5229
一副	-11.523
阿里	-11.5235
境內	-11.524
大波	-11.5241
京都	-11.5242
〈	-11.5246
可言	-11.5247
ace	-11.5247
短線	-11.5248
接到	-11.5248
ify	-11.5249
▁-[	-11.525
Road	-11.5251
盲目	-11.5251
孩	-11.5251
canc	-11.5254
無手續費	-11.5255
特質	-11.5255
拉丁文	-11.5261
萌	-11.5262
儍	-11.5262
寫明	-11.5262
德甲	-11.5262
但佢地	-11.5263
15.	-11.5263
III	-11.5271
-12	-11.5274
想睇更多	-11.5274
明朝	-11.5275
照片	-11.5275
以黎	-11.5279
奶粉	-11.5279
怕醜	-11.5281
關雲長	-11.5282
繪	-11.5284
教人	-11.5284
湖南	-11.5285
得耐	-11.5286
長沙	-11.5288
都照批	-11.5288
大碟	-11.5289
自動波	-11.5291
唔跟	-11.5291
富貴	-11.5291
bin	-11.5291
仍有	-11.5293
中美	-11.5297
特朗普	-11.5297
餡	-11.5297
實情	-11.5298
商會	-11.5298
宰	-11.53
好強	-11.5301
大明	-11.5301
欺	-11.5301
數過户	-11.5302
GM	-11.5302
商户	-11.5303
擴展	-11.5304
1948	-11.5304
搏命	-11.5304
矛	-11.5305
ib	-11.5305
死全家	-11.5306
BO	-11.5307
全城	-11.5307
Art	-11.5307
撚死	-11.5308
邀	-11.5309
馬拉	-11.5309
葉劉	-11.531
高調	-11.5311
IB	-11.5312
FD	-11.5315
★！。	-11.5316
海拔	-11.5319
語文	-11.5319
CY	-11.532
彩虹	-11.5321
張身份證	-11.5322
xxx	-11.5323
江南	-11.5323
大門	-11.5325
李嘉誠	-11.5328
趕住	-11.533
不大	-11.5332
升職	-11.5332
籮	-11.5333
考驗	-11.5334
終身	-11.5335
邪惡	-11.5335
唔少得	-11.5338
面色	-11.534
可樂	-11.5342
lose	-11.5342
掠	-11.5343
ini	-11.5343
𡃉喎	-11.5346
快過	-11.5348
操練	-11.5348
任期	-11.5351
抗疫	-11.5353
鄺	-11.5354
▁etc	-11.5355
堪	-11.5356
膊	-11.5356
埠	-11.5357
殷	-11.5359
宣誓	-11.5361
用法	-11.5361
worl	-11.5362
屬性	-11.5364
響起	-11.5364
阻礙	-11.5367
流入	-11.5372
英軍	-11.5372
斯基	-11.5373
紗	-11.5379
揾緊	-11.5379
感冒	-11.538
急救	-11.5382
az	-11.5382
寫做	-11.5384
即管	-11.5385
拓	-11.5386
叫佢哋	-11.5387
毒品	-11.5389
攞起	-11.5391
較大	-11.5392
原意	-11.5392
菜式	-11.5393
築	-11.5395
抵制	-11.5397
咁長	-11.5397
抓	-11.5397
賽馬會	-11.5398
五六	-11.5398
體育館	-11.5398
金銀	-11.5399
Max	-11.5399
功勞	-11.54
學科	-11.5401
隻碟	-11.5401
三條	-11.5403
拉住	-11.5403
花旗	-11.5405
青蛙	-11.5406
芽	-11.5406
係連登	-11.5407
最難	-11.5409
Yu	-11.5411
國務院	-11.5413
轉投	-11.5413
轉做	-11.5414
食完飯	-11.5415
▁To	-11.5422
白衫	-11.5423
維斯	-11.5423
兩支	-11.5424
岑	-11.5426
打招呼	-11.5426
足不出户	-11.5426
move	-11.5427
Club	-11.5428
馬超	-11.5429
估值	-11.5431
欺凌	-11.5434
rm	-11.5434
賣樓	-11.5434
▁one	-11.5436
庸	-11.5437
萬股	-11.5439
LG	-11.544
先鋒	-11.5441
山脈	-11.5442
續集	-11.5442
灌	-11.5443
汽水	-11.5444
咋喎	-11.5445
隔住	-11.5453
芭蕾舞	-11.5453
大衞	-11.5456
迅速	-11.5456
店舖	-11.5457
yr	-11.5458
女主	-11.5458
撚屌	-11.5458
卿	-11.546
分組賽	-11.5461
san	-11.5462
一便	-11.5465
蕾	-11.5465
童年	-11.5466
talk	-11.5466
坐喺度	-11.5466
屯	-11.5467
短暫	-11.547
送上	-11.5472
itty	-11.5473
男星	-11.5474
升值	-11.5474
煙花	-11.5474
zen	-11.5475
ED	-11.5476
兑	-11.5477
號召	-11.5478
牌照	-11.5481
打字	-11.5481
傘	-11.5482
iden	-11.5484
ada	-11.5484
嘻嘻	-11.5485
tics	-11.5486
踢得	-11.5486
順手	-11.5488
長途	-11.549
requ	-11.5491
西瓜	-11.5493
門外	-11.5495
入得	-11.5496
值錢	-11.5496
等咗	-11.5497
啟德	-11.5498
二次	-11.5498
直言	-11.5498
Lee	-11.55
放左	-11.5502
消毒	-11.5504
ret	-11.5505
曬喇	-11.5505
大方	-11.5507
歡樂	-11.5507
Spe	-11.5507
流感	-11.5508
轎	-11.5509
笑鳩	-11.5513
身分	-11.5513
作業	-11.5514
eth	-11.5516
行左	-11.5517
背囊	-11.5518
架生	-11.5519
大中華	-11.5522
亨利	-11.5523
遂	-11.5524
食唔食	-11.5527
斷咗	-11.5528
釐米	-11.553
1.8	-11.5531
恐龍	-11.5531
開張	-11.5532
得知	-11.5533
提子	-11.5533
鄭克塽	-11.5535
陳太	-11.5536
▁但你	-11.5537
PB	-11.5537
sam	-11.5538
黑衫	-11.5539
反覆	-11.554
ale	-11.5541
好受	-11.5541
呢個字	-11.5541
報料	-11.5542
非禮	-11.5543
螺	-11.5543
美術	-11.5544
男歌手	-11.5544
卡通	-11.5545
1080	-11.555
恐怕	-11.555
應唔	-11.5551
map	-11.5552
情願	-11.5554
旅程	-11.5558
賭王	-11.5559
帶到	-11.556
最啱	-11.5563
演算法	-11.5564
大狀	-11.5564
魚蛋	-11.5567
Time	-11.5568
坂	-11.5569
海灘	-11.5569
加密	-11.5571
家居	-11.5572
辣椒	-11.5575
phy	-11.5578
固然	-11.5579
cast	-11.558
董卓	-11.5581
改用	-11.5581
嗬	-11.5585
anda	-11.5585
大路	-11.5586
預防	-11.5587
俱	-11.5587
早喺	-11.5589
▁Sh	-11.559
ail	-11.5591
下季	-11.5592
豎	-11.5592
HI	-11.5596
DS	-11.5598
類型嘅	-11.56
又稱	-11.5602
嘎	-11.5603
耕	-11.5604
ider	-11.5604
當做	-11.5606
走位	-11.561
nu	-11.5611
剃	-11.5611
批判	-11.5612
正評	-11.5612
感應	-11.5614
踢走	-11.5614
一票	-11.5614
獨立調查	-11.5617
瀉	-11.5619
not	-11.5621
DDR	-11.5621
坐咗	-11.5622
椒	-11.5623
諸葛	-11.5624
bro	-11.5625
ddit	-11.5626
懶人包	-11.5627
一向都	-11.5628
否	-11.5628
前期	-11.563
收場	-11.563
佢個仔	-11.5632
條腰	-11.5632
同預告片	-11.5634
首輪猛片	-11.5634
果堆	-11.5637
慰	-11.5637
dard	-11.5638
賣出	-11.5639
女郎	-11.5642
je	-11.5645
律政司	-11.5645
監督	-11.5646
諗返起	-11.5647
改做	-11.5649
由頭	-11.5651
Ange	-11.5652
介面	-11.5652
Har	-11.5653
沃	-11.5653
債券	-11.5655
有啲似	-11.5655
劉德華	-11.5656
踢到	-11.5658
嘿嘿	-11.5659
隱瞞	-11.5662
津貼	-11.5662
伊斯蘭	-11.5663
-8	-11.5665
星級	-11.5667
prin	-11.5667
發燒	-11.5667
惡劣	-11.5669
有咁嘅	-11.5669
廚師	-11.567
挫	-11.5671
意圖	-11.5676
紀初	-11.5679
擔保	-11.5679
利斯	-11.568
返港	-11.5681
條褲	-11.5681
過渡	-11.5682
1968	-11.5685
理工	-11.5686
嘗	-11.5688
包袱	-11.5688
擴張	-11.5689
中部	-11.569
Core	-11.569
大曬	-11.569
未計	-11.5691
車尾	-11.5692
ful	-11.5695
瞬間	-11.5695
做乜鳩	-11.5696
DD	-11.5697
成隊	-11.5698
化合物	-11.57
地上	-11.5701
順序	-11.5704
一倍	-11.5704
嗰頭	-11.5706
最叻	-11.5707
異常	-11.5708
well	-11.5712
chem	-11.5713
第三者	-11.5713
ama	-11.5714
歐陽	-11.5714
八十	-11.5714
機動	-11.5715
平過	-11.5717
gp	-11.5718
zo	-11.572
干	-11.5723
年薪	-11.5723
陰影	-11.5725
鬧人	-11.5726
回家	-11.5726
過海	-11.5726
鬧交	-11.5726
慾望	-11.5726
之戰	-11.5728
熊仔	-11.5733
工聯會	-11.5733
撞正	-11.5735
通用	-11.5737
走埋	-11.5739
唔順	-11.5745
後防	-11.5749
科目	-11.575
risk	-11.5751
幾歲	-11.5754
獨家	-11.5755
為首	-11.5756
係囖	-11.5758
改良	-11.576
伊斯蘭教	-11.5763
增強	-11.5763
早已	-11.5764
三星	-11.5765
⋯⋯」	-11.5767
ku	-11.5768
壞人	-11.5768
CP	-11.577
PT	-11.577
空姐	-11.5771
張國榮	-11.5773
Pre	-11.5774
送院	-11.5775
rest	-11.5778
噓	-11.5778
踎	-11.5781
Pan	-11.5784
金剛	-11.5785
金曲	-11.5785
彬	-11.5786
惡意	-11.5791
duc	-11.5792
cl	-11.5792
改裝	-11.5793
后	-11.5793
折讓	-11.5796
arm	-11.5797
會所	-11.5797
𡃉嚹	-11.5798
後排	-11.5799
炒股	-11.5801
演奏	-11.5803
唱得	-11.5804
稍後	-11.5805
發光	-11.5806
大升	-11.581
肥佬	-11.581
tan	-11.5812
毆	-11.5813
地名	-11.5815
週邊	-11.5815
空軍	-11.5817
睇開	-11.5818
桐	-11.5819
雷神	-11.5819
捷克	-11.5819
AO	-11.5821
busi	-11.5821
文獻	-11.5822
努	-11.5824
警暴	-11.5826
PRO	-11.5827
popo	-11.5828
階層	-11.583
阿仔	-11.5835
語音	-11.5835
開設	-11.5836
身後	-11.5836
等候	-11.5839
CM	-11.584
海灣	-11.5841
之地	-11.5843
刷牙	-11.5844
纖	-11.5847
蒼	-11.5848
魔術	-11.5852
會好啲	-11.5853
送頭	-11.5853
初戀	-11.5854
紋身	-11.5854
福特	-11.5855
茜	-11.5856
嚟呢度	-11.5857
日落	-11.5858
一筆	-11.5858
去諗	-11.5859
不但	-11.586
紐西蘭	-11.5862
,800	-11.5864
電壓	-11.5866
氣勢	-11.5867
ata	-11.5867
時光	-11.5868
邵	-11.5869
等待	-11.5871
滿洲	-11.5875
wan	-11.5876
▁my	-11.5876
太多人	-11.5879
服侍	-11.5879
唐唐	-11.588
編曲	-11.588
東莞	-11.5884
放開	-11.5884
▁No	-11.5886
海邊	-11.5889
跟著	-11.5889
共有	-11.589
Wong	-11.589
地道	-11.5892
賤種	-11.5893
僑	-11.5893
困擾	-11.5895
志偉	-11.5895
沿途	-11.5895
民心	-11.5901
識人	-11.5902
▁pay	-11.5903
入選	-11.5904
燃料	-11.5905
現年	-11.5905
亮相	-11.5905
兩地	-11.5905
揾到個	-11.5907
mor	-11.5908
就唔洗	-11.5909
弱點	-11.5909
馬仔	-11.5909
TH	-11.5909
蠔	-11.591
使乜	-11.5911
萬像素	-11.5913
英倫	-11.5916
為之	-11.5917
人命	-11.5918
郊野	-11.5919
航班	-11.592
口音	-11.592
幅圖	-11.592
種子	-11.5921
Ge	-11.5922
Sim	-11.5922
劇中	-11.5923
果然係	-11.5924
推論	-11.5927
配備	-11.5927
EA	-11.5927
待遇	-11.5928
血管	-11.5929
以下係	-11.5929
開戰	-11.5929
中伏	-11.593
高峯	-11.5931
遵守	-11.5934
分離	-11.594
step	-11.5942
昔日	-11.5946
FI	-11.5947
理應	-11.5948
宣揚	-11.5948
人稱	-11.595
兼職	-11.595
望住佢	-11.595
所在	-11.5951
先唔講	-11.5954
杖	-11.5957
楓	-11.5957
nati	-11.5959
平行	-11.5959
蒜	-11.5959
杜琪峰	-11.5959
lish	-11.5961
BU	-11.5962
qu	-11.5962
倒數	-11.5963
埋身	-11.5965
嗰句	-11.5967
活力	-11.5968
笛	-11.597
乜撚嘢	-11.5971
客串	-11.5971
約咗	-11.5975
1971	-11.5982
所見	-11.5983
有諗過	-11.5985
論文	-11.5985
釀	-11.5987
Girl	-11.5987
接應	-11.5988
幾百萬	-11.5989
卡斯	-11.5991
鰲拜	-11.5992
捽	-11.5992
世人	-11.5993
SU	-11.5995
中英	-11.5996
neer	-11.5997
推測	-11.5999
著作	-11.6
凹	-11.6
佛山	-11.6001
PI	-11.6002
軍官	-11.6007
氣象	-11.6007
停車	-11.6007
龐大	-11.6008
埋伏	-11.601
港口	-11.6011
快啲去	-11.6013
二黎	-11.6014
間間	-11.6014
舊生	-11.6014
rome	-11.6015
央	-11.6016
cy	-11.6016
公斤	-11.6018
lign	-11.602
規範	-11.6021
幾秒	-11.6023
+2	-11.6025
inux	-11.6026
智商	-11.6026
par	-11.6026
極高	-11.6027
uage	-11.6028
大媽	-11.6029
路上	-11.6032
CU	-11.6033
戰役	-11.6034
一起	-11.6035
oney	-11.6037
廢除	-11.6037
割蓆	-11.6038
日圓	-11.6038
CV	-11.604
las	-11.6041
week	-11.6042
納粹	-11.6044
龐	-11.6044
叫價	-11.6045
you	-11.6046
務求	-11.6049
三成	-11.6049
侵侵	-11.6049
128	-11.6049
董事長	-11.6051
周身	-11.6052
總算	-11.6054
ease	-11.6055
往返	-11.6056
纖維	-11.6056
都無咩	-11.6057
親友	-11.6058
負皮	-11.6058
廿四	-11.6059
FE	-11.606
咁濟	-11.6061
爭住	-11.6063
平常	-11.6067
户外	-11.6067
急你所急	-11.6067
籽	-11.6069
name	-11.607
古希臘	-11.6071
KO	-11.6074
揾過	-11.6074
作曲家	-11.6076
歐元	-11.6078
char	-11.608
貿易戰	-11.608
dev	-11.6082
憑住	-11.6082
狐	-11.6083
多倫多	-11.6083
IE	-11.6084
講曬	-11.6084
渠道	-11.6085
瑪麗	-11.609
mit	-11.609
小將	-11.6093
西亞	-11.6093
手動	-11.6093
離子	-11.6095
都做到	-11.6095
變曬	-11.6095
膝	-11.6096
馬丁	-11.6096
一戰	-11.6099
咕	-11.6099
同伴	-11.61
resh	-11.6101
濕疹	-11.6103
呢句説話	-11.6104
基督	-11.6109
將佢哋	-11.6114
大麻	-11.6115
虐待	-11.6117
公式	-11.612
沙律	-11.6121
罰款	-11.6124
幾場	-11.6125
tw	-11.6126
坊間	-11.6127
成分	-11.6127
放落	-11.6132
ould	-11.6134
RS	-11.6135
華盛頓	-11.6135
焚	-11.6138
食埋	-11.6141
荒謬	-11.6141
乜乜	-11.6142
des	-11.6143
壓迫	-11.6143
哄	-11.6144
頭馬	-11.6144
下屬	-11.6149
起來	-11.615
四百	-11.615
RROR	-11.6151
做雞	-11.6151
love	-11.6152
全靠	-11.6155
問嚇	-11.6157
保怡	-11.6157
原廠	-11.616
毋須	-11.616
og	-11.6161
租客	-11.6162
出錯	-11.6162
調節	-11.6165
得益	-11.6172
電梯	-11.6173
難免	-11.6174
農民	-11.6175
老子	-11.6176
太遠	-11.6176
目光	-11.6182
十日	-11.6185
遠離	-11.6185
Yout	-11.6187
車迷	-11.619
Du	-11.619
大腦	-11.619
分泌	-11.6191
塌	-11.6191
VR	-11.6192
最想	-11.6192
手套	-11.6193
今夏	-11.6194
Ce	-11.6194
單曲	-11.6194
會展	-11.6199
ford	-11.6204
雍	-11.6205
起底	-11.6205
▁我幫你	-11.6206
Ru	-11.621
各區	-11.6211
時報	-11.6212
條撚樣	-11.6216
場場	-11.6216
返回	-11.6217
嬸	-11.6217
旗下嘅	-11.6217
Van	-11.6217
蓄	-11.6218
莊家	-11.6219
召開	-11.622
mond	-11.6221
fps	-11.6221
之路	-11.6222
船隻	-11.6222
pg	-11.6222
西邊	-11.6222
高音	-11.6223
鑼	-11.6224
解讀	-11.6224
都無乜	-11.6226
aka	-11.6226
就業	-11.6226
週刊	-11.6228
翹	-11.6231
當佢係	-11.6231
保釋	-11.6231
支線	-11.6234
睇下佢	-11.6235
整成	-11.6236
▁Mar	-11.6236
熱烈	-11.6236
娟	-11.6236
注重	-11.6236
Open	-11.6237
誕生	-11.6238
sky	-11.6238
巴基斯坦	-11.6239
河流	-11.6241
...』	-11.6244
平反	-11.6245
虐	-11.6246
>>	-11.6247
:1.	-11.6248
妻子	-11.6251
吟	-11.6252
閣下	-11.6255
條仆街	-11.6256
里斯	-11.6257
上一代	-11.6257
做番	-11.626
攀	-11.6261
堵	-11.6261
將領	-11.6263
級別	-11.6264
春袋	-11.6264
nior	-11.6266
才能	-11.6266
朝鮮半島	-11.6267
短期內	-11.6275
皓臻	-11.6276
心痛	-11.6278
治安	-11.6279
頭腦	-11.6279
Mr	-11.6279
算數	-11.628
啲咁嘅	-11.6284
喇喎	-11.6284
咁少	-11.6284
rain	-11.6284
億銀	-11.6285
亦都唔	-11.6286
背叛	-11.6288
:)	-11.6288
艦隊	-11.6291
留學	-11.6293
百年	-11.6293
又唔識	-11.6301
打劫	-11.6302
Am	-11.6304
text	-11.6304
同志	-11.6306
唔中意	-11.6307
企喺度	-11.6308
happ	-11.631
臭雞	-11.6311
區分	-11.6311
喺上海	-11.6312
喂喂喂	-11.6313
貨物	-11.6313
起初	-11.6315
大半	-11.6317
賣得	-11.632
就咁睇	-11.632
ali	-11.6327
拎黎	-11.6328
邊界	-11.6328
我都唔會	-11.6329
ax	-11.633
有禮貌	-11.6333
贏過	-11.6334
一股	-11.6335
便宜	-11.6338
iv	-11.6338
gay	-11.6338
750	-11.6339
開機	-11.634
簽署	-11.6341
紀律	-11.6341
Un	-11.6341
關閉	-11.6342
BL	-11.6342
被稱為	-11.6344
大街	-11.6345
Rain	-11.6346
傳染	-11.6347
行者	-11.635
外觀	-11.6351
陷阱	-11.6352
0.0	-11.6355
椰	-11.6356
水位	-11.6356
班次	-11.6357
Eng	-11.6359
展現	-11.6359
大遊行	-11.636
收聲	-11.6362
Band	-11.6365
想走	-11.6367
不分	-11.6367
仍未	-11.6372
醋	-11.6374
散水	-11.6375
書記	-11.6376
鹼	-11.6377
走嚟	-11.6378
月球	-11.638
1966	-11.6381
揾左	-11.6381
cpu	-11.6382
Tran	-11.6382
強行	-11.6385
只需	-11.6385
醜聞	-11.6386
rela	-11.6388
墜	-11.6389
火牛	-11.6391
設置	-11.6391
gar	-11.6393
Pay	-11.6397
強迫	-11.6399
通宵	-11.64
新盤	-11.6401
聞到	-11.6404
高速公路	-11.6406
ular	-11.6406
默默	-11.6407
減到	-11.641
EV	-11.641
低層	-11.6414
波鞋	-11.6414
做戲	-11.6417
$7	-11.6418
Her	-11.6418
小初	-11.6419
咖	-11.6419
$8	-11.6419
自助	-11.642
書寫	-11.642
潑	-11.6422
一期	-11.6427
：『	-11.6429
天子	-11.6431
大專	-11.6433
sche	-11.6435
你肯	-11.6435
枕頭	-11.6435
温和	-11.6436
兩兄弟	-11.644
勃	-11.644
投注	-11.6441
唔對路	-11.6442
窮撚	-11.6442
EE	-11.6442
拍完	-11.6443
尋求	-11.6444
Hea	-11.6446
若干	-11.6446
頂到	-11.6449
寶貝	-11.6451
複製	-11.6452
橙色	-11.6454
既手足	-11.6455
利記	-11.6455
板塊	-11.6456
裝甲	-11.6456
還原	-11.6459
Mode	-11.646
只好	-11.6461
升上	-11.6461
▁車車	-11.6463
VA	-11.6464
1930	-11.6464
嗰樣	-11.6467
喺微博	-11.6468
諗返	-11.6468
防水	-11.647
源頭	-11.647
啦嘛	-11.6472
饒	-11.6474
喺廣州	-11.6475
sad	-11.6476
筆者	-11.6476
降落	-11.6478
鬍鬚	-11.6479
ae	-11.648
話就話	-11.6482
雙腳	-11.6482
rk	-11.649
15%	-11.649
流失	-11.6491
對準	-11.6492
閂門	-11.6493
殺手	-11.6495
嗰處	-11.6497
靚唔靚	-11.6502
烏龜	-11.6503
福音	-11.6504
基斯	-11.6505
""	-11.6506
爆出	-11.6507
vent	-11.6507
深夜	-11.651
旨	-11.6515
神聖	-11.6515
Lam	-11.6515
嗄	-11.6515
音節	-11.6515
摩連奴	-11.6517
不良	-11.6519
杯葛	-11.6519
用腦	-11.6519
事先	-11.6521
rity	-11.6522
Ken	-11.6523
喘	-11.6523
兄長	-11.6524
-->	-11.6525
lc	-11.6525
長輩	-11.6526
我都知	-11.6526
跑馬地	-11.6527
韌	-11.6529
油價	-11.6531
too	-11.6532
集結	-11.6533
薯片	-11.6535
老董	-11.6535
Gra	-11.6535
保育	-11.654
愧	-11.6541
7000	-11.6541
紫色	-11.6542
之星	-11.6543
夷	-11.6543
桌	-11.6543
240	-11.6544
隻船	-11.6545
識左	-11.6545
憑咩	-11.6546
fail	-11.6547
你同佢	-11.6547
美女	-11.6549
ifi	-11.6551
瘡	-11.6551
列出	-11.6552
NS	-11.6553
半山	-11.6554
路面	-11.6555
戰後	-11.6555
蔚	-11.6555
第三次	-11.6555
ull	-11.656
司儀	-11.6561
ari	-11.6561
足球會	-11.6564
ons	-11.6564
回落	-11.6564
伶	-11.6569
Brit	-11.657
牽涉	-11.6571
個勢	-11.6573
定價	-11.6578
上屆	-11.6579
平方米	-11.658
信徒	-11.658
忍者	-11.6581
tr	-11.6583
eral	-11.6584
繼而	-11.6586
紅酒	-11.6587
竊	-11.6587
過夜	-11.6587
泵	-11.659
艱難	-11.659
320	-11.659
more	-11.6591
左咁耐	-11.6593
跟足	-11.6594
聊	-11.6596
上牀	-11.6598
trip	-11.6599
auto	-11.6601
▁<	-11.6602
zone	-11.6603
ague	-11.6604
動員	-11.6605
真普選	-11.6609
護理	-11.661
放火	-11.6611
pose	-11.6612
peri	-11.6612
iz	-11.6613
吸納	-11.6614
威爾斯	-11.6616
普巴	-11.6616
話佢係	-11.6616
一拳	-11.6617
就只有	-11.6619
最怕	-11.6619
温馨	-11.6619
best	-11.662
差別	-11.6621
lap	-11.6623
ulti	-11.6624
bran	-11.6624
truc	-11.6626
通告	-11.6626
專欄	-11.6629
傍	-11.6629
lete	-11.663
渣打	-11.6631
撥款	-11.6631
將官	-11.6631
Te	-11.6631
個口	-11.6631
咁撚多	-11.6636
充足	-11.6637
影帝	-11.6638
hon	-11.6638
勝負	-11.6639
政綱	-11.664
留番	-11.6642
大隊	-11.6642
停賽	-11.6643
sony	-11.6644
audi	-11.6644
社運	-11.6646
publ	-11.6646
550	-11.6647
圖表	-11.6647
寫法	-11.6649
兩邊都	-11.665
揭發	-11.6651
祈禱	-11.6651
曖昧	-11.6651
Tra	-11.6651
洗頭	-11.6653
Cam	-11.6653
呢個詞	-11.6654
cli	-11.6656
南極	-11.666
不禁	-11.6663
春秋	-11.6666
正門	-11.6666
整蠱	-11.6666
各位巴打	-11.6668
咁撚樣	-11.667
手錶	-11.6671
實會	-11.6672
話齋	-11.6673
冚唪唥	-11.6674
油麻地	-11.6674
求救	-11.6674
食咩	-11.6675
上半場	-11.6676
ov	-11.6676
摷	-11.6677
潛艇	-11.6678
八九	-11.6681
要注意	-11.6682
北上	-11.6684
比率	-11.6685
鈔	-11.6686
死曬	-11.6687
DO	-11.6688
ez	-11.6689
討好	-11.6689
自細	-11.6691
主場對	-11.6692
障	-11.6692
事發	-11.6692
280	-11.6697
暗瘡	-11.6699
文革	-11.6699
句説話	-11.67
改進	-11.6701
卧底	-11.6704
滅亡	-11.6704
蛙	-11.6705
乜都冇	-11.6708
海南	-11.6708
遮打	-11.671
劏房	-11.6711
手提	-11.6711
相識	-11.6714
堅定	-11.6716
樊	-11.6718
敷	-11.6718
華語	-11.672
市況	-11.6721
征服	-11.6722
學業	-11.6724
歌星	-11.6725
mod	-11.6725
電路	-11.6725
內文	-11.6726
縮寫	-11.6726
都睇到	-11.6726
收拾	-11.6728
魏延	-11.6728
叫佢地	-11.6728
輕鐵	-11.6729
期指	-11.673
效益	-11.6732
處長	-11.6732
整爛	-11.6735
mean	-11.6739
熱水	-11.6739
ks	-11.674
徒弟	-11.6744
段片	-11.6745
睇唔過眼	-11.6745
扮曬	-11.6746
廢青	-11.6747
洛陽	-11.6747
Link	-11.6747
好地地	-11.675
進展	-11.675
唔靚	-11.6751
規律	-11.6751
ving	-11.6752
愛離	-11.6753
贏左	-11.6753
內戰	-11.6753
失誤	-11.6754
代碼	-11.6754
驚人	-11.6758
殺咗佢	-11.6758
vide	-11.6758
表面上	-11.6759
小店	-11.6762
接納	-11.6764
毫米	-11.6765
ios	-11.6765
1965	-11.6768
瞞	-11.6768
高價	-11.6769
吱	-11.6769
Eric	-11.677
吧	-11.677
外套	-11.6772
好歡喜	-11.6773
你咁講	-11.6774
太少	-11.6777
蕙	-11.6777
登入	-11.6779
hine	-11.678
16.	-11.678
中移動	-11.6782
驗證	-11.6782
簡化	-11.6783
打爛	-11.6786
莖	-11.6786
1800	-11.6787
栢芝	-11.6789
專員	-11.679
話説	-11.679
ux	-11.679
最差	-11.6791
制定	-11.6792
孫柏文	-11.6792
中世紀	-11.6792
兄弟爬山	-11.6792
祈	-11.6792
左派	-11.6793
家輝	-11.6793
佔咗	-11.6793
每逢	-11.6794
注意力	-11.6796
宣言	-11.6797
封關	-11.6799
最靚	-11.6801
連環	-11.6801
惡法	-11.6801
drop	-11.6802
附屬	-11.6806
傳遞	-11.681
獲利	-11.681
iza	-11.6811
ida	-11.6814
我諗你	-11.6814
愈多	-11.6815
柬埔寨	-11.6816
｜	-11.6816
引述	-11.6818
唔理佢	-11.6819
High	-11.6819
蜜蜂	-11.6819
損害	-11.6821
２	-11.6822
高分	-11.6826
save	-11.6826
呢啲野	-11.6827
温暖	-11.683
優質	-11.6831
Plan	-11.6832
偷偷	-11.6833
國企	-11.6833
哥倫比亞	-11.6834
描繪	-11.6834
結咗婚	-11.6834
併	-11.6834
主機	-11.6836
令佢地	-11.6842
都有唔少	-11.6842
有咩用	-11.6845
報復	-11.6846
起訴	-11.6846
彈琴	-11.6846
用心	-11.6847
大局	-11.6851
頭領	-11.6852
蜀兵	-11.6853
親中	-11.6856
探討	-11.6862
靴	-11.6863
青山	-11.6863
輻射	-11.6864
撚埋	-11.6864
水浸	-11.6864
東邊	-11.6864
Ａ	-11.6867
撼	-11.6869
工商	-11.6871
家務	-11.6873
乖乖	-11.6873
抽象	-11.6874
ora	-11.6876
被判	-11.6876
又怕	-11.6879
Par	-11.688
喜好	-11.688
河北	-11.688
派咗	-11.6883
平啲	-11.6884
pu	-11.6884
魔鬼	-11.6886
部戲	-11.6887
冬季	-11.6888
ua	-11.6888
屌佢老母	-11.6892
騎練	-11.6892
一至五	-11.6893
温哥華	-11.6894
變形	-11.6895
幫佢哋	-11.6897
我唔明	-11.6898
spon	-11.6899
政客	-11.6901
穿越	-11.6902
solo	-11.6902
轉工	-11.6902
合共	-11.6903
OW	-11.6904
都督	-11.6906
菠蘿	-11.6906
不敢	-11.6907
界別	-11.6908
長線	-11.691
HC	-11.6911
當地人	-11.6912
一聽	-11.6912
一羣	-11.6913
落單	-11.6914
畀我哋	-11.6914
叢	-11.6915
穿梭	-11.6915
君子	-11.6916
dam	-11.6916
晉級	-11.6917
lead	-11.6917
被逼	-11.6918
惡化	-11.6921
650	-11.6921
檢控	-11.6923
EP	-11.6923
一連串	-11.6924
vy	-11.6925
ONE	-11.6926
遊擊	-11.6927
射擊	-11.6927
老土	-11.6929
連鎖	-11.693
啲客	-11.6932
taff	-11.6935
矇	-11.6936
叫咩名	-11.6936
頭頂	-11.6938
濠	-11.6938
海豚	-11.6941
成龍	-11.6941
稻	-11.6942
Fran	-11.6942
fla	-11.6944
珠海	-11.6944
ALL	-11.6944
如今	-11.6945
太守	-11.6946
Lin	-11.6949
效能	-11.695
介乎	-11.6951
晶片	-11.6953
繳	-11.6954
姜濤	-11.6954
番禺	-11.6954
視線	-11.6954
龍鳳	-11.6955
捱到	-11.6955
1958	-11.6956
四季	-11.6956
片中	-11.6957
比人打	-11.696
之旅	-11.6961
崇拜	-11.6962
陳近南	-11.6963
茫	-11.6963
燈光	-11.6964
啲歌	-11.6964
動態	-11.6967
十蚊	-11.6967
柞	-11.6972
阿頭	-11.6974
平原	-11.6975
crea	-11.6977
四方	-11.6979
嗰份	-11.6979
接種	-11.6981
雙普選	-11.6981
復合	-11.6983
湖北	-11.6986
NT	-11.6987
屌打	-11.6988
眾籌	-11.6989
社羣	-11.6991
旨意	-11.6991
百日	-11.6991
過檔	-11.6993
hoto	-11.6993
奇蹟	-11.6994
換左	-11.6995
ern	-11.7
inst	-11.7
$1,	-11.7
眼瞓	-11.7
IV	-11.7003
﹕「	-11.7005
無人會	-11.7005
yu	-11.7006
Home	-11.7006
玩嘢	-11.7006
癒	-11.7008
講既野	-11.7009
廢物	-11.7009
國慶	-11.7011
直升機	-11.7014
蘋果動	-11.7014
有部分	-11.7017
成套	-11.7017
動物園	-11.7021
發放	-11.7022
司令	-11.7022
蜘蛛	-11.7023
國安	-11.7023
Acc	-11.7024
器材	-11.7027
啖氣	-11.7028
依種	-11.7029
VE	-11.7034
言語	-11.7035
善良	-11.7036
血液	-11.7038
放心啦	-11.704
lam	-11.7041
遷就	-11.7043
武士	-11.7044
lt	-11.7044
粵音	-11.7045
呢項	-11.7046
千里	-11.7048
山區	-11.7049
統稱	-11.7052
點擊即睇	-11.7053
走入	-11.7055
1964	-11.7055
霸氣	-11.7055
武術	-11.7058
正一	-11.7059
理大	-11.7059
2:1	-11.7059
喜愛	-11.706
自發	-11.7062
正視	-11.7063
搬到	-11.7064
屌你老味	-11.7065
柚	-11.7066
▁Na	-11.7066
炒家	-11.7067
ital	-11.7068
維穩	-11.7074
拖鞋	-11.7074
並不	-11.7076
傳到	-11.7077
冚𠾴唥	-11.7078
笑笑口	-11.708
為免	-11.708
傢俬	-11.7084
森美	-11.7086
uni	-11.7086
阿爾	-11.709
睇唔出	-11.7091
ency	-11.7093
今天	-11.7093
收報	-11.7096
隨意	-11.7098
▁col	-11.7098
眨	-11.7099
最貴	-11.71
尋找	-11.71
呈現	-11.7101
戀燕池	-11.7102
▁Pe	-11.7103
25%	-11.7103
伯爵	-11.7104
時勢	-11.7106
多陣	-11.7106
祖籍	-11.7107
健仔	-11.7114
精華	-11.7115
qual	-11.7116
1963	-11.7117
而非	-11.7118
場仗	-11.7118
對戰	-11.7119
stic	-11.7119
原定	-11.7121
風吹	-11.7121
讚佢	-11.7121
擺咗	-11.7124
太遲	-11.7125
聯同	-11.7126
bno	-11.7126
報章	-11.7127
忌廉	-11.7127
boy	-11.7129
威爾	-11.713
tis	-11.713
洗完	-11.7133
攞過	-11.7133
ible	-11.7135
黃藍	-11.7138
低頭	-11.7138
揪	-11.7142
點擊	-11.7144
1.2	-11.7145
監控	-11.7146
#3	-11.7148
亞歷山大	-11.7148
衰仔	-11.7149
姿態	-11.7149
標記	-11.715
1:0	-11.715
係嚟自	-11.7152
廠商	-11.7153
分歧	-11.7154
聘	-11.7154
Web	-11.7157
紅魔	-11.7157
比人拉	-11.7157
叉燒	-11.7157
1.4	-11.7157
打理	-11.7159
亦都冇	-11.7159
Fin	-11.716
花花	-11.716
首位	-11.716
發育	-11.716
恤	-11.7163
sis	-11.7164
面臨	-11.7165
攪到	-11.7169
求助	-11.717
唔會理	-11.717
都未有	-11.717
電磁	-11.7171
流暢	-11.7175
今周	-11.7178
恥	-11.718
fiel	-11.718
重傷	-11.7181
ous	-11.7183
親眼	-11.7183
打低	-11.7183
畏	-11.7185
仲喺度	-11.7186
here	-11.7186
GDP	-11.7186
Wa	-11.7188
黴	-11.7188
好期待	-11.7189
"|	-11.719
ima	-11.719
ings	-11.7191
cia	-11.7192
觀感	-11.7192
田少	-11.7193
1600	-11.7195
Phil	-11.7195
做啲咩	-11.7197
呢套劇	-11.7197
寫真	-11.7197
兩國	-11.7197
流程	-11.7201
cool	-11.7203
有得揀	-11.721
中信	-11.7211
衝入	-11.7212
反轉	-11.7212
係咩人	-11.7212
回到	-11.7214
預約	-11.7216
壩	-11.7216
呢個表唔	-11.7218
荔	-11.7219
校方	-11.722
找數	-11.722
教宗	-11.7222
真理	-11.7222
名譽	-11.7225
直徑	-11.7227
食飽	-11.7232
144	-11.7232
淇	-11.7234
農場	-11.7236
收睇	-11.7236
晚飯	-11.7238
和黃	-11.7239
槓桿	-11.724
營造	-11.7241
家鄉	-11.7243
kin	-11.7245
tric	-11.7246
拆咗	-11.7248
BE	-11.7249
花紅	-11.725
救護	-11.725
封閉	-11.7251
｣	-11.7253
泡沫	-11.7253
我隻手	-11.7253
愉快	-11.7255
插入	-11.7256
聲援	-11.7257
許可	-11.7258
á	-11.7259
醃	-11.7259
泄	-11.7259
俄佬	-11.726
再諗	-11.726
血統	-11.726
拮	-11.7263
六合彩	-11.7266
呔	-11.7268
嘈交	-11.727
重開	-11.727
推開	-11.727
侵略	-11.7271
師姐	-11.7271
elec	-11.7273
漏洞	-11.7273
上到去	-11.7278
歇	-11.7278
礙	-11.7279
寬頻	-11.7279
＝	-11.7281
原文	-11.7284
Mc	-11.7284
蠟燭	-11.7286
整容	-11.7288
flow	-11.7289
出線	-11.729
季節	-11.729
諗野	-11.729
小妹	-11.7294
買飛	-11.7295
作風	-11.7296
對焦	-11.7296
機箱	-11.73
你地班	-11.7303
離隊	-11.7304
配件	-11.7306
間舖	-11.7308
大廳	-11.731
嬰	-11.7311
收緊	-11.7312
謝安琪	-11.7313
祖記	-11.7314
救護車	-11.7314
自在	-11.7314
病情	-11.7318
br	-11.7321
鴿	-11.7322
配套	-11.7323
含撚	-11.7324
小丑	-11.7324
容納	-11.7325
Hy	-11.7325
逆轉	-11.7325
唔理你	-11.7325
tube	-11.7327
豐田	-11.7327
Pr	-11.7328
愛華頓	-11.7328
括	-11.7329
唔撚識	-11.733
民望	-11.733
nice	-11.7331
領事館	-11.7332
40%	-11.7332
定居	-11.7334
惑	-11.7334
食肉	-11.7336
賭錢	-11.7337
橫行	-11.7338
its	-11.734
框架	-11.734
喊到	-11.7341
買埋	-11.7345
搞得掂	-11.7346
祝你	-11.7347
XXX	-11.735
餐飯	-11.7352
1:1	-11.7353
rin	-11.7353
兩球	-11.7353
好可惜	-11.7354
求下你	-11.7355
醫管局	-11.7356
行內	-11.7359
荔枝角	-11.7361
辮	-11.7362
貼紙	-11.7363
今仗	-11.7365
生效	-11.7366
Br	-11.7366
敎	-11.7369
螢幕	-11.7369
咪住	-11.7369
壽命	-11.737
㷫	-11.7372
沖完涼	-11.7372
加泰	-11.7372
內疚	-11.7373
下台	-11.7377
荃	-11.7377
首選	-11.7378
wai	-11.7379
北美	-11.738
ken	-11.7381
鄧艾	-11.7384
變動	-11.7384
做緊咩	-11.7386
速龍	-11.7386
煒	-11.7388
順眼	-11.7389
ET	-11.7394
轉移視線	-11.7394
珍貴	-11.7397
cat	-11.7398
新款	-11.7398
火力	-11.74
刺客	-11.74
不分化	-11.7403
大西洋	-11.7404
反面	-11.7407
反射	-11.7408
ml	-11.7409
坎	-11.741
出品	-11.741
評判	-11.7411
跌幅	-11.7413
廿幾	-11.7413
逼到	-11.7414
華為	-11.7414
▁Is	-11.7415
沐	-11.7416
sus	-11.7417
揚州	-11.7417
猶豫	-11.7422
匠	-11.7425
公廁	-11.7428
開辦	-11.7429
嘔心	-11.7429
相近	-11.7429
1946	-11.7429
傑出	-11.743
新星	-11.743
等佢哋	-11.7431
管轄	-11.7435
邊樣	-11.7435
唔洗講	-11.7436
口岸	-11.7438
一回事	-11.7439
Rock	-11.7441
uter	-11.7441
公正	-11.7443
1959	-11.7444
在位	-11.7444
上午	-11.7447
難過	-11.7447
無恥	-11.7447
強硬	-11.7448
▁哎嗰	-11.745
Ig	-11.7451
第九	-11.7452
｢	-11.7454
漢堡	-11.7456
轉向	-11.7457
羞	-11.7459
外籍	-11.746
試圖	-11.7461
表哥	-11.7463
實踐	-11.7465
代言	-11.7465
1956	-11.7466
詞彙	-11.7468
唔停	-11.7469
刁	-11.747
埸	-11.747
事務所	-11.7472
海上	-11.7473
全能	-11.7473
PL	-11.7474
樹木	-11.7475
友善	-11.7477
swit	-11.7478
麥當勞	-11.7482
唔敢再	-11.7483
焗住	-11.7484
架咋	-11.7485
李家超	-11.7485
足球隊	-11.7485
代入	-11.7485
髓	-11.7486
電荷	-11.7487
鄰近	-11.7487
lice	-11.7487
篤灰	-11.7488
殺入	-11.7489
交税	-11.7489
解開	-11.7491
唔慣	-11.7492
淡水	-11.7493
▁lea	-11.7493
嘟	-11.7495
賓架	-11.7499
侍應	-11.7499
奈何	-11.75
證書	-11.75
It	-11.7501
gger	-11.7501
嫻	-11.7502
證人	-11.7502
見解	-11.7502
自豪	-11.7503
英鎊	-11.7504
phys	-11.7507
小圈子	-11.7508
寓	-11.7509
入閘	-11.751
錯左	-11.751
闢	-11.7511
暑	-11.7512
償	-11.7513
光頭	-11.7513
地形	-11.7514
抵玩	-11.7517
栗	-11.7517
視野	-11.752
樂趣	-11.7521
變種	-11.7522
幾蚊	-11.7524
出院	-11.7525
繡	-11.7527
信用	-11.7528
罅	-11.753
儲備	-11.7535
十歲	-11.7535
迫害	-11.7535
元音	-11.7535
犁	-11.7536
兩岸	-11.7537
硬食	-11.7537
筷子	-11.7537
ev	-11.7538
遊説	-11.7538
爹	-11.7539
2:0	-11.754
螺絲	-11.7541
加工	-11.7542
禽	-11.7543
認定	-11.7544
買餸	-11.7545
宴會	-11.7545
Val	-11.7545
觀光	-11.7545
昏	-11.7547
-20	-11.7549
評級	-11.7549
氧氣	-11.755
攞去	-11.7551
髀	-11.7552
吵	-11.7553
濕地	-11.7554
又有咩	-11.7555
閂埋	-11.7555
周星馳	-11.7556
末日	-11.7558
Park	-11.7561
共匪	-11.7561
落左	-11.7563
神仙	-11.7563
枕	-11.7564
疫	-11.7565
輔導	-11.7566
MM	-11.7566
口語	-11.7566
洗碗	-11.7567
出貨	-11.7567
阿明	-11.7568
虛構	-11.757
ach	-11.757
菇	-11.7571
打鬥	-11.7574
覆我	-11.7576
意願	-11.7576
去救	-11.7577
喺呢處	-11.7578
寂寞	-11.7578
rice	-11.758
電動	-11.7582
口供	-11.7582
shot	-11.7584
都忍唔住	-11.7587
Uni	-11.7589
國立	-11.7589
等埋	-11.7593
出門	-11.7595
ault	-11.7599
攞獎	-11.7599
韓劇	-11.76
兵器	-11.76
奇幻	-11.76
充實	-11.7603
總值	-11.7605
拾	-11.7607
real	-11.7607
萬事	-11.7609
普京	-11.7609
快活	-11.7611
平治	-11.7612
新客户	-11.7612
音譯	-11.7613
月供	-11.7613
沾	-11.7614
walk	-11.7615
1:00	-11.7616
Stan	-11.7617
7.1	-11.7618
↓↓↓↓	-11.762
必需	-11.762
起曬	-11.7623
Mini	-11.7623
選委	-11.7624
推銷	-11.7627
為乜	-11.7627
恆星	-11.7628
race	-11.763
英冠	-11.763
瞓醒	-11.763
idae	-11.7631
ona	-11.7631
四萬	-11.7632
bonu	-11.7633
tein	-11.7636
爭執	-11.7638
替代	-11.7639
綁住	-11.764
隨身	-11.7641
細過	-11.7641
忍住	-11.7641
冬甩	-11.7642
班撚樣	-11.7643
多名	-11.7645
犯錯	-11.7646
好可愛	-11.7647
另一隻	-11.7648
1962	-11.7648
℃	-11.7649
黃圈	-11.7649
否決	-11.7652
$9	-11.7655
遲咗	-11.7655
rac	-11.7659
太尉	-11.7659
正宗	-11.7662
及時	-11.7663
堯	-11.7665
兩銀	-11.7666
煥	-11.7668
omic	-11.7674
Fe	-11.7675
旗艦	-11.7675
ile	-11.7675
好慢	-11.7677
０	-11.7678
harp	-11.7679
WA	-11.7679
民調	-11.768
打吡	-11.7682
伺服器	-11.7685
收租	-11.7685
商舖	-11.7686
mil	-11.7686
傾過	-11.7687
江西	-11.769
欖	-11.7691
清理	-11.7692
同八方講	-11.7692
又唔撚	-11.7692
台北市	-11.7692
稱號	-11.7695
大漢	-11.7696
幫佢地	-11.7697
薯條	-11.7698
牀上	-11.7699
尺寸	-11.7699
直選	-11.77
新鮮感	-11.77
薇	-11.77
爭啲	-11.77
妥協	-11.7703
Serv	-11.7704
unc	-11.7704
UK	-11.7706
VS	-11.7707
示意	-11.7709
不死	-11.771
舉動	-11.7711
跑到	-11.7712
MT	-11.7714
快手	-11.7714
弱勢	-11.7718
TER	-11.7718
小妹妹	-11.7719
屈機	-11.772
列入	-11.7721
貼地	-11.7723
gpa	-11.7724
Kar	-11.7724
類別	-11.7726
戰力	-11.7726
OO	-11.7728
連線	-11.7728
額頭	-11.7729
歐國盃	-11.7731
著重	-11.7731
寶馬	-11.7731
援助	-11.7731
外星人	-11.7734
政制	-11.7735
七日	-11.7738
奧運會	-11.7738
奪取	-11.7739
羅拔	-11.774
ETF	-11.7741
顯著	-11.7741
蘋果馬網	-11.7743
恐慌	-11.7744
芝麻	-11.7744
揀左	-11.7746
跌咗落	-11.7746
交友	-11.7748
新野	-11.775
被問到	-11.775
三罷	-11.7751
呢批	-11.7752
路易	-11.7752
輕輕鬆鬆	-11.7753
靶	-11.7753
訓覺	-11.7753
？』	-11.7755
18.	-11.7755
曼谷	-11.7757
入城	-11.7758
總統選舉	-11.7759
路透社	-11.7759
挑釁	-11.7759
dow	-11.776
rick	-11.7763
四面	-11.7765
寫字	-11.7766
趕到	-11.7767
漢人	-11.7768
uff	-11.7768
甄	-11.7769
繫	-11.7771
disc	-11.7771
快閃	-11.7772
精力	-11.7772
信唔信	-11.7772
狗屋	-11.7774
擺酒	-11.7776
圍繞	-11.7776
幽	-11.7776
痛到	-11.7776
Pu	-11.7776
傑志	-11.7777
沉默	-11.7777
鉛	-11.7778
當場	-11.7779
做得好好	-11.778
長洲	-11.778
★	-11.7782
過百	-11.7784
挽	-11.7784
寶石	-11.7785
申報	-11.7786
ifer	-11.779
跟埋	-11.779
tial	-11.7792
綜援	-11.7792
主唱	-11.7794
對得住	-11.7797
走喇	-11.7798
導彈	-11.7798
巴高	-11.7799
DR	-11.7799
癌症	-11.7799
叻仔	-11.7801
mv	-11.7802
黎架	-11.7803
戰績	-11.7805
由細	-11.7806
搖滾	-11.7807
蔭	-11.7808
之嘛	-11.7808
啡色	-11.7809
1920	-11.7809
短炒	-11.7811
開場	-11.7811
風雨	-11.7812
1,2	-11.7815
輕笑聲	-11.7815
得太多	-11.7816
卻	-11.7817
散播	-11.782
照樣	-11.7821
一門	-11.7821
鬱動	-11.7822
觸發	-11.7823
rey	-11.7824
孫策	-11.7824
！』	-11.7826
一員	-11.7826
套裝	-11.7827
nes	-11.7827
棺材	-11.7828
洗面	-11.783
幅畫	-11.783
北邊	-11.7832
作詞	-11.7834
特權	-11.7835
mc	-11.7836
趁住	-11.7839
預言	-11.7841
噉咪	-11.7842
殺左	-11.7843
病房	-11.7844
IF	-11.7844
綜	-11.7848
肆	-11.785
Ye	-11.785
中的	-11.7851
首映	-11.7852
冇人理	-11.7853
講座	-11.7853
賠率	-11.7856
中六	-11.7857
關節	-11.7861
Tele	-11.7861
撐場	-11.7862
最正	-11.7863
HP	-11.7863
卡片	-11.7864
玩埋	-11.7864
舜	-11.7868
Feel	-11.7876
選項	-11.7877
身穿	-11.7877
口頭	-11.7878
無腦	-11.7878
功效	-11.7878
比我地	-11.7879
論證	-11.7879
嘅數值	-11.7882
畀面	-11.7883
骰仔	-11.7883
孤獨	-11.7884
乜撚	-11.7884
華仔	-11.7884
隻隻	-11.7884
悼念	-11.7885
睇唔明	-11.7886
派息	-11.7887
屢	-11.7888
摔	-11.7888
金管局	-11.7888
英美	-11.7891
Cl	-11.7892
外號	-11.7893
mid	-11.7893
化妝品	-11.7896
綺	-11.7898
華麗	-11.7898
0.1	-11.7898
合金	-11.7905
擺脱	-11.7906
康城	-11.7906
線條	-11.7907
1947	-11.7909
戚	-11.7911
官話	-11.7911
車隊	-11.7912
拎埋	-11.7912
有心人	-11.7913
各人	-11.7913
搬走	-11.7913
義氣	-11.7914
防中	-11.7916
踭	-11.7917
收兵	-11.7918
下便	-11.7919
回升	-11.7919
戰國	-11.7921
嘅稱呼	-11.7921
點諗	-11.7922
救到	-11.7923
張敬軒	-11.7924
筆記	-11.7926
2:30	-11.7927
肢	-11.7928
上層	-11.7931
流水	-11.7931
nnie	-11.7932
ele	-11.7933
辦事	-11.7935
產物	-11.7937
文憑	-11.7937
ural	-11.7937
全線	-11.794
得掂	-11.7941
巫師	-11.7941
腳步聲	-11.7941
頒發	-11.7942
典禮	-11.7943
顛	-11.7944
韓流	-11.7945
私下	-11.7945
奠	-11.7948
不失	-11.795
問責	-11.795
消除	-11.795
嘜	-11.7951
察覺	-11.7951
8:00	-11.7951
換取	-11.7953
三間	-11.7954
心底	-11.7955
好興奮	-11.7958
不和	-11.796
車長	-11.7961
大叔	-11.7962
rea	-11.7963
激嬲	-11.7964
同佢傾	-11.7964
先肯	-11.7965
終止	-11.7966
你敢爆	-11.7967
無效	-11.7968
天份	-11.7968
蘿	-11.7971
窗口	-11.7971
bot	-11.7973
依靠	-11.7974
含有	-11.7975
PG	-11.7976
敢獎	-11.7976
不惜	-11.7977
行完	-11.7979
便利店	-11.7981
部落	-11.7981
港英	-11.7982
淺黃	-11.7982
何必	-11.7983
msg	-11.7983
blog	-11.7984
𠺢嘛	-11.7984
刪除	-11.7985
Tri	-11.7988
較低	-11.7989
380	-11.799
皇紀	-11.7994
大嗌	-11.7997
esla	-11.7999
trac	-11.8001
胡椒	-11.8001
知情	-11.8002
姓名	-11.8005
樣本	-11.8009
尉	-11.801
化身	-11.801
逳手	-11.801
香味	-11.8011
理所	-11.8016
密集	-11.8017
得啖笑	-11.8017
物流	-11.802
FO	-11.8025
坐落	-11.8026
鄉黑	-11.8027
upg	-11.8029
ano	-11.8031
暗中	-11.8033
手冊	-11.804
1.6	-11.804
歉	-11.8041
road	-11.8041
矢	-11.8041
小隊	-11.8042
攻入	-11.8043
合乎	-11.8044
摧毀	-11.8044
遼	-11.8045
開聲	-11.8045
大敗	-11.8046
雙層	-11.8047
唔敢講	-11.8047
擋住	-11.8047
面具	-11.8048
豉油	-11.8052
yen	-11.8052
果套	-11.8052
冷淡	-11.8053
拎走	-11.8056
陪伴	-11.8056
Jan	-11.8056
未經	-11.8058
院校	-11.8058
都係果句	-11.8059
見倒	-11.806
親生	-11.8061
燃燒	-11.8061
拍住	-11.8061
鈕	-11.8061
條村	-11.8062
良知	-11.8064
IR	-11.8065
薪酬	-11.8066
分隔	-11.8066
六日	-11.807
後續	-11.8071
硫	-11.8074
平權	-11.8075
一如	-11.8076
施壓	-11.8079
感恩	-11.808
熱愛	-11.808
抵達	-11.808
發布	-11.8081
新碟	-11.8082
華南	-11.8084
一週	-11.8084
驟	-11.8086
受損	-11.8088
方怡	-11.809
短訊	-11.8093
鑄	-11.8095
加利	-11.8097
王菲	-11.8098
減輕	-11.8101
嘉琪	-11.8103
左腳	-11.8103
體內	-11.8104
陳奕迅	-11.8105
遊記	-11.8105
plus	-11.8106
靚啲	-11.8109
麪包理髮	-11.811
蘭西	-11.8111
rist	-11.8112
關口	-11.8113
stop	-11.8113
推斷	-11.8114
oeng	-11.8114
六百	-11.8115
智力	-11.8115
fine	-11.8117
fuck	-11.8117
ao	-11.8117
﹗	-11.8118
ican	-11.812
Set	-11.8123
海景	-11.8123
委屈	-11.8126
馬拉松	-11.8126
佈置	-11.8128
季軍	-11.8128
前身	-11.8133
升班	-11.8133
4-5	-11.8134
理智	-11.8134
萬美元	-11.8135
Good	-11.8136
逝世	-11.8136
ATX	-11.8137
睇錯	-11.8138
乜柒	-11.8139
總數	-11.8144
太差	-11.8145
諒	-11.8146
手尾	-11.8148
初中	-11.8148
拍左	-11.815
wall	-11.8151
受過	-11.8156
兇手	-11.8158
街邊	-11.8159
成堆	-11.816
vic	-11.8162
海濱	-11.8162
班主	-11.8165
揦	-11.8166
嗌交	-11.8167
張單	-11.8168
引力	-11.8169
gene	-11.817
HKD	-11.8171
痴線佬	-11.8174
湖人	-11.8174
戰友	-11.8174
Mu	-11.8176
bel	-11.8181
低音	-11.8181
財爺	-11.8181
響應	-11.8184
引申	-11.8184
糖水	-11.8185
住宿	-11.8186
West	-11.8188
飛馬	-11.8189
一望	-11.819
紀律部隊	-11.819
三級	-11.8193
低能	-11.8198
陰謀論	-11.8198
黃昏	-11.8201
客機	-11.8202
vin	-11.8203
FT	-11.8204
tax	-11.8205
對稱	-11.8207
氣味	-11.8207
Top	-11.8208
據報	-11.8208
陸地	-11.8209
rian	-11.8209
一大班	-11.8209
Blue	-11.8211
摩佬	-11.8212
一台戲	-11.8213
大英帝國	-11.8214
致命	-11.8214
入職	-11.8214
描寫	-11.8215
都係嗰句	-11.8217
倚	-11.8217
self	-11.8219
志明	-11.8219
砰	-11.8221
穗	-11.8224
晚會	-11.8225
夥記	-11.8225
每位	-11.8226
ste	-11.8226
波箱	-11.8227
卅	-11.8231
好凍	-11.8231
存款	-11.8232
Out	-11.8232
玩嚇	-11.8236
底板	-11.8237
任職	-11.8238
學士	-11.8241
冷門	-11.8243
不敗	-11.8244
寇	-11.8248
習俗	-11.8249
出到黎	-11.825
剋	-11.825
以南	-11.8252
自學	-11.8253
份糧	-11.8253
趟	-11.8255
觀音	-11.8256
太貴	-11.8257
失咗	-11.8257
躝	-11.8258
場戲	-11.8259
身型	-11.8259
就去咗	-11.826
考完	-11.826
惡魔	-11.8263
路程	-11.8263
懷念	-11.8264
己經	-11.8264
策劃	-11.8267
智利	-11.8267
李華華	-11.8267
紐卡素	-11.8268
動搖	-11.8268
毀滅	-11.8268
鎚	-11.8268
蔬菜	-11.8269
條脷	-11.8271
燭	-11.8271
隱形	-11.8272
俾姐姐	-11.8272
雌	-11.8272
榨	-11.8275
善用	-11.8276
Si	-11.8277
Nor	-11.8278
品味	-11.828
都無得	-11.8281
職責	-11.8283
anna	-11.8284
失禮	-11.8284
格仔	-11.8284
迴避	-11.8285
涅	-11.8286
名字	-11.8287
喺銅鑼灣	-11.8288
欣宜	-11.8288
呢條友	-11.8288
sit	-11.8291
品質	-11.8291
PSG	-11.8292
outh	-11.8292
一夜	-11.8293
懇	-11.8296
80%	-11.8298
季尾	-11.8299
拘	-11.83
光明	-11.83
gel	-11.83
鱷	-11.8302
救援	-11.8305
bat	-11.8307
換衫	-11.8307
林峯	-11.8307
粟米	-11.8307
上晝	-11.8309
酷	-11.8309
平靜	-11.8309
政界	-11.8309
呃錢	-11.831
笑死	-11.8311
hol	-11.8312
果實	-11.8312
難忘	-11.8313
AK	-11.8314
計較	-11.8314
港島綫	-11.8318
leD	-11.8318
1/2	-11.832
寫作	-11.8321
Team	-11.8321
個鼻	-11.8322
九七	-11.8322
馬房	-11.8323
揹	-11.8324
藥房	-11.8324
廣義	-11.8325
sex	-11.8328
貼近	-11.8329
阿水	-11.8329
另類	-11.8332
傾緊	-11.8336
gain	-11.8341
會計師	-11.8344
西九龍	-11.8346
偶然	-11.8348
發作	-11.8348
識別	-11.835
攔	-11.8356
ISO	-11.8361
要做到	-11.8361
秉	-11.8362
李八方	-11.8362
nds	-11.8363
首度	-11.8363
侄	-11.8365
è	-11.8366
社團	-11.8368
忠心	-11.8371
翅	-11.8372
瘀	-11.8372
Bro	-11.8372
腳趾	-11.8373
儀器	-11.8375
舉報	-11.8375
lica	-11.8376
刊登	-11.8377
課室	-11.8378
好失望	-11.8378
貝爾	-11.8379
唯獨	-11.8379
佔據	-11.8381
想學	-11.8382
肖	-11.8382
汝	-11.8382
及影評	-11.8386
你網羅	-11.8386
Nati	-11.8386
過馬路	-11.8389
遲下	-11.8389
排列	-11.8389
跡象	-11.8391
青訓	-11.8391
90%	-11.8392
微軟	-11.8392
Chlo	-11.8393
道教	-11.8393
智障	-11.8394
睇下有冇	-11.8394
一體	-11.8395
鱷魚	-11.8397
戴宗	-11.8398
fort	-11.8399
途人	-11.84
攜	-11.8401
代數	-11.8401
條裙	-11.8401
gun	-11.8406
冷戰	-11.8408
cons	-11.8411
nald	-11.8412
錯曬	-11.8412
水魚	-11.8415
點計	-11.8416
乜乜柒柒	-11.8417
mun	-11.8418
temp	-11.8418
Hall	-11.8419
開季	-11.8421
256	-11.8421
唔撚到	-11.8425
硬淨	-11.8425
屠殺	-11.8429
鈎	-11.843
1955	-11.8431
傷亡	-11.8431
捍衞	-11.8431
字面	-11.8432
頒獎	-11.8433
列為	-11.8436
Sky	-11.8436
西醫	-11.8436
越嚟越多	-11.8438
你想要	-11.8438
補償	-11.844
配置	-11.8441
七點	-11.8441
匕首	-11.8442
Sal	-11.8443
volu	-11.8444
illa	-11.8444
路邊	-11.8445
公益	-11.8446
物理學家	-11.8447
沿岸	-11.8447
Than	-11.8448
WaWa	-11.8449
發癲	-11.8449
ffee	-11.8449
運送	-11.845
雲格	-11.8451
緻	-11.8452
嘭	-11.8452
濁	-11.8452
LED	-11.8454
分身	-11.8455
馬匹賽績	-11.8456
座椅	-11.8458
1940	-11.846
提倡	-11.846
發炎	-11.8462
二百萬	-11.8463
救返	-11.8464
藥水	-11.8466
做緊乜	-11.8467
alth	-11.8468
落肚	-11.8469
Nico	-11.8471
月薪	-11.8471
罕有	-11.8473
名家貼士	-11.8473
oh	-11.8475
淨低	-11.8483
贏錢武器	-11.8484
記憶體	-11.8484
週五	-11.8488
拉開	-11.8489
飲杯	-11.8494
罐頭	-11.8495
賣家	-11.8495
擴散	-11.8496
wong	-11.85
刨馬撳呢	-11.8501
Vol	-11.8505
烚	-11.8505
共和黨	-11.8505
貴過	-11.8505
貪心	-11.8506
DI	-11.8508
TW	-11.8509
skip	-11.8517
可怕	-11.8517
愛心	-11.8519
竭	-11.8519
假膠	-11.852
gam	-11.852
撞車	-11.8525
直擊	-11.8525
Mirr	-11.8525
小桂子	-11.8526
四次	-11.8526
履	-11.8527
恕	-11.853
轉化	-11.853
問候	-11.853
IO	-11.8532
wiki	-11.8533
陳慧琳	-11.8533
念頭	-11.8533
囡	-11.8537
tact	-11.8537
方丈	-11.8537
委託	-11.8538
間鋪	-11.8538
暨	-11.854
谷德昭	-11.854
不容	-11.8541
試驗	-11.8546
西班牙文	-11.8547
試玩	-11.8549
間諜	-11.855
als	-11.855
籌碼	-11.855
引人	-11.8551
輕快	-11.8554
低質	-11.8554
不合作	-11.8556
八成	-11.8558
角落	-11.8561
政變	-11.8564
潘頓	-11.8565
魯智深	-11.8568
ben	-11.857
擴	-11.8571
193	-11.8571
彰	-11.8572
燶	-11.8572
瞳	-11.8576
裁判	-11.8577
大聲噉	-11.8577
SONY	-11.8579
泳衣	-11.8579
烈士	-11.8579
靜靜	-11.8581
LCD	-11.8583
之力	-11.8584
糟	-11.8586
Just	-11.8587
兩萬	-11.8591
害人	-11.8591
fess	-11.8592
爆左	-11.8594
炒車	-11.8594
唔覆	-11.8595
工黨	-11.8598
部手機	-11.8598
拉麵	-11.8598
以北	-11.8599
槌	-11.86
牙膏	-11.8601
隔咗	-11.8602
Now	-11.8602
手續費	-11.8603
幾勁	-11.8603
甜蜜	-11.8604
梵	-11.8604
收費區	-11.8604
太郎	-11.8605
勒索	-11.8605
Keep	-11.8608
貼咗	-11.8609
新娘	-11.8611
某樣嘢	-11.8615
大髀	-11.8616
Sun	-11.8619
聯儲局	-11.862
維港	-11.862
答到	-11.8622
Tee	-11.8622
大致上	-11.8622
停左	-11.8623
日語	-11.8625
尊敬	-11.8628
瞓咗	-11.8629
運河	-11.863
錦標賽	-11.8631
出招	-11.8635
成立咗	-11.8635
1400	-11.8635
賭博	-11.8636
安仔	-11.8638
幼稚	-11.8639
輪椅	-11.864
前題	-11.8641
物價	-11.8643
冰冰	-11.8645
some	-11.8645
沿海	-11.8647
走唔甩	-11.8647
工時	-11.8648
延遲	-11.865
17.	-11.8651
上海話	-11.8651
嬰兒	-11.8655
麻麻地	-11.8656
披露	-11.8656
情景	-11.8656
2.8	-11.8657
赦	-11.8657
anti	-11.8661
太極	-11.8662
▁#30	-11.8663
征	-11.8664
官方網站	-11.8665
卡爾	-11.8665
岩	-11.8666
pad	-11.8666
兩老	-11.8666
翻身	-11.8667
樓層	-11.8669
solu	-11.8676
神情	-11.8677
月費	-11.8678
Red	-11.8678
折磨	-11.8679
劇透	-11.8679
內外	-11.8681
aste	-11.8681
分辨	-11.8682
禧	-11.8684
通識	-11.8685
econ	-11.8685
tect	-11.8686
克服	-11.8688
西九	-11.8688
tend	-11.869
不合	-11.8691
譯做	-11.8691
分佈喺	-11.8692
球壇	-11.8696
缺席	-11.8696
認清	-11.8697
Emma	-11.8698
綁架	-11.8698
酒鬼	-11.8699
電競	-11.87
股神	-11.87
心聲	-11.87
城鎮	-11.8701
放返	-11.8701
收銀	-11.8702
因果	-11.8704
射波	-11.8704
晌	-11.8704
溜	-11.871
昨晚	-11.8715
悟空	-11.8717
SK	-11.8718
關税	-11.872
嘞喎	-11.8721
城區	-11.8722
翻新	-11.8722
古蹟	-11.8723
大炮	-11.8725
方程式	-11.8727
謹	-11.8728
洽	-11.8729
酵素	-11.8729
baby	-11.8729
回顧	-11.8732
1900	-11.8732
都唔太	-11.8732
rie	-11.8734
膝頭	-11.8734
Hell	-11.8735
桓	-11.8736
短褲	-11.8738
老闆娘	-11.8738
城城	-11.8739
留下	-11.874
Min	-11.8741
zy	-11.8743
軍士	-11.8743
四分	-11.8747
暉	-11.8747
各界	-11.8747
馬克思	-11.8751
認購	-11.8752
霸王	-11.8753
貶	-11.8755
拳頭	-11.8756
加入咗	-11.8756
poli	-11.8758
利利	-11.8759
0.3	-11.8761
聽朝	-11.8761
蒐集	-11.8765
幾十個	-11.8772
書法	-11.8773
RPG	-11.8774
電盈	-11.8775
性命	-11.8777
咩事呀	-11.8778
遇過	-11.8779
肋	-11.8779
搞亂	-11.878
堅守	-11.8781
▁pri	-11.8781
rule	-11.8781
220	-11.8781
剝削	-11.8781
冇理	-11.8782
文科	-11.8784
霆鋒	-11.8786
soc	-11.8787
1952	-11.8788
跟蹤	-11.8791
地中海	-11.8794
多項	-11.8794
yes	-11.8796
晁蓋	-11.8798
幾百蚊	-11.88
行事	-11.88
urbo	-11.88
曹丕	-11.8801
中鋒	-11.8803
2:00	-11.8804
4.5	-11.8804
快啲走	-11.8805
雕塑	-11.8805
港男	-11.8806
劃分	-11.8807
AND	-11.8808
暴露	-11.8809
正喺度	-11.8809
辦公	-11.8811
1957	-11.8811
整親	-11.8813
接任	-11.8814
𡃁仔	-11.8816
BBC	-11.8819
99%	-11.882
3:00	-11.8821
頂多	-11.8821
弟子	-11.8822
▁一二三	-11.8825
Rich	-11.8826
合埋	-11.8826
lm	-11.883
廠方	-11.883
咁你就	-11.8831
ates	-11.8831
unny	-11.8831
星球	-11.8832
備受	-11.8832
pk	-11.8834
咩料	-11.8834
守衞	-11.8835
殖	-11.8835
洪教主	-11.8836
陳家	-11.8836
rock	-11.8837
喺新界	-11.8837
aker	-11.8842
充電	-11.8843
純利	-11.8843
shi	-11.8843
罷睇	-11.8843
arge	-11.8843
林奠	-11.8844
薯片哥	-11.8847
前任	-11.8849
粵文	-11.8851
下游	-11.8851
**	-11.8852
榕	-11.8852
戲份	-11.8855
Ray	-11.8855
妒忌	-11.8856
Mike	-11.8857
rial	-11.8857
頻頻	-11.8858
草案	-11.8858
論述	-11.8859
疑犯	-11.8859
堅強	-11.886
購入	-11.886
預留	-11.8863
婚紗	-11.8864
復仇	-11.8864
PP	-11.8866
詔	-11.8867
唔覺意	-11.8868
屁股	-11.887
佳麗	-11.887
0.2	-11.8871
茅十八	-11.8871
四千	-11.8872
rom	-11.8873
錦標	-11.8874
只會令	-11.8874
頂帽	-11.8875
政見	-11.8875
鄒	-11.8878
洗版	-11.8878
Gi	-11.888
偷拍	-11.8882
財團	-11.8882
有小小	-11.8883
唐朝	-11.8884
進軍	-11.8886
趴	-11.8889
njoy	-11.8891
書店	-11.8891
悲劇	-11.8893
極少	-11.8894
才華	-11.8895
mand	-11.8896
取決於	-11.8896
撤銷	-11.8897
唔關我事	-11.89
擔當	-11.89
死撐	-11.8903
補給	-11.8906
依舊	-11.8908
又唔洗	-11.8913
絡	-11.8914
乜春	-11.8914
格局	-11.8915
三菱	-11.8917
關羽	-11.892
USD	-11.892
嘢飲	-11.8921
aint	-11.8922
好爽	-11.8924
客家	-11.8924
北歐	-11.8925
燦	-11.8928
Mag	-11.893
騎兵	-11.8931
路軌	-11.8931
媛	-11.8932
keyb	-11.8933
違法	-11.8935
四強	-11.8935
叩頭	-11.8937
移居	-11.8938
讓步	-11.8938
▁生平	-11.8939
梁山泊	-11.894
明報	-11.8941
自衞	-11.8943
淳	-11.8944
TL	-11.8944
好後悔	-11.8945
未記	-11.8948
小米	-11.8949
rat	-11.8949
今期	-11.895
約埋	-11.8951
較多	-11.8953
原生	-11.8953
陳雲	-11.8954
保衞	-11.8956
解鎖	-11.8958
曾俊華	-11.8958
意粉	-11.8959
pend	-11.8962
岌	-11.8962
試問	-11.8962
uri	-11.8963
交出	-11.8965
TU	-11.8965
長安	-11.8966
百萬人	-11.8969
逗留	-11.8969
提交	-11.8971
關卡	-11.8972
Es	-11.8972
lege	-11.8973
Gran	-11.8975
議案	-11.8976
手感	-11.8979
羽毛球	-11.8984
口感	-11.8985
斯坦	-11.8986
陌生	-11.8991
水面	-11.8992
Note	-11.8992
903	-11.8992
派發	-11.8995
tee	-11.8997
學問	-11.8997
足球聯賽	-11.8998
引伸波幅	-11.8999
mall	-11.9
1954	-11.9001
lit	-11.9002
慧敏	-11.9007
誠實	-11.9008
滅絕	-11.9008
致電	-11.9015
四名	-11.9016
西岸	-11.9016
坐住	-11.9017
飛天	-11.902
依度	-11.9021
調動	-11.9021
自製	-11.9023
屆時	-11.9024
???	-11.9024
曾鈺成	-11.9025
賣相	-11.9025
九十	-11.9026
UC	-11.9027
Frie	-11.9027
ect	-11.9027
諗嘢	-11.9028
美聯社	-11.903
晚宴	-11.9032
住户	-11.9032
呢篇文	-11.9032
tour	-11.9032
全隊	-11.9033
大革命	-11.9034
補貼	-11.9035
日記	-11.9037
loca	-11.9038
夏威夷	-11.904
契弟	-11.904
中超	-11.9041
單元	-11.9043
佢份人	-11.9046
璇	-11.9047
侷限	-11.9049
同胞	-11.9052
中共中央	-11.9053
濫權	-11.9056
長久	-11.9059
陳列室有	-11.9061
説服力	-11.9061
靠近	-11.9063
寶寶	-11.9063
球王	-11.9065
牙齒	-11.9065
輔音	-11.9066
做乜嘢啊	-11.9066
建基於	-11.9066
不堪	-11.9066
兵團	-11.9066
鄉村	-11.9067
前提係	-11.9067
力撐	-11.907
車程	-11.9071
sl	-11.9073
prof	-11.9077
關門	-11.9077
色情	-11.9078
清洗	-11.9079
都唔理	-11.908
開業	-11.9082
cos	-11.9083
化石	-11.9084
勵	-11.9084
套現	-11.9085
早日	-11.9085
告別	-11.9086
oach	-11.9088
罕見	-11.9089
rel	-11.909
巴絲打	-11.909
妓	-11.9092
教頭	-11.9093
結算	-11.9095
杭州	-11.9096
波幅	-11.9099
人身攻擊	-11.9099
服飾	-11.91
前晚喺	-11.91
某啲嘢	-11.9104
illy	-11.9105
工藝	-11.9105
劇院	-11.9105
喂喂	-11.9106
陰陽	-11.9109
exch	-11.911
鰂魚湧	-11.911
時許	-11.9111
連勝	-11.9112
mus	-11.9112
聽人講	-11.9112
Amer	-11.9113
fat	-11.9113
照計	-11.9114
餃	-11.9114
狐狸	-11.9114
ASUS	-11.9115
嚴肅	-11.9115
彼得	-11.9116
預料	-11.9116
吸毒	-11.9117
函	-11.9118
冼	-11.9118
抽獎	-11.9119
棉花	-11.9121
董建華	-11.9122
例牌	-11.9122
競技	-11.9123
右腳	-11.9126
內衣	-11.9127
衫褲	-11.9127
施丹	-11.9128
我只係想	-11.913
ody	-11.9131
妓女	-11.9131
犯規	-11.9131
食花生	-11.9131
睹	-11.9133
留住	-11.9135
請假	-11.9136
廣東歌	-11.9137
加熱	-11.9139
夾住	-11.9139
橛	-11.914
搜查	-11.9141
cret	-11.9141
濾	-11.9141
ters	-11.9141
共鳴	-11.9144
蔽	-11.9144
市面上	-11.9145
陌生人	-11.9146
圭	-11.9148
失戀	-11.9148
失落	-11.9148
foll	-11.9149
案例	-11.915
eve	-11.915
噉解	-11.915
Cho	-11.9151
獸醫	-11.9152
疆	-11.9152
神父	-11.9155
紅燈	-11.9155
Amaz	-11.9155
列斯	-11.916
由得佢	-11.9161
偷偷地	-11.9161
乖乖地	-11.9161
糯米	-11.9163
砌機	-11.9164
真菌	-11.9167
﹑	-11.9167
羅馬帝國	-11.9169
盛傳	-11.917
槓	-11.917
謝謝	-11.9171
組隊	-11.9171
孕	-11.9173
風頭	-11.9173
搞成咁	-11.9177
陰謀	-11.9177
崗位	-11.9177
恒大	-11.9178
單程	-11.9178
天花	-11.9181
莎莎	-11.9182
造反	-11.9182
往績	-11.9183
cp	-11.9185
靈感	-11.9185
升至	-11.9185
憂慮	-11.9186
知咩事	-11.9193
逃跑	-11.9194
rack	-11.9201
慶幸	-11.9203
樂團	-11.9204
幾步	-11.9204
Gar	-11.9205
大肚	-11.9205
賣曬	-11.9205
輪迴	-11.9206
格硬	-11.9208
tick	-11.9209
有資格	-11.921
肅	-11.921
推理	-11.921
友賽	-11.9214
爭論	-11.9215
乜嘢事	-11.9216
流量	-11.9217
增持	-11.9219
膩	-11.9219
Thom	-11.922
企硬	-11.9221
塑膠	-11.9221
888	-11.9222
似樣	-11.9222
水份	-11.9224
拖延	-11.9225
舉手	-11.9227
啲衫	-11.9229
股民	-11.9234
收窄	-11.9234
晦	-11.9234
城巴	-11.9234
古老	-11.9234
回想	-11.9235
精采	-11.9235
轟炸	-11.9237
買番	-11.9238
為何	-11.9238
Pass	-11.9238
不割蓆	-11.924
手持	-11.924
建築師	-11.9242
孖寶	-11.9242
無能	-11.9242
之道	-11.9243
pen	-11.9244
金色	-11.9244
相隔	-11.9248
頭暈	-11.9249
上歸	-11.925
須知	-11.9252
主因	-11.9253
紫荊	-11.9254
升勢	-11.9255
ura	-11.9256
明治	-11.9257
長短	-11.9257
吶喊	-11.9257
二萬	-11.9259
llen	-11.9261
步行	-11.9264
俄文	-11.9265
講説話	-11.9265
黑幫	-11.9266
姓氏	-11.9266
忠誠	-11.9267
nia	-11.9268
太細	-11.9269
Baby	-11.9271
牛頓	-11.9272
本錢	-11.9272
滬	-11.9272
喺尖沙嘴	-11.9277
tier	-11.9278
主隊	-11.9278
即可	-11.928
呵呵	-11.928
最易	-11.9281
証明	-11.9283
氣惱	-11.9283
監視	-11.9283
遲疑	-11.9284
探訪	-11.9287
祖雲達斯	-11.9288
檸	-11.9288
搭的士	-11.9288
舊錢	-11.929
Envi	-11.929
原產	-11.929
飯局	-11.9291
藩	-11.9291
不知幾	-11.9294
raft	-11.9295
近來	-11.9296
哺乳動物	-11.9299
民進黨	-11.9299
19.	-11.93
屙尿	-11.93
罰球	-11.93
法則	-11.9301
流亡	-11.9301
出處或冇	-11.9303
上庭	-11.9305
交投	-11.9308
有冇巴打	-11.9308
分拆	-11.9309
羹	-11.931
提前	-11.9312
肚腩	-11.9313
本欄逢週	-11.9314
佛地魔	-11.9314
日韓	-11.9318
dum	-11.9319
忽視	-11.9319
両	-11.9322
杉	-11.9322
薰	-11.9322
出爐	-11.9324
垣	-11.9326
蹄	-11.9326
降班	-11.9326
男藝人	-11.9327
izza	-11.9328
借貸	-11.9328
譯名	-11.9329
瘤	-11.9329
演化	-11.9331
匈牙利	-11.9333
新興	-11.9333
無可否認	-11.9333
cell	-11.9334
EO	-11.9334
陣線	-11.9335
啟發	-11.9337
匡	-11.9337
$500	-11.9339
在此	-11.9339
又話要	-11.9339
名宿	-11.934
供應商	-11.934
萱	-11.9341
劇場	-11.9341
彌敦道	-11.9345
RC	-11.9346
UG	-11.9346
界線	-11.9348
長達	-11.9348
豈	-11.9349
招式	-11.9351
劇組	-11.9351
Ni	-11.9353
阿嬌	-11.9354
解除	-11.9356
<<	-11.9356
驅逐	-11.9358
拖手	-11.9358
ivil	-11.9361
熔	-11.9364
居多	-11.9365
粉紅	-11.9368
有咩嘢	-11.9368
封殺	-11.9368
焦慮	-11.9369
1953	-11.9374
Vict	-11.9374
躉	-11.9375
魔王	-11.9376
視角	-11.9379
老撾	-11.9379
斬咗	-11.9381
平手	-11.9381
rb	-11.9382
永不	-11.9382
撚狗	-11.9384
車門	-11.9384
冰島	-11.9385
櫻花	-11.9386
差館	-11.9387
中亞	-11.9387
中式	-11.9387
傢夥	-11.9388
報答	-11.9389
少見	-11.939
震驚	-11.9391
南美洲	-11.9391
前夕	-11.9392
最慘	-11.9392
水泡	-11.9393
王家	-11.9393
亞運	-11.9393
裝住	-11.9394
佔地	-11.9394
erna	-11.9402
審判	-11.9405
支槍	-11.9406
mis	-11.9406
病徵	-11.9408
得啱	-11.9409
白金	-11.9411
季初	-11.9415
質數	-11.9417
幹擾	-11.9419
搞埋	-11.9421
海底	-11.9421
旁白	-11.9422
相傳	-11.9423
Prin	-11.9425
放寬	-11.9425
傾下計	-11.9428
面子	-11.9428
羚	-11.9429
調味	-11.943
和解	-11.9431
阿嫲	-11.9431
內陸	-11.9432
Jer	-11.9433
各有各	-11.9433
裏奧	-11.9434
掛牌	-11.9434
主帥	-11.9437
飆	-11.9437
監禁	-11.9437
最憎	-11.9441
各位巴絲	-11.9442
擁腰	-11.9442
70%	-11.9442
rant	-11.9442
建國	-11.9443
NC	-11.9444
共享	-11.9445
xxxx	-11.9445
出發去	-11.9445
十倍	-11.9447
莓	-11.9449
快啲啦	-11.9449
服從	-11.945
夠喇	-11.945
吳用	-11.9451
har	-11.9452
粒粒	-11.9452
犯人	-11.9453
真空	-11.9454
速遞	-11.9456
塞住	-11.9457
mix	-11.9458
外援	-11.9458
指向	-11.9458
百分之	-11.946
RB	-11.9461
想同佢	-11.9462
ield	-11.9462
food	-11.9464
布魯	-11.9465
(2)	-11.9466
Comp	-11.9468
嗰刻	-11.9468
犯咗	-11.9468
禿	-11.9468
roun	-11.9469
卿姐	-11.947
淪	-11.9471
fr	-11.9473
七八	-11.9473
Vo	-11.9474
elay	-11.9474
變咗做	-11.9475
喊住	-11.9475
rect	-11.9476
stud	-11.9481
社長	-11.9481
果間	-11.9481
牧師	-11.9481
mind	-11.9483
0:30	-11.9485
享有	-11.9494
9000	-11.9495
護級	-11.9495
嗰便	-11.9495
搖搖	-11.9497
都得啦	-11.9497
閏年	-11.9498
出血	-11.9499
馳	-11.9499
運費	-11.9502
冇資格	-11.9503
塑	-11.9504
支筆	-11.9504
謠	-11.9506
全數	-11.9506
個堆	-11.9507
頂唔住	-11.9507
佣金	-11.9508
春天	-11.9508
曰	-11.9511
料理	-11.9511
蘿蔔	-11.9515
碎片	-11.9516
勸佢	-11.9517
厲	-11.9517
嚱	-11.9518
鑿	-11.9518
左翼	-11.952
斯里蘭卡	-11.9522
Rose	-11.9526
wood	-11.9526
旱	-11.9526
immy	-11.9528
嗰班人	-11.9529
當代	-11.9529
好乖	-11.9529
囂	-11.953
OC	-11.9532
兵力	-11.9532
円	-11.9534
lol	-11.9537
啵	-11.9538
杜汶澤	-11.9538
洗錢	-11.9539
接替	-11.9539
擺低	-11.9541
政總	-11.9542
$80	-11.9544
List	-11.9544
龍蝦	-11.9545
石器	-11.9547
一頁	-11.9548
童話	-11.9549
1941	-11.955
姣	-11.955
質地	-11.9552
撐警	-11.9552
功力	-11.9554
雜物	-11.9555
AE	-11.9558
吹雞	-11.956
還錢	-11.956
獵物	-11.956
牛仔褲	-11.9562
我都唔想	-11.9564
舞蹈員	-11.9565
出黎做野	-11.9567
bet	-11.9567
危害	-11.9569
盼	-11.9569
祠	-11.9572
社民連	-11.9573
混血	-11.9573
狗衝	-11.9574
輪價	-11.9575
呢單野	-11.9575
拆開	-11.9575
each	-11.9576
斐	-11.9577
七成	-11.9578
搶走	-11.9579
腥	-11.9579
拉票	-11.958
懼	-11.9581
偵探	-11.9581
近況	-11.9585
bri	-11.9586
越高	-11.9588
未至於	-11.9589
神經細胞	-11.9591
配角	-11.9592
走甩	-11.9594
麼	-11.9597
民選	-11.9598
公事	-11.9602
昏迷	-11.9602
唔願	-11.9603
步兵	-11.9603
腐敗	-11.9606
孝順	-11.9607
kol	-11.9611
西元前	-11.9613
紀錄片	-11.9614
─	-11.9616
收回	-11.9621
支票	-11.9622
更衣室	-11.9624
伐	-11.9625
副本	-11.9625
Key	-11.9626
VPN	-11.9629
揾到錢	-11.9631
哈利波特	-11.9632
姊	-11.9632
江山	-11.9632
登上	-11.9633
深深	-11.9633
盃決賽	-11.9633
Bi	-11.9634
左陣	-11.9635
宮女	-11.9635
播映	-11.9637
RY	-11.9639
車費	-11.9639
深藍	-11.964
指點迷津	-11.964
教科書	-11.964
屌緊	-11.9642
聯賽冠軍	-11.9642
立刻	-11.9645
企鵝	-11.9648
中秋	-11.965
(1)	-11.9651
食客	-11.9652
▁was	-11.9654
日式	-11.9656
一臉	-11.9657
香水	-11.9661
折扣	-11.9661
十次	-11.9662
盲撐	-11.9663
alt	-11.9664
師弟	-11.9665
騎劫	-11.9666
大將軍	-11.9667
llar	-11.9668
慣咗	-11.9668
唔洗理	-11.967
霸權	-11.9671
（005	-11.9672
高温	-11.9673
號逢	-11.9673
廿世紀	-11.9675
行駛	-11.9676
迅	-11.9676
jer	-11.9678
ola	-11.9679
東歐	-11.968
鋪排	-11.9681
外匯	-11.9682
雞翼	-11.9683
唔知做乜	-11.9683
出賽	-11.9689
孫中山	-11.9689
天鵝	-11.9691
討伐	-11.9691
施工	-11.9693
撬	-11.9695
𥄫	-11.9696
UI	-11.9696
Bob	-11.9697
cafe	-11.9698
嵌	-11.9703
恐襲	-11.9704
書展	-11.9704
行使	-11.9704
訓教	-11.9708
甄子丹	-11.9711
派人去	-11.9713
成撚日	-11.9715
死刑	-11.9717
聯合聲明	-11.9718
ston	-11.9719
持久	-11.9721
球賽	-11.9722
不便	-11.9725
總決賽	-11.9727
不得不	-11.9727
開鑼	-11.9728
鄧小平	-11.9731
lash	-11.9731
呢啲事	-11.9732
書面語	-11.9733
衰退	-11.9734
被殺	-11.9734
bili	-11.9735
咩色	-11.9736
writ	-11.9736
交租	-11.9739
嘉年華	-11.9739
衝出黎	-11.974
緣份	-11.9743
擺喺度	-11.9746
過濾	-11.9746
穆斯林	-11.9747
Shop	-11.9747
放盤	-11.9749
絕種	-11.9749
敏妮	-11.975
詭	-11.9752
都唔差	-11.9752
爆煲	-11.9753
盪	-11.9753
荔枝	-11.9754
Boy	-11.9754
跌市	-11.9757
麻醉	-11.9757
PU	-11.9759
自治區	-11.9761
怨婦	-11.9762
僻	-11.9763
樞	-11.9767
緬	-11.9767
yl	-11.9768
住客	-11.977
安達	-11.977
艱	-11.9771
謝霆鋒	-11.9771
所知	-11.9772
Mart	-11.9773
法輪功	-11.9773
送貨	-11.9773
教導	-11.9774
進取	-11.9774
Jean	-11.9774
事隔	-11.9779
舅父	-11.9785
lip	-11.9785
制止	-11.9786
GP	-11.9787
把劍	-11.9789
隨著	-11.979
鞍	-11.9791
公職	-11.9792
領軍	-11.9795
３	-11.9795
幫幫手	-11.9797
毫不	-11.9799
傳承	-11.9802
冷靜啲	-11.9807
炫	-11.9807
光線	-11.9808
號舉行	-11.9808
叮噹	-11.981
的士司機	-11.9811
淺藍	-11.9812
公告	-11.9813
身心	-11.9813
鍾情	-11.9813
孫文	-11.9814
光圈	-11.9814
考古	-11.9815
seed	-11.9817
農夫	-11.9817
體現	-11.9819
間隔	-11.982
幾件	-11.982
奎	-11.9823
span	-11.9825
棵	-11.9827
外判	-11.9829
長命	-11.983
問卷	-11.9831
評審	-11.9831
土瓜灣	-11.9831
math	-11.9831
PK	-11.9834
---	-11.9834
Wat	-11.9838
離職	-11.9838
汀	-11.9843
保健	-11.9844
ipad	-11.9844
倒退	-11.9844
出產	-11.9848
十零	-11.9849
恩愛	-11.985
友情	-11.9851
望望	-11.9859
咎	-11.9859
遺址	-11.986
地板	-11.9861
oria	-11.9864
岩石	-11.9866
兩步	-11.9866
loss	-11.9867
小精靈	-11.9868
聲母	-11.987
隋	-11.987
前身係	-11.987
hell	-11.9871
0.4	-11.9872
vest	-11.9872
反勝	-11.9874
外型	-11.9875
簾	-11.9875
一貫	-11.9876
約束	-11.9878
性價比	-11.9879
殘酷	-11.988
兄妹	-11.9881
兩倍	-11.9881
當正	-11.9882
棵樹	-11.9883
氣壓	-11.9883
：$1,	-11.9887
擴建	-11.9888
欠缺	-11.9889
收縮	-11.9889
town	-11.9889
wing	-11.989
坐埋	-11.9891
電線	-11.9894
暴政	-11.9895
汕	-11.9903
楷	-11.9903
影音	-11.9904
球手	-11.9904
cv	-11.9904
留言話	-11.9905
貼身	-11.9907
生殖	-11.9907
喘氣聲	-11.9907
應承咗	-11.9908
二十四	-11.9908
無助	-11.9909
公認	-11.9909
嗰啲嘢	-11.991
與否	-11.991
綴	-11.9912
狗咬	-11.9912
露天	-11.9912
低級	-11.9912
變得更	-11.9913
1951	-11.9913
復興	-11.9916
原裝	-11.9917
mg	-11.9918
場音效	-11.9919
rio	-11.992
師妹	-11.992
突擊	-11.9924
起兵	-11.9925
何君堯	-11.9928
知府	-11.9928
三世	-11.9928
鋼鐵	-11.9929
引伸	-11.993
親切	-11.9931
巿民	-11.9933
枯	-11.9936
lpha	-11.9939
臨走	-11.9939
地皮	-11.9941
curr	-11.9941
平方	-11.9942
brid	-11.9943
爾斯	-11.9943
迦	-11.9944
剖	-11.9944
正苦	-11.9945
opti	-11.9946
勉	-11.9948
爆曬	-11.9948
ope	-11.9952
煮食	-11.9952
雷斯	-11.9952
sist	-11.9953
較少	-11.9955
2025	-11.9956
exam	-11.9956
棒球	-11.9958
漏咗	-11.9959
對我嚟講	-11.996
克里	-11.9961
痕跡	-11.9962
安娜	-11.9962
北約	-11.9964
店主	-11.9964
黃牛	-11.9966
黃河	-11.9966
跌穿	-11.9966
Joe	-11.9967
離世	-11.9967
兩房	-11.9971
對沖	-11.9971
Tai	-11.9972
蛋黃	-11.9972
薦	-11.9972
正皮	-11.9974
開價	-11.9975
相連	-11.9976
橡膠	-11.9977
tack	-11.9979
又唔敢	-11.998
tele	-11.9981
周轉嘅	-11.9983
擴充	-11.9985
慳錢	-11.9986
擁抱	-11.9988
太古城	-11.9988
Gold	-11.9989
稟	-11.9991
招待	-11.9992
時尚	-11.9993
書面	-11.9993
平息	-11.9995
古巴	-11.9996
孩子	-11.9997
rong	-11.9998
中介	-11.9998
入股	-12
logo	-12.0001
鑲	-12.0001
敍利亞	-12.0001
贏馬	-12.0002
恃	-12.0005
題外話	-12.0005
貧窮	-12.0011
桃花	-12.0013
固體	-12.0013
膳	-12.0013
elop	-12.0014
繁體	-12.0014
引申指	-12.0018
罷課	-12.0021
交俾	-12.0022
火燭	-12.0022
向量	-12.0023
男團	-12.0025
掌聲	-12.0026
本田	-12.0027
韋斯鹹	-12.003
露營	-12.0031
骨頭	-12.0031
urve	-12.0033
一鋪	-12.0033
堅尼	-12.0033
氣息	-12.0034
慳返	-12.0036
Lond	-12.0038
晨早	-12.0038
國土	-12.0039
賽季	-12.004
好錫	-12.004
Mari	-12.004
應急囉	-12.0043
傍晚	-12.0044
探險	-12.0046
構造	-12.0046
克羅地亞	-12.0046
業餘	-12.0046
火花	-12.0047
爭奪	-12.0049
復活節	-12.0049
財物	-12.005
如常	-12.005
迎合	-12.005
爭氣	-12.0051
HKU	-12.0053
搶眼	-12.0053
巧合	-12.0053
住公屋	-12.0056
基斯坦奴	-12.0058
ICE	-12.0062
患上	-12.0062
樣樣都	-12.0064
公海	-12.0065
混淆	-12.0067
汽	-12.0074
聖公會	-12.0074
臟	-12.0075
以致	-12.0076
重現	-12.0076
向外	-12.0077
誤解	-12.0077
個幾月	-12.0079
冧巴	-12.0079
Kay	-12.008
旋律	-12.0084
急急腳	-12.0088
塑造	-12.0089
兩款	-12.0089
備戰	-12.0091
魏兵	-12.0093
hous	-12.0094
ques	-12.0095
anal	-12.0095
科研	-12.0095
旬	-12.0095
棘	-12.0095
叱吒	-12.0096
身價	-12.0096
gas	-12.0096
嫌棄	-12.0097
呢場波	-12.0098
往來	-12.0099
倪	-12.01
陳嘉	-12.0101
慕容	-12.0101
GPA	-12.0102
0.6	-12.0103
新市鎮	-12.0103
密密	-12.0105
心臟病	-12.0105
聞名	-12.0106
影子	-12.0106
clos	-12.0108
派錢	-12.011
筆直	-12.011
want	-12.011
茸	-12.0112
tage	-12.0112
空位	-12.0113
東岸	-12.0113
斑馬	-12.0113
馬克	-12.0115
刨	-12.0116
假日	-12.0117
獅子山	-12.0119
白衣尼	-12.012
常委	-12.012
cket	-12.0125
但至少	-12.0128
飯盒	-12.0128
維基同享	-12.0128
恤衫	-12.013
社交媒體	-12.013
果汁	-12.0131
提問	-12.0131
指南	-12.0132
停手	-12.0132
跟風	-12.0134
中藥	-12.0137
祐	-12.0137
菁	-12.0137
Pal	-12.0138
某件事	-12.014
票數	-12.0141
filt	-12.0142
淪為	-12.0142
Cr	-12.0143
手工	-12.0143
熱心	-12.0143
比唔上	-12.0144
aga	-12.0144
寂	-12.0145
直覺	-12.0146
給予	-12.0147
政協	-12.0147
勾結	-12.0149
個窿	-12.0149
初心	-12.0154
八百	-12.0156
三代	-12.016
揈	-12.0162
燉	-12.0162
楊志	-12.0162
安妮	-12.0162
天體	-12.0166
titl	-12.0166
容祖兒	-12.0166
安徽	-12.0168
向右	-12.0169
vice	-12.017
真人騷	-12.0175
童軍	-12.0177
隧	-12.0179
市政	-12.018
擺埋	-12.0181
spee	-12.0182
2,3	-12.0183
租樓	-12.0184
招數	-12.0184
Dani	-12.0184
赤柱	-12.0185
騎呢	-12.0186
疤	-12.0186
語系	-12.0189
血壓	-12.019
罪犯	-12.0195
pair	-12.0198
張郃	-12.0199
年年有	-12.0199
起樓	-12.0199
穀草	-12.0201
掉轉	-12.0202
鴉片	-12.0205
tea	-12.0205
光榮	-12.0205
夏季	-12.0205
正能量	-12.0206
迷信	-12.021
命題	-12.0211
另計	-12.0211
用手機	-12.0212
之選	-12.0212
480	-12.0213
▁Mus	-12.0213
加薪	-12.0214
漢奸	-12.0214
睬	-12.0215
made	-12.0215
↓	-12.0216
拖累	-12.0221
憶	-12.0223
博弈	-12.0224
元首	-12.0226
具備	-12.0226
▁his	-12.0226
踢緊	-12.0228
萬銀	-12.0228
千幾蚊	-12.0229
公爵	-12.023
詳盡	-12.0232
鈍	-12.0232
咽	-12.0233
QQ	-12.0233
重播	-12.0235
有多媒體	-12.0236
ideo	-12.0238
去唔去	-12.0238
臘	-12.0238
國米	-12.0239
年年都	-12.0242
救火	-12.0245
席位	-12.0248
肉體	-12.0248
巡迴	-12.025
ents	-12.025
柴油	-12.0255
扶住	-12.0257
苟	-12.0258
tune	-12.0259
格鬥	-12.026
控方	-12.0261
南美	-12.0262
共和	-12.0264
少林	-12.0264
傷勢	-12.0265
唐英年	-12.0266
洋葱	-12.0267
黑麪	-12.0268
七十	-12.0269
賺到盡	-12.0273
好多野都	-12.0275
菲林	-12.0277
口氣	-12.0279
蝙蝠	-12.0287
首領	-12.0287
低於	-12.0288
慳番	-12.0288
喺台上	-12.0289
胃口	-12.0293
scan	-12.0294
適用於	-12.0294
旅館	-12.0294
上岸	-12.0296
投放	-12.0298
婷婷	-12.03
ssd	-12.0301
表揚	-12.0303
美式	-12.0303
奧巴馬	-12.0304
吉隆坡	-12.0304
貶值	-12.0305
一鑊	-12.0306
enny	-12.0306
快快	-12.0308
機密	-12.0311
餓死	-12.0312
熱帶氣旋	-12.0312
鏢	-12.0312
簽訂	-12.0313
小股東	-12.0317
魯肅	-12.0317
分化撚	-12.0317
撐住	-12.0318
多元化	-12.032
激到	-12.0321
至尊	-12.0321
60%	-12.0321
公開賽	-12.0321
難受	-12.0322
殺曬	-12.0326
雞肉	-12.033
不宜	-12.0331
馨	-12.0333
培育	-12.0334
生育	-12.0336
rum	-12.034
市道	-12.0345
之父	-12.0347
path	-12.0347
競賽	-12.0347
利蘭	-12.0348
ffic	-12.035
邑	-12.035
白雪	-12.0351
WW	-12.0352
佈局	-12.0354
朕	-12.0354
Plus	-12.0355
them	-12.0357
豬扒	-12.0358
黛	-12.0359
強隊	-12.0361
收番	-12.0362
誼	-12.0363
右翼	-12.0364
千金	-12.0366
一枝	-12.0366
正統	-12.0367
售賣	-12.0367
憧憬	-12.0367
人血饅頭	-12.0367
ated	-12.037
攞番	-12.0372
1937	-12.0372
撈埋	-12.0373
行人路	-12.0373
盟友	-12.0374
休息下	-12.0375
蘇丹	-12.0376
獎品	-12.0378
㗎啫	-12.0379
孽	-12.038
Poly	-12.0384
JJ	-12.0384
dic	-12.0384
租約	-12.0385
天花板	-12.0386
安定	-12.0387
金句	-12.0387
半季	-12.0387
飯碗	-12.0387
適用	-12.0388
孟加拉	-12.0388
浚	-12.0388
girl	-12.039
hku	-12.0391
石屎	-12.0391
校舍	-12.0392
hack	-12.0395
普世	-12.0395
Lau	-12.0396
招聘	-12.0397
港版國安	-12.0401
韞	-12.0401
三藩市	-12.0401
燒烤	-12.0404
修復	-12.0405
朴	-12.0405
王晶	-12.0406
儘管	-12.0406
勇武派	-12.0408
abil	-12.0408
乞人憎	-12.041
充分	-12.0411
㗎噃	-12.0412
愛德華	-12.0414
MON	-12.0416
噪音	-12.0416
絕不	-12.0416
往日	-12.0416
房門	-12.0419
cul	-12.0424
Com	-12.0424
糾紛	-12.0427
發酵	-12.0428
～～	-12.0431
散步	-12.0431
彩色	-12.0432
拎出黎	-12.0434
蝠	-12.0435
砍	-12.0435
（；）	-12.0435
如意	-12.0436
短裙	-12.0436
有好感	-12.0437
本週	-12.0438
贖	-12.0439
衍	-12.0439
驅動	-12.0439
允許	-12.0441
繁榮	-12.0442
果刻	-12.0442
表格	-12.0443
依照	-12.0443
倪匡	-12.0444
Mary	-12.0447
變得好	-12.0447
儒家	-12.0448
觀賞	-12.0448
珮	-12.0448
瑜伽	-12.0448
蝕錢	-12.0449
Beyo	-12.0449
？？？	-12.0451
大馬路	-12.0452
逝	-12.0453
ML	-12.0456
雙重	-12.0456
簡化字	-12.0458
熄咗	-12.046
相繼	-12.0461
克勤	-12.0464
卓韻芝	-12.0465
照舊	-12.0466
餐飲	-12.0469
擺落	-12.047
LAN	-12.047
ited	-12.047
閩	-12.0471
多蒙特	-12.0474
斯拉夫	-12.0474
房車	-12.0475
巴斯	-12.0478
渾	-12.0478
歌劇	-12.048
攞埋	-12.0484
公審	-12.0484
rown	-12.0488
睇唔睇	-12.0489
Hz	-12.049
債務	-12.0491
Hot	-12.0491
洗手間	-12.0493
Stev	-12.0493
趁機	-12.0494
道德高地	-12.0495
分組	-12.0497
OM	-12.0497
有得睇	-12.0498
嗰件	-12.0498
衣著	-12.0498
阿澤	-12.05
諗一諗	-12.0501
理科	-12.0505
耐左	-12.051
電容器	-12.051
元旦	-12.0511
喔	-12.0513
醒起	-12.0516
ties	-12.0516
閻	-12.0517
壓住	-12.0517
偷換	-12.0517
DAY	-12.0518
堅決	-12.0519
喼	-12.0521
乞食	-12.0521
ABC	-12.0526
上仗	-12.0527
零舍	-12.0528
lum	-12.0529
幾倍	-12.0529
Sub	-12.0529
解像度	-12.053
遠東	-12.053
bloc	-12.053
''	-12.0531
轉乘	-12.0533
無窮	-12.0534
公頃	-12.0534
男神	-12.0537
...『	-12.0537
得慢	-12.0537
deep	-12.0538
羅馬尼亞	-12.0539
得咁快	-12.054
醒覺	-12.054
視察	-12.0541
孃	-12.0543
肉眼	-12.0546
路段	-12.0546
伊巴	-12.0547
缺陷	-12.0548
港督	-12.0549
rnal	-12.055
丹尼士	-12.0551
抄襲	-12.0553
僱員	-12.0553
塊地	-12.0554
醫藥	-12.0554
hurt	-12.0554
Tony	-12.0557
年起好	-12.0563
sum	-12.0564
ixel	-12.0564
成交價	-12.0564
魏國	-12.0566
納入	-12.0567
ammi	-12.0567
乏	-12.0568
機師	-12.0572
改動	-12.0573
駱	-12.0573
荷里活	-12.0573
牛仔	-12.0574
may	-12.0574
陳豪	-12.0577
危急	-12.0578
富增值就	-12.0579
衞生署	-12.058
夏侯	-12.0582
自古	-12.0583
醇	-12.0586
弟弟	-12.0587
捨得	-12.0587
fix	-12.0588
各有各做	-12.0589
千其	-12.059
張學友	-12.059
原料	-12.059
硬碟	-12.0591
沉重	-12.0592
齊全	-12.0595
漫畫家	-12.0596
法甲	-12.0597
接管	-12.0598
女巫	-12.0601
曲奇	-12.0601
押後	-12.0601
最慘係	-12.0602
衣物	-12.0604
1938	-12.0605
Bri	-12.0606
para	-12.0607
司馬昭	-12.0608
半價	-12.0608
衰嘢	-12.0609
蘇州	-12.0609
eh	-12.061
氣球	-12.0612
搞鳩	-12.0613
航線	-12.0614
起上黎	-12.0615
晃	-12.0616
僵	-12.0616
表妹	-12.0617
賓客	-12.0618
拉攏	-12.0618
近似	-12.0618
唔似得	-12.0619
套餐	-12.0619
EU	-12.0621
約滿	-12.0621
綵排	-12.0622
射門	-12.0623
5-6	-12.0623
sens	-12.0626
冷血	-12.0626
Bur	-12.0626
光緒	-12.0626
限期	-12.0626
幕前	-12.0628
東海	-12.0629
野豬	-12.0631
畀理據	-12.0631
ancy	-12.0635
練馬師	-12.0638
厄	-12.0638
鬼妹	-12.064
secu	-12.0641
情歌	-12.0641
無人理	-12.0643
烤	-12.0643
陰道	-12.0644
張凳	-12.0645
唔洗再	-12.0646
塞爾維亞	-12.0646
1:30	-12.0649
華裔	-12.0651
270	-12.0652
死守	-12.0652
NAV	-12.0653
sty	-12.0653
祖宗	-12.0656
直指	-12.0657
嗰堆	-12.0658
考察	-12.0658
Audi	-12.066
User	-12.0661
白宮	-12.0663
諧	-12.0663
tock	-12.0663
唱功	-12.0663
踢法	-12.0665
概率	-12.0667
真心想	-12.067
魷魚	-12.0671
官兵	-12.0672
禰豆子	-12.0673
睡眠	-12.0677
呻吟	-12.0678
還返	-12.0678
叉電	-12.0679
黃忠	-12.068
劉禪	-12.068
婚後	-12.0684
定理	-12.0684
通通	-12.0685
Sign	-12.0686
祇	-12.0686
靚相	-12.0687
對此	-12.0687
▁has	-12.069
夥伴	-12.0691
滿面	-12.0693
一睇就知	-12.0693
＂	-12.0695
琛	-12.0695
sume	-12.0698
撞擊	-12.0699
小時前	-12.0701
快感	-12.0704
羽毛	-12.0704
豁免	-12.0705
相公	-12.0706
$300	-12.0706
Act	-12.0707
變壓器	-12.0708
交配	-12.0711
碰撞	-12.0711
Pen	-12.0716
原作	-12.0717
蛾	-12.0721
jam	-12.0723
駐港	-12.0724
MJ	-12.0725
雅典	-12.0726
各方	-12.0729
專區	-12.0731
遙控	-12.0731
0.8	-12.0731
志願	-12.0733
巡邏	-12.0734
媾	-12.0734
埋怨	-12.0735
話比我聽	-12.0737
樺	-12.0742
外貌	-12.0743
loan	-12.0745
俾我睇	-12.0746
追捧	-12.0746
瀝	-12.0747
警車	-12.0748
留名	-12.075
總管	-12.0753
Nik	-12.0753
avi	-12.0754
息率	-12.0754
落選	-12.0755
很多	-12.0756
乞衣	-12.0758
伊利沙伯	-12.076
任意	-12.0761
露台	-12.0762
底盤	-12.0764
殘忍	-12.0768
driv	-12.0769
陳述	-12.0772
訓醒	-12.0773
跛	-12.0774
猿	-12.0774
暗殺	-12.0775
Law	-12.0776
走左去	-12.0777
唔算太	-12.0777
酥	-12.0778
灶	-12.0778
ihkg	-12.0778
希臘文	-12.0779
言行	-12.0782
護膚品	-12.0784
巴哈	-12.0788
獨立思考	-12.0789
車系	-12.0791
Full	-12.0792
視像	-12.0792
二期	-12.0795
占卜	-12.0796
私有化	-12.0796
不得了	-12.0796
HDMI	-12.0797
hur	-12.0797
警務處	-12.0797
kit	-12.0798
光譜	-12.0799
amaz	-12.0799
頤	-12.08
都係個句	-12.0802
考牌	-12.0802
瓏	-12.0805
工種	-12.0807
留喺度	-12.0808
打邊爐	-12.0809
咩嘢事	-12.081
CON	-12.0811
stay	-12.0812
增至	-12.0812
組別	-12.0812
每秒	-12.0814
睇淡	-12.0816
cryp	-12.0818
沙巴	-12.0819
實業	-12.082
Leon	-12.0822
icle	-12.0824
總括	-12.0829
懲教	-12.083
舐	-12.0832
事緣	-12.0834
郵政	-12.0835
不俗	-12.0837
一笪	-12.0838
體操	-12.0839
阿倫	-12.0839
沿用	-12.084
ury	-12.0842
廿歲	-12.0843
臨牀	-12.0846
臨尾	-12.0848
確立	-12.0849
kong	-12.0851
神户	-12.0851
電費	-12.0852
平凡	-12.0852
冀	-12.0853
太公	-12.0855
二哥	-12.0855
升降機	-12.0856
金幣	-12.0857
高普	-12.0857
除外	-12.0858
致敬	-12.086
眼訓	-12.0861
咗咁多年	-12.0861
Whit	-12.0863
好中意	-12.0863
境界	-12.0864
盡情	-12.0864
腸胃	-12.0864
休閒	-12.0865
5.5	-12.0867
手腕	-12.0869
死亡率	-12.087
藝名	-12.087
越秀區	-12.0871
合稱	-12.0872
精品	-12.0875
治理	-12.0876
執教	-12.0878
莫非	-12.088
meet	-12.0881
史上最	-12.0882
bull	-12.0883
構思	-12.0885
ーー	-12.0886
輸蝕	-12.0887
餘下	-12.0889
駿駿	-12.089
認罪	-12.0891
提防	-12.0892
班球員	-12.0892
劇團	-12.0893
探測	-12.0893
凍結	-12.0894
粒星	-12.0896
各項	-12.0898
期貨	-12.0898
task	-12.09
阿龔	-12.0901
昕	-12.0903
Tim	-12.0904
唔符合	-12.0905
嗰樣嘢	-12.0906
本質上	-12.0906
產量	-12.0906
件貨	-12.0906
排斥	-12.0907
質問	-12.0909
期權	-12.0909
些	-12.0912
新鴻基	-12.0912
賽果	-12.0913
待續	-12.0914
未算	-12.0914
悉尼	-12.0917
眠	-12.0919
于	-12.092
掩飾	-12.0922
LIST	-12.0922
批發	-12.0924
1936	-12.0928
殿下	-12.093
Case	-12.093
Swit	-12.0931
永恆	-12.0933
交收	-12.0934
局部	-12.0934
鼓吹	-12.0937
諱	-12.0938
冇咁易	-12.0939
軀	-12.0939
千秋	-12.0939
iso	-12.0942
神社	-12.0943
尐	-12.0943
剩番	-12.0949
priv	-12.095
姐妹	-12.095
行禮	-12.0951
停牌	-12.0951
凡事	-12.0952
膨脹	-12.0952
計策	-12.0956
足動世盃	-12.0956
眾議院	-12.0956
Fan	-12.0958
濃度	-12.0959
蟬	-12.0961
嗡	-12.0962
how	-12.0964
洗衣機	-12.0965
默契	-12.0966
掀起	-12.0967
進口	-12.0969
Port	-12.097
矽	-12.097
Tech	-12.0972
athy	-12.0973
▁spe	-12.0974
克斯	-12.0974
四叔	-12.0974
選美	-12.0974
台慶	-12.0976
藍田	-12.0976
伸出	-12.0977
呼聲	-12.0978
膚	-12.0978
要學識	-12.098
驚唔驚	-12.0982
票價	-12.0983
航空母艦	-12.0983
NY	-12.0984
魁	-12.0986
裴	-12.0988
出到嚟	-12.0988
藴	-12.0988
庇	-12.0988
普羅	-12.0989
多媒體	-12.099
力聲	-12.0991
nie	-12.0991
不敵	-12.0992
歌舞	-12.0992
0.7	-12.0994
漢朝	-12.0997
弄	-12.0997
外掛	-12.0997
lim	-12.1004
玄機解馬	-12.1006
狀元	-12.1009
老人院	-12.101
鱗	-12.1011
曾志偉	-12.1013
地質	-12.1014
猶太	-12.1014
利奧	-12.1015
注入	-12.1018
精通	-12.1019
Long	-12.102
虞	-12.102
九廣鐵路	-12.102
奇妙	-12.1022
瓷	-12.1024
有無諗過	-12.1026
溢	-12.1026
車款	-12.1027
豈有此理	-12.1029
SW	-12.1029
風光	-12.103
MSI	-12.1031
甚少	-12.1032
博彩	-12.1032
覓	-12.1033
凝聚	-12.1035
輸錢	-12.1035
油塘	-12.1037
職場	-12.1037
唄	-12.1038
畔	-12.1038
倦	-12.1038
首飾	-12.1038
眼罩	-12.1038
兼顧	-12.1043
lou	-12.1044
Hel	-12.1046
祁	-12.1047
媚	-12.1047
乜柒都	-12.1049
天凡	-12.105
£	-12.1051
快門	-12.1052
擰頭	-12.1052
贊助商	-12.1053
hip	-12.1054
獵人	-12.1054
ourt	-12.1055
▁fri	-12.1055
車禍	-12.1055
獨自	-12.1056
銀仔	-12.1056
扭力	-12.1057
改建	-12.1059
軍團	-12.1059
Work	-12.1059
唐碧霞	-12.106
黑龍江	-12.106
古天樂	-12.106
宣稱	-12.1063
捱得	-12.1064
實物	-12.1065
啫嘛	-12.1066
吳應熊	-12.1069
陳淑莊	-12.1069
7.5	-12.1071
目擊	-12.1071
耳邊	-12.1071
外交部	-12.1072
罕	-12.1073
＊	-12.1074
韋香主	-12.1074
Fl	-12.1074
場聯賽	-12.1075
▁see	-12.1075
商討	-12.1075
果段	-12.1078
報價	-12.1078
蝨	-12.1079
388）	-12.1079
stry	-12.1082
前速	-12.1084
var	-12.1084
冇得揀	-12.1086
已故	-12.1088
會用到	-12.1089
末期	-12.109
Box	-12.1091
頑	-12.1092
枚	-12.1097
發火	-12.1099
陋	-12.1101
七百	-12.1103
gal	-12.1106
安東尼	-12.1106
村屋	-12.1107
▁far	-12.1109
fron	-12.111
ago	-12.111
萬歐元	-12.1113
rime	-12.1113
Clau	-12.1115
巨龍	-12.1115
屈服	-12.1117
分咗手	-12.1117
懶得	-12.1118
柑	-12.112
里昂	-12.1122
字體	-12.1122
虛偽	-12.1122
終結	-12.1125
央行	-12.1126
泥地	-12.1127
IVE	-12.1127
失效	-12.1129
港式	-12.1132
偷襲	-12.1132
護航	-12.1133
曦	-12.1133
諸侯	-12.1135
想喊	-12.1135
nat	-12.1141
指甲	-12.1142
魄	-12.1142
審批	-12.1144
𠝹	-12.1147
睇八字	-12.1147
小販	-12.1148
喳	-12.1152
▁簡歷	-12.1152
芒果	-12.1153
Yes	-12.1157
螺旋	-12.1158
可否	-12.1159
限於	-12.116
團長	-12.1162
被控	-12.1162
怯	-12.117
做乜嗰	-12.117
追星	-12.1172
排球	-12.1174
扶手電梯	-12.1175
多年來	-12.1176
證件	-12.1177
滘	-12.1179
遭到	-12.118
一家大細	-12.118
文藝	-12.1181
好肚餓	-12.1182
嗜	-12.1184
炸藥	-12.1184
且聽下回	-12.1188
真愛	-12.1188
白銀	-12.1189
報案	-12.119
書籍	-12.1192
𡃉喇	-12.1192
協定	-12.1194
Ste	-12.1194
番茄	-12.1198
壓制	-12.1198
報應	-12.1199
Er	-12.1201
▁檀紀	-12.1202
沽貨	-12.1202
齊心	-12.1203
Euro	-12.1206
矯	-12.1207
嵐嵐	-12.1207
岱	-12.1211
長髮	-12.1212
聽唔明	-12.1213
收穫	-12.1214
孤兒	-12.1214
開拓	-12.1216
試當真	-12.1216
samp	-12.1217
回贈	-12.1217
種植	-12.1218
喚	-12.1219
拉布	-12.1219
TM	-12.122
周杰倫	-12.1221
袁世凱	-12.1221
3.0	-12.1221
rid	-12.1222
放風	-12.1222
裁判官	-12.1223
條尾	-12.1225
芸	-12.1225
壓抑	-12.1228
偏見	-12.1229
Ram	-12.1229
作品一覽	-12.1229
惱	-12.123
1928	-12.1231
華僑	-12.1232
駕到	-12.1235
早知	-12.1235
爭拗	-12.1237
Cut	-12.1239
rim	-12.1242
唔撚知	-12.1243
桌球	-12.1244
德軍	-12.1244
掃貨	-12.1245
3:1	-12.1247
紡織	-12.1248
負債	-12.1249
Bio	-12.125
$50	-12.1251
包包	-12.1252
emy	-12.1257
廁紙	-12.1261
猩猩	-12.1262
位巴打	-12.1263
Back	-12.1265
巴勒斯坦	-12.1267
維爾	-12.1267
市面	-12.1268
hink	-12.1269
reme	-12.127
股息	-12.1274
脆弱	-12.1276
Cook	-12.1278
服役	-12.1279
網路	-12.128
冇啦啦	-12.1286
gh	-12.1286
招募	-12.1287
馴	-12.1289
冚家剷	-12.1295
捏	-12.1295
咬住	-12.1297
AY	-12.1297
九鐵	-12.1299
付款	-12.1299
訴訟	-12.13
功臣	-12.13
～』	-12.1302
擺到明	-12.1305
肚痛	-12.1305
縮短	-12.1306
樣貌	-12.1306
洗頭水	-12.1308
三文治	-12.1309
共存	-12.1312
工夫	-12.1314
果句	-12.1315
一首歌	-12.1315
入嚟報名	-12.1315
田徑	-12.1316
彌補	-12.1317
危疾	-12.1318
Chil	-12.1322
屋頂	-12.1324
扭計	-12.1324
可免費畀	-12.1327
計畫	-12.1327
墨爾本	-12.1327
賭波	-12.1328
角逐	-12.133
死忠	-12.1331
哈爾	-12.1332
Sch	-12.1332
毅進	-12.1335
脅	-12.1335
峰	-12.1337
信得過	-12.1338
威尼斯	-12.1338
一撚樣	-12.1338
蘆	-12.1341
拿破崙	-12.1341
惡搞	-12.1342
避忌	-12.1344
萬能	-12.1346
議事	-12.1347
俗語	-12.1348
露面	-12.135
$200	-12.1351
無差別	-12.1352
紳士	-12.1352
咗啲咩	-12.1353
逃生	-12.1354
文具	-12.1354
氯	-12.1355
翌日	-12.1357
采	-12.1359
湊仔	-12.1359
出到去	-12.136
pal	-12.136
剪片	-12.1361
脱歐	-12.1361
途經	-12.1362
同位素	-12.1365
ric	-12.1367
ette	-12.1367
橡	-12.1368
美女堪輿	-12.1369
蔣介石	-12.1369
線索	-12.1373
呱	-12.1374
噤	-12.1374
噬	-12.1374
諗諗下	-12.1375
承接	-12.1377
隻錶	-12.1378
送俾	-12.1379
互屌	-12.1382
MH	-12.1383
注目	-12.1384
豚	-12.1384
adv	-12.1385
綠燈	-12.1385
兩層	-12.1388
劍橋	-12.1388
煤氣	-12.1388
鮑魚	-12.1392
譚仔	-12.1393
爹爹	-12.1393
eath	-12.1396
不忘	-12.1396
秋天	-12.1397
壞處	-12.1397
拜神	-12.1397
吏	-12.1397
突圍	-12.1398
寫真集	-12.1399
$20	-12.14
勁歌金曲	-12.1402
總體	-12.1403
現存	-12.1403
葵芳	-12.1403
thr	-12.1403
壓縮	-12.1405
嗨	-12.1406
開展	-12.1406
猶太曆	-12.1407
磁場	-12.1408
盈盈	-12.1408
懷舊	-12.1409
八強	-12.1409
幫拖	-12.1411
應變	-12.1411
驚嘆聲	-12.1412
中秋節	-12.1414
望實	-12.1414
迪亞	-12.1414
千嬅	-12.1415
𡁵	-12.1416
閩南	-12.1419
ison	-12.142
she	-12.1424
著衫	-12.1425
覺悟	-12.1427
Viu	-12.1428
金庸	-12.1428
鉗	-12.1431
維拉	-12.1431
Bill	-12.1431
入坑	-12.1432
0.9	-12.1433
製品	-12.1434
med	-12.1434
瑋	-12.1435
渝	-12.1435
蹺	-12.1435
活潑	-12.1437
勳章	-12.1437
菲臘	-12.1437
含量	-12.1437
7-8	-12.1438
sil	-12.1442
網誌	-12.1443
處處	-12.1444
民政事務	-12.1445
合力	-12.1446
語族	-12.1451
世事	-12.1452
滄	-12.1454
編碼	-12.1455
企出黎	-12.1456
兩套	-12.1456
顯然	-12.1458
攝氏	-12.1458
股災	-12.1458
能否	-12.1462
任內	-12.1467
堂堂	-12.1467
出示	-12.1467
中央委員	-12.1469
院士	-12.147
豪仔	-12.147
氣質	-12.1475
禮儀	-12.1476
brea	-12.1478
和理	-12.1479
scar	-12.148
係兩回事	-12.1483
五蚊	-12.1485
tudy	-12.1485
喬治	-12.1486
發誓	-12.1487
希特拉	-12.1487
本放送中	-12.1492
支聯會	-12.1492
椎	-12.1492
梁天琦	-12.1492
唔洗諗	-12.1494
咗一輪	-12.1495
甲蟲	-12.1496
Ada	-12.1496
※	-12.1497
夜蒲	-12.1497
孔子	-12.1498
梳頭	-12.1504
救護員	-12.1504
起程	-12.1505
周穎	-12.1506
接壤	-12.1507
海盜	-12.1508
創建	-12.1509
東漢	-12.1511
巡迴演唱	-12.1512
控球	-12.1515
發佈會	-12.1517
我都好想	-12.1518
官府	-12.1521
衞冕	-12.1521
賺到錢	-12.1523
樓宇	-12.1525
抽插	-12.1527
轉介	-12.1527
斃	-12.153
鋤	-12.153
尚未	-12.1534
vir	-12.1534
BY	-12.1536
聖旨	-12.1537
GPU	-12.1539
女優	-12.1541
維他命	-12.1544
貶義	-12.1546
逆權	-12.1546
胞	-12.1548
鳩噏	-12.1548
unda	-12.1549
blue	-12.155
叫春	-12.1551
抵買	-12.1551
腦海	-12.1552
HDR	-12.1553
>>>>	-12.1553
廐	-12.1554
原住民	-12.1554
byte	-12.1554
無撚用	-12.1555
貴州	-12.1557
iutv	-12.1558
閹	-12.1559
xcel	-12.1562
送禮	-12.1563
鄧不利多	-12.1563
急速	-12.1564
flir	-12.1565
特技	-12.1565
漢堡包	-12.1567
忙於	-12.1568
南昌	-12.1568
moon	-12.1569
UE	-12.1569
剝奪	-12.157
睇得明	-12.157
軍閥	-12.157
阿董	-12.1571
激光	-12.1572
KK	-12.1572
禮賓府	-12.1573
招股	-12.1574
政壇	-12.1575
思路	-12.1575
木星	-12.1576
匯率	-12.1577
爆升	-12.1579
nson	-12.1579
謠言	-12.1579
八方聽聞	-12.1581
𠱁	-12.1583
結尾	-12.1583
物理治療	-12.1584
一棟	-12.1585
球衣	-12.1586
預設	-12.1587
劉表	-12.1588
尖東	-12.159
除夕	-12.159
稱之為	-12.1594
fire	-12.16
藻	-12.1602
步伐	-12.1604
牛扒	-12.1606
雷霆	-12.1607
保濕	-12.1607
出眾	-12.1611
Cool	-12.1613
140/	-12.1617
大屠殺	-12.1621
連累	-12.1621
施瑯	-12.1621
茶記	-12.1621
投機	-12.1623
搜索	-12.1624
煮嘢食	-12.1626
兩季	-12.1626
滋味	-12.1627
3:0	-12.1627
♪	-12.163
調返轉	-12.1631
往後	-12.1634
斯堡	-12.1635
最低工資	-12.1635
咚	-12.1635
內政	-12.1636
撕裂	-12.1636
馬迷	-12.1638
燈籠	-12.1638
桃園	-12.1639
hift	-12.1641
王室	-12.1641
名額	-12.1642
Tur	-12.1642
拋棄	-12.1643
Lv	-12.1643
誠哥	-12.1645
渴望	-12.1645
VIP	-12.1646
ante	-12.1647
熱誠	-12.1648
締	-12.165
何文田	-12.1655
岐	-12.1655
方針	-12.1655
點撚樣	-12.1661
正題	-12.1664
itor	-12.1665
喺邊處	-12.1666
真確	-12.1666
pers	-12.1667
保費	-12.1668
子宮	-12.1668
唔甘心	-12.167
懸掛	-12.1671
破解	-12.1672
hour	-12.1672
☆	-12.1674
JP	-12.1676
聾	-12.1679
濫捕	-12.168
0%	-12.168
嶼	-12.1681
阿姨	-12.1682
攜帶	-12.1682
明唔明	-12.1685
領事	-12.1686
篇野	-12.169
小粉紅	-12.1692
灰心	-12.1693
丶	-12.1693
6.5	-12.1694
以示	-12.1696
okay	-12.1698
油尖旺	-12.1698
電量	-12.1701
內涵	-12.1703
別墅	-12.1703
戟	-12.1703
凜	-12.1703
轉播	-12.1703
Bay	-12.1704
olor	-12.1705
聲譽	-12.1707
賤格	-12.1707
誦	-12.1708
Yan	-12.1709
高階	-12.171
宋朝	-12.1712
Kim	-12.1714
Best	-12.1716
IQ	-12.1725
雨革	-12.1725
酶	-12.1727
平西王	-12.1728
1918	-12.1728
阿蘇	-12.1729
延期	-12.1737
審訊	-12.1737
盤數	-12.174
唐樓	-12.174
容器	-12.1741
shit	-12.1741
氨	-12.1742
徐州	-12.1744
廣傳	-12.1746
黨內	-12.1748
demo	-12.1751
菩薩	-12.1751
賦	-12.1755
壘	-12.1756
羅湖	-12.1757
迴流	-12.1759
獎學金	-12.1763
渡過	-12.1763
伯母	-12.1763
1942	-12.1764
金毛	-12.1766
欺騙	-12.1766
Life	-12.1767
指揮官	-12.1767
自律	-12.1768
祝賀	-12.1768
總書記	-12.1769
伯特	-12.177
MAN	-12.177
九唔搭八	-12.1771
九州	-12.1771
淨返	-12.1773
戇	-12.1773
都咪話唔	-12.1773
綵	-12.1774
Happ	-12.1778
袁術	-12.1779
Kenn	-12.1782
便衣	-12.1785
祺	-12.1786
參演	-12.1787
心願	-12.1788
郵輪	-12.1788
世紀初	-12.1797
失眠	-12.1797
mass	-12.1802
攤位	-12.1802
Lenn	-12.1802
吳國	-12.1804
斯頓	-12.1805
儂	-12.1805
骰	-12.1812
附加	-12.1814
〇	-12.1815
End	-12.1815
火鍋	-12.1815
Look	-12.1816
北美洲	-12.1819
特意	-12.1819
鰭	-12.182
陳國邦	-12.182
強積金	-12.182
極低	-12.182
奪冠	-12.182
蓬	-12.1825
嚴謹	-12.1825
歸納	-12.1826
醣	-12.183
高尚	-12.1831
bout	-12.1835
捕捉	-12.1837
瑾	-12.1839
閑	-12.1839
#74	-12.184
出境	-12.1841
聯手	-12.1847
出沒	-12.1849
薪金	-12.185
星火	-12.1851
銀色	-12.1852
陳志	-12.1853
Any	-12.1854
稻草人	-12.1854
GiGi	-12.1855
乞兒	-12.1857
少爺	-12.1857
臨近	-12.1857
沉迷	-12.1862
瀾	-12.1879
憐	-12.1884
氈	-12.1894
摑	-12.1894
禎	-12.1908
伽	-12.1938
涵	-12.1958
飢	-12.1963
痰	-12.1973
唏	-12.1983
²	-12.1993
薈	-12.1993
輛	-12.1994
肛	-12.2008
鏝	-12.2023
哉	-12.2023
募	-12.2027
韶	-12.2033
剎	-12.2061
芥	-12.2063
楠	-12.2078
曠	-12.2108
滔	-12.2118
鎗	-12.2118
癢	-12.2123
窟	-12.2154
屑	-12.2194
妾	-12.2199
儉	-12.222
喵	-12.222
燊	-12.2225
弧	-12.2235
噁	-12.225
蕃	-12.2255
竅	-12.2256
廈	-12.2263
吔	-12.2281
崖	-12.2296
莽	-12.2302
濛	-12.2312
隙	-12.2312
畸	-12.2317
荊	-12.232
俐	-12.2333
舔	-12.2333
錐	-12.2348
妄	-12.2379
咧	-12.2389
寮	-12.24
渦	-12.2421
耿	-12.2426
殯	-12.2442
豔	-12.2447
桔	-12.2468
鉅	-12.2483
酮	-12.2489
蕊	-12.2499
擸	-12.2499
煌	-12.2514
蠍	-12.2525
誡	-12.2546
倡	-12.2576
猷	-12.2594
瑛	-12.2594
愷	-12.2599
鍍	-12.2604
驕	-12.262
庚	-12.2626
囑	-12.2636
綢	-12.2636
昅	-12.2658
蠶	-12.2658
ü	-12.2668
鈣	-12.269
鯉	-12.2695
顆	-12.2706
乍	-12.2722
械	-12.276
俏	-12.277
驢	-12.2786
雁	-12.2792
翰	-12.2794
絨	-12.2802
腍	-12.2803
晾	-12.2841
棕	-12.2841
嘍	-12.2846
錘	-12.2846
ö	-12.2873
嗣	-12.2879
凶	-12.2922
霎	-12.2928
庶	-12.2944
砵	-12.295
鑒	-12.2961
í	-12.2972
沸	-12.2972
寅	-12.2977
拂	-12.2983
淆	-12.3024
誅	-12.3032
奀	-12.3038
烘	-12.3049
徂	-12.3071
措	-12.3076
峻	-12.3076
兀	-12.3082
埗	-12.3099
毯	-12.3104
撮	-12.3116
尷	-12.3116
滕	-12.3144
倆	-12.3155
駅	-12.316
悼	-12.3171
茹	-12.3172
憾	-12.3182
丞	-12.3196
侖	-12.3211
眷	-12.3211
顎	-12.3217
ó	-12.3239
隸	-12.3243
抆	-12.325
瑣	-12.3273
姪	-12.3279
攣	-12.3301
瞄	-12.3329
亁	-12.333
焯	-12.3353
𠵱	-12.3357
雋	-12.3364
﹕	-12.3387
舅	-12.339
掕	-12.3421
泣	-12.3422
緝	-12.3436
栢	-12.3438
烽	-12.3445
楂	-12.3466
懲	-12.3487
咇	-12.3503
范	-12.3514
瘟	-12.3544
俞	-12.3555
析	-12.3578
胚	-12.3584
墳	-12.3601
篷	-12.3607
詢	-12.3623
聶	-12.3625
苞	-12.3631
唓	-12.3637
玻	-12.3642
盅	-12.3643
柬	-12.366
坳	-12.3672
珈	-12.3678
ā	-12.3684
剿	-12.3684
慨	-12.3693
棗	-12.3701
紳	-12.3706
菓	-12.3707
糾	-12.3708
氮	-12.3713
挪	-12.3718
懿	-12.3725
湛	-12.3729
叩	-12.3735
炆	-12.3737
棧	-12.3743
珀	-12.3767
愉	-12.3768
𢴈	-12.3773
郝	-12.379
眯	-12.3791
熹	-12.3809
澀	-12.3814
蔗	-12.382
塚	-12.3826
臍	-12.3887
４	-12.3893
占	-12.3898
奢	-12.3899
閤	-12.3905
瀧	-12.3953
燙	-12.3953
拐	-12.3953
寰	-12.3983
荀	-12.3996
臀	-12.4002
崙	-12.4002
鍛	-12.402
獌	-12.402
搗	-12.402
逛	-12.4032
Ｏ	-12.4045
褪	-12.4069
嚼	-12.4081
舵	-12.4087
−	-12.4112
躺	-12.4112
拌	-12.4118
嚐	-12.4137
踹	-12.4149
咔	-12.415
囝	-12.4168
𡃈	-12.418
鵰	-12.4217
噪	-12.4221
睩	-12.423
准	-12.4273
礁	-12.428
擅	-12.4283
繃	-12.4286
冶	-12.4292
廬	-12.4299
僱	-12.4305
澎	-12.433
睛	-12.4337
躬	-12.4349
佘	-12.4362
鬨	-12.4374
雛	-12.4381
糞	-12.4387
釗	-12.4387
掀	-12.439
豫	-12.4393
剌	-12.44
Ｑ	-12.44
臻	-12.4412
螂	-12.4425
胺	-12.4425
５	-12.4495
洙	-12.4502
宙	-12.4514
戌	-12.4527
綸	-12.4534
偵	-12.4571
撘	-12.4579
苛	-12.4585
炯	-12.4592
抑	-12.4594
糜	-12.4605
晝	-12.4623
疹	-12.463
螳	-12.4631
殉	-12.4689
狡	-12.4709
槳	-12.4722
搦	-12.4728
韜	-12.4728
枷	-12.4735
嘻	-12.4735
嫖	-12.4735
巳	-12.4742
拃	-12.4742
悍	-12.4742
扼	-12.4742
怎	-12.4748
啄	-12.4755
冕	-12.4813
諫	-12.4821
埔	-12.4821
焉	-12.4827
痺	-12.4834
祟	-12.4841
芋	-12.486
札	-12.4867
鏗	-12.4867
鈉	-12.488
逞	-12.488
à	-12.4887
睏	-12.4887
絆	-12.4894
ä	-12.4914
ō	-12.492
瞻	-12.4954
蹟	-12.498
狸	-12.4981
矣	-12.4994
劵	-12.5008
弩	-12.5021
喧	-12.5028
埞	-12.5028
漬	-12.5042
妨	-12.5046
灝	-12.5055
硝	-12.5082
垃	-12.5089
瀚	-12.5096
曜	-12.5103
骸	-12.5144
寢	-12.515
癱	-12.5164
馭	-12.5171
閨	-12.5171
絞	-12.5198
鄂	-12.5198
焊	-12.5205
諜	-12.5214
煽	-12.5226
昊	-12.5226
嚕	-12.5233
篡	-12.5233
▲	-12.5238
Ｃ	-12.5247
亥	-12.5274
墻	-12.5274
渭	-12.5302
唨	-12.5323
芹	-12.533
餉	-12.5344
悄	-12.5378
樁	-12.5414
粹	-12.542
卽	-12.5463
朦	-12.5463
９	-12.5484
敖	-12.5498
佗	-12.5505
溯	-12.5505
旻	-12.5519
襄	-12.5526
酌	-12.5526
綏	-12.5534
翌	-12.5538
渺	-12.5555
輾	-12.5576
趾	-12.5618
篩	-12.5626
贓	-12.5626
檀	-12.5633
灼	-12.5648
燁	-12.5662
掙	-12.5669
躲	-12.5691
羈	-12.5691
嬉	-12.5706
潰	-12.5778
攸	-12.5778
忿	-12.5778
晞	-12.5785
饑	-12.5785
咲	-12.5793
衙	-12.5826
胖	-12.5829
邸	-12.5829
拙	-12.5829
梘	-12.5829
鷺	-12.5836
璧	-12.5836
禱	-12.5844
奄	-12.5844
磷	-12.585
宛	-12.5865
喃	-12.5873
嫣	-12.5873
Ｌ	-12.5895
庵	-12.5903
擄	-12.594
傢	-12.5978
儘	-12.5989
毋	-12.5991
Ｓ	-12.5992
矩	-12.5997
阜	-12.6006
瞪	-12.6006
熬	-12.6006
禹	-12.6021
杆	-12.6036
仄	-12.6044
藹	-12.6051
鰻	-12.6059
孚	-12.6081
睿	-12.6096
梧	-12.6096
鎂	-12.6096
竿	-12.6104
稽	-12.6111
塢	-12.6119
捻	-12.6141
瀕	-12.6149
牲	-12.6164
熾	-12.6187
羌	-12.6194
穢	-12.6194
擂	-12.6206
厹	-12.621
描	-12.6236
揩	-12.624
缽	-12.627
懋	-12.6316
粽	-12.6324
贛	-12.6332
惦	-12.6347
豁	-12.6352
豉	-12.6353
侶	-12.6354
戊	-12.6355
梭	-12.637
揣	-12.637
腕	-12.6383
嗅	-12.6394
糭	-12.6401
肘	-12.6402
舂	-12.6425
霆	-12.6447
痹	-12.6479
萃	-12.6487
筠	-12.6503
撃	-12.6503
沓	-12.6518
彝	-12.6526
瞌	-12.6542
蔴	-12.6542
瞭	-12.655
戙	-12.6565
Ｂ	-12.6566
哽	-12.6573
冪	-12.6581
謊	-12.6604
ô	-12.6605
笈	-12.6605
Ｔ	-12.6605
綽	-12.6643
繆	-12.6644
鷗	-12.6652
噱	-12.666
嘖	-12.6684
抺	-12.6684
麒	-12.67
軨	-12.67
箒	-12.6724
蜢	-12.6732
Ｐ	-12.6748
瀅	-12.6756
歧	-12.6788
曙	-12.6797
諦	-12.6821
綾	-12.6821
茉	-12.6821
ː	-12.6845
俯	-12.6845
嘰	-12.6845
蹈	-12.6857
㗾	-12.6861
熒	-12.6861
揞	-12.6869
寥	-12.6869
遁	-12.6869
嘸	-12.6894
鹵	-12.6902
榴	-12.6902
竺	-12.691
鬍	-12.6918
𠽤	-12.6918
箏	-12.6918
抒	-12.6923
蛤	-12.6934
誣	-12.6935
魅	-12.6938
囗	-12.6943
塱	-12.6975
罌	-12.6984
訣	-12.6992
ˈ	-12.6992
蔑	-12.6992
𡃁	-12.6999
â	-12.7
朔	-12.7
Ｍ	-12.7008
簷	-12.7017
徙	-12.7066
稜	-12.7066
犀	-12.7088
禦	-12.7098
膀	-12.7099
匈	-12.7108
蛆	-12.7108
阪	-12.7111
殮	-12.7124
挈	-12.7133
筵	-12.7174
酋	-12.7183
諭	-12.7191
嗒	-12.7191
畝	-12.7225
Ｅ	-12.7225
畿	-12.7242
昔	-12.7248
殲	-12.7259
淹	-12.7259
踐	-12.7264
噩	-12.7275
峇	-12.7292
璽	-12.7292
諺	-12.7309
琉	-12.7315
沮	-12.7318
蜆	-12.7326
墩	-12.7335
蛛	-12.7335
É	-12.7343
７	-12.7352
狹	-12.7359
蓆	-12.7368
醮	-12.7369
錨	-12.7394
菱	-12.7405
蕪	-12.7412
廝	-12.742
𠻘	-12.7429
鶯	-12.7429
鏘	-12.7437
愕	-12.7441
趷	-12.7455
堀	-12.7455
氛	-12.7472
粟	-12.7504
癖	-12.7505
澗	-12.7515
瞬	-12.7527
烷	-12.7532
銹	-12.755
疼	-12.7559
囍	-12.7567
衹	-12.7602
嗟	-12.7619
楔	-12.7646
Ｋ	-12.7664
８	-12.7664
蜎	-12.7672
窺	-12.769
貸	-12.7701
澱	-12.7733
瞇	-12.7734
睥	-12.7734
丑	-12.7736
彙	-12.774
飼	-12.7741
駝	-12.7743
痠	-12.7743
她	-12.7769
崑	-12.7778
喐	-12.7778
[...]
